{
  "end_marker": "</w>",
  "merges": [
    [
      "e",
      "</w>"
    ],
    [
      "t",
      "</w>"
    ],
    [
      "s",
      "</w>"
    ],
    [
      "a",
      "n"
    ],
    [
      "t",
      "e"
    ],
    [
      ",",
      "</w>"
    ],
    [
      "i",
      "n"
    ],
    [
      "t",
      "h"
    ],
    [
      "d",
      "</w>"
    ],
    [
      "o",
      "r"
    ],
    [
      "r",
      "e"
    ],
    [
      "o",
      "n"
    ],
    [
      ".",
      "</w>"
    ],
    [
      "i",
      "t</w>"
    ],
    [
      "s",
      ",</w>"
    ],
    [
      "e",
      "n"
    ],
    [
      "or",
      "</w>"
    ],
    [
      "th",
      "e</w>"
    ],
    [
      "d",
      "e"
    ],
    [
      "r",
      "i"
    ],
    [
      "t",
      "a"
    ],
    [
      "p",
      "l"
    ],
    [
      "l",
      "</w>"
    ],
    [
      "g",
      "e"
    ],
    [
      "an",
      "d</w>"
    ],
    [
      "t",
      "i"
    ],
    [
      "t",
      "e</w>"
    ],
    [
      "in",
      "</w>"
    ],
    [
      "a",
      "m"
    ],
    [
      "e",
      "r"
    ],
    [
      "c",
      "h"
    ],
    [
      "e",
      "c"
    ],
    [
      "t",
      "o"
    ],
    [
      "g",
      "u"
    ],
    [
      "to",
      "</w>"
    ],
    [
      "s",
      "e"
    ],
    [
      "o",
      "u"
    ],
    [
      "t",
      "s</w>"
    ],
    [
      "c",
      "on"
    ],
    [
      "s",
      ".</w>"
    ],
    [
      "s",
      "te"
    ],
    [
      "ti",
      "on"
    ],
    [
      "i",
      "s</w>"
    ],
    [
      "v",
      "i"
    ],
    [
      "s",
      "h"
    ],
    [
      "s",
      "y"
    ],
    [
      "m",
      "e"
    ],
    [
      "a",
      "l</w>"
    ],
    [
      "en",
      "</w>"
    ],
    [
      "m",
      "a"
    ],
    [
      "te",
      "s"
    ],
    [
      "sy",
      "ste"
    ],
    [
      "syste",
      "m"
    ],
    [
      "ge",
      ",</w>"
    ],
    [
      "ch",
      "an"
    ],
    [
      "l",
      "d</w>"
    ],
    [
      "sh",
      "ou"
    ],
    [
      "shou",
      "ld</w>"
    ],
    [
      "w",
      "h"
    ],
    [
      "ec",
      "t</w>"
    ],
    [
      "d",
      "a"
    ],
    [
      "da",
      "ta"
    ],
    [
      "s",
      "i"
    ],
    [
      "c",
      "e</w>"
    ],
    [
      "t",
      "ri"
    ],
    [
      "me",
      "tri"
    ],
    [
      "metri",
      "c"
    ],
    [
      "i",
      "d"
    ],
    [
      "metric",
      "s,</w>"
    ],
    [
      "chan",
      "ge"
    ],
    [
      "w",
      "ri"
    ],
    [
      "pl",
      "a"
    ],
    [
      "x",
      "am"
    ],
    [
      "xam",
      "pl"
    ],
    [
      "tes",
      "ts</w>"
    ],
    [
      "system",
      "</w>"
    ],
    [
      "te",
      "am"
    ],
    [
      "team",
      "s</w>"
    ],
    [
      "pla",
      "in</w>"
    ],
    [
      "a",
      "ge,</w>"
    ],
    [
      "con",
      "n"
    ],
    [
      "conn",
      "ect</w>"
    ],
    [
      "a",
      "c"
    ],
    [
      "g",
      "</w>"
    ],
    [
      "c",
      "o"
    ],
    [
      "g",
      "n"
    ],
    [
      "re",
      "vi"
    ],
    [
      "u",
      "r"
    ],
    [
      "b",
      "l"
    ],
    [
      "l",
      "an"
    ],
    [
      "n",
      "o"
    ],
    [
      "xampl",
      "e</w>"
    ],
    [
      "lan",
      "gu"
    ],
    [
      "E",
      "xample</w>"
    ],
    [
      "no",
      "te</w>"
    ],
    [
      ":",
      "</w>"
    ],
    [
      "wri",
      "te</w>"
    ],
    [
      "th",
      "is</w>"
    ],
    [
      "gu",
      "id"
    ],
    [
      "guid",
      "an"
    ],
    [
      "guidan",
      "ce</w>"
    ],
    [
      "langu",
      "age,</w>"
    ],
    [
      "revi",
      "s"
    ],
    [
      "revis",
      "it</w>"
    ],
    [
      "wh",
      "en</w>"
    ],
    [
      "data",
      "se"
    ],
    [
      "datase",
      "t</w>"
    ],
    [
      "change",
      "s.</w>"
    ],
    [
      "in",
      "g</w>"
    ],
    [
      "on",
      "</w>"
    ],
    [
      "e",
      "s</w>"
    ],
    [
      "tion",
      "</w>"
    ],
    [
      "a",
      "t</w>"
    ],
    [
      "si",
      "gn"
    ],
    [
      "m",
      "en"
    ],
    [
      "u",
      "s"
    ],
    [
      "bl",
      "e</w>"
    ],
    [
      "o",
      "p"
    ],
    [
      "re",
      "al</w>"
    ],
    [
      "a",
      "r"
    ],
    [
      "t",
      "r"
    ],
    [
      "a",
      "s"
    ],
    [
      "i",
      "l"
    ],
    [
      "u",
      "n"
    ],
    [
      "o",
      "f"
    ],
    [
      "l",
      "o"
    ],
    [
      "re",
      "s"
    ],
    [
      "de",
      "sign"
    ],
    [
      "r",
      "o"
    ],
    [
      "ur",
      "e</w>"
    ],
    [
      "T",
      "h"
    ],
    [
      "a",
      "te"
    ],
    [
      "l",
      "l</w>"
    ],
    [
      "o",
      "c"
    ],
    [
      "oc",
      "u"
    ],
    [
      "s",
      "ta"
    ],
    [
      "f",
      "u"
    ],
    [
      "k",
      "</w>"
    ],
    [
      "th",
      "at</w>"
    ],
    [
      "ma",
      "in"
    ],
    [
      "a",
      "l"
    ],
    [
      "in",
      "e"
    ],
    [
      "a",
      "tion"
    ],
    [
      "w",
      "or"
    ],
    [
      "er",
      "s</w>"
    ],
    [
      "g",
      "ine"
    ],
    [
      "i",
      "c"
    ],
    [
      "m",
      "o"
    ],
    [
      "e",
      "s"
    ],
    [
      "mo",
      "de"
    ],
    [
      "e",
      "d"
    ],
    [
      "m",
      "i"
    ],
    [
      "a",
      "d"
    ],
    [
      "h",
      "a"
    ],
    [
      "g",
      "e</w>"
    ],
    [
      "c",
      "l"
    ],
    [
      "b",
      "ac"
    ],
    [
      "t",
      "s,</w>"
    ],
    [
      "p",
      "ro"
    ],
    [
      "i",
      "th"
    ],
    [
      "w",
      "ith"
    ],
    [
      "c",
      "t"
    ],
    [
      "c",
      "e"
    ],
    [
      "er",
      "</w>"
    ],
    [
      "co",
      "m"
    ],
    [
      "with",
      "</w>"
    ],
    [
      "e",
      "l"
    ],
    [
      "f",
      "or</w>"
    ],
    [
      "te",
      "r"
    ],
    [
      "p",
      "u"
    ],
    [
      "u",
      "re"
    ],
    [
      "i",
      "m"
    ],
    [
      "a",
      "ble</w>"
    ],
    [
      "men",
      "ts</w>"
    ],
    [
      "u",
      "e"
    ],
    [
      "co",
      "de"
    ],
    [
      "men",
      "ta"
    ],
    [
      "menta",
      "tion</w>"
    ],
    [
      "of",
      "</w>"
    ],
    [
      "com",
      "m"
    ],
    [
      "de",
      "b"
    ],
    [
      "de",
      "r"
    ],
    [
      "a",
      "</w>"
    ],
    [
      "me",
      "as"
    ],
    [
      "d",
      "s</w>"
    ],
    [
      "A",
      "</w>"
    ],
    [
      "comm",
      "on</w>"
    ],
    [
      "pu",
      "ts,</w>"
    ],
    [
      "f",
      "a"
    ],
    [
      "fa",
      "il"
    ],
    [
      "op",
      "er"
    ],
    [
      "oper",
      "ation"
    ],
    [
      "k",
      "e</w>"
    ],
    [
      "s",
      "ma"
    ],
    [
      "sma",
      "ll</w>"
    ],
    [
      "gine",
      "ers</w>"
    ],
    [
      "wor",
      "k</w>"
    ],
    [
      "se",
      "fu"
    ],
    [
      "sefu",
      "l</w>"
    ],
    [
      "y",
      "</w>"
    ],
    [
      "c",
      "y"
    ],
    [
      "a",
      "se"
    ],
    [
      "t",
      "in"
    ],
    [
      "u",
      "l"
    ],
    [
      "d",
      "e</w>"
    ],
    [
      "p",
      "en"
    ],
    [
      "er",
      "v"
    ],
    [
      "mode",
      "l"
    ],
    [
      "j",
      "ec"
    ],
    [
      "p",
      "</w>"
    ],
    [
      "f",
      "ac"
    ],
    [
      "te",
      "n"
    ],
    [
      "e",
      "w"
    ],
    [
      "r",
      "or</w>"
    ],
    [
      "as",
      "s"
    ],
    [
      "sy",
      "n"
    ],
    [
      "n",
      "er"
    ],
    [
      "c",
      "id"
    ],
    [
      "de",
      "pen"
    ],
    [
      "tion",
      "s</w>"
    ],
    [
      "or",
      "ing</w>"
    ],
    [
      "design",
      "</w>"
    ],
    [
      "ew",
      "</w>"
    ],
    [
      "t",
      "ing</w>"
    ],
    [
      "er",
      "ror</w>"
    ],
    [
      "e",
      "m"
    ],
    [
      "con",
      "tin"
    ],
    [
      "bac",
      "k"
    ],
    [
      "e",
      "s,</w>"
    ],
    [
      "e",
      "ar"
    ],
    [
      "e",
      "x"
    ],
    [
      "n",
      "e"
    ],
    [
      "k",
      "s</w>"
    ],
    [
      "d",
      "u"
    ],
    [
      "design",
      ",</w>"
    ],
    [
      "ri",
      "es,</w>"
    ],
    [
      "E",
      "n"
    ],
    [
      "du",
      "c"
    ],
    [
      "tr",
      "a"
    ],
    [
      "or",
      "e</w>"
    ],
    [
      "ti",
      "c"
    ],
    [
      "e",
      "d</w>"
    ],
    [
      "o",
      "s"
    ],
    [
      "pro",
      "duc"
    ],
    [
      "a",
      "d</w>"
    ],
    [
      "system",
      "s</w>"
    ],
    [
      "data",
      "</w>"
    ],
    [
      "op",
      "ti"
    ],
    [
      "opti",
      "mi"
    ],
    [
      "optimi",
      "z"
    ],
    [
      "p",
      "or"
    ],
    [
      "us",
      "e</w>"
    ],
    [
      "produc",
      "tion</w>"
    ],
    [
      "c",
      "or"
    ],
    [
      "i",
      "gn"
    ],
    [
      "p",
      "re"
    ],
    [
      "u",
      "m"
    ],
    [
      "t",
      "ure</w>"
    ],
    [
      "ter",
      "n"
    ],
    [
      "se",
      "d</w>"
    ],
    [
      "tr",
      "ac"
    ],
    [
      "b",
      "e"
    ],
    [
      "v",
      "es</w>"
    ],
    [
      "t",
      "u"
    ],
    [
      "ar",
      "ch"
    ],
    [
      "ed",
      "ge</w>"
    ],
    [
      "f",
      "e"
    ],
    [
      "s",
      "p"
    ],
    [
      "l",
      "ate"
    ],
    [
      "ate",
      "s</w>"
    ],
    [
      "cl",
      "u"
    ],
    [
      "late",
      "n"
    ],
    [
      "x",
      "</w>"
    ],
    [
      "ne",
      "ed</w>"
    ],
    [
      "ta",
      "ble</w>"
    ],
    [
      "e",
      "a"
    ],
    [
      "lo",
      "ad"
    ],
    [
      "cl",
      "ear"
    ],
    [
      "clear",
      "</w>"
    ],
    [
      "D",
      "ocu"
    ],
    [
      "Docu",
      "mentation</w>"
    ],
    [
      "q",
      "ue"
    ],
    [
      "an",
      "</w>"
    ],
    [
      "in",
      "ste"
    ],
    [
      "inste",
      "ad</w>"
    ],
    [
      "res",
      "ou"
    ],
    [
      "resou",
      "r"
    ],
    [
      "an",
      "ce"
    ],
    [
      "ance",
      ".</w>"
    ],
    [
      "sign",
      "al"
    ],
    [
      "signal",
      "s</w>"
    ],
    [
      "n",
      "</w>"
    ],
    [
      "ur",
      "al</w>"
    ],
    [
      "con",
      "c"
    ],
    [
      "ic",
      "al</w>"
    ],
    [
      "trac",
      "es</w>"
    ],
    [
      "deb",
      "u"
    ],
    [
      "debu",
      "g</w>"
    ],
    [
      "pre",
      "d"
    ],
    [
      "pred",
      "ic"
    ],
    [
      "be",
      "ha"
    ],
    [
      "beha",
      "vi"
    ],
    [
      "behavi",
      "or"
    ],
    [
      "d",
      "ocu"
    ],
    [
      "docu",
      "ments</w>"
    ],
    [
      "p",
      "res"
    ],
    [
      "R",
      "el"
    ],
    [
      "wri",
      "te"
    ],
    [
      "arch",
      "i"
    ],
    [
      "archi",
      "te"
    ],
    [
      "archite",
      "ct"
    ],
    [
      "sta",
      "te</w>"
    ],
    [
      "un",
      "der"
    ],
    [
      "t",
      "an"
    ],
    [
      "e",
      ",</w>"
    ],
    [
      "ce",
      "p"
    ],
    [
      "i",
      "able</w>"
    ],
    [
      "r",
      "un"
    ],
    [
      "l",
      "ar"
    ],
    [
      "lar",
      "ge</w>"
    ],
    [
      "meas",
      "ure</w>"
    ],
    [
      "n",
      "es"
    ],
    [
      "nes",
      "s,</w>"
    ],
    [
      "il",
      "e</w>"
    ],
    [
      "ta",
      "in"
    ],
    [
      "e",
      "xampl"
    ],
    [
      "exampl",
      "es</w>"
    ],
    [
      "es",
      "e</w>"
    ],
    [
      "mi",
      "sta"
    ],
    [
      "mista",
      "ke</w>"
    ],
    [
      "optimiz",
      "ing</w>"
    ],
    [
      "vi",
      "si"
    ],
    [
      "visi",
      "ble</w>"
    ],
    [
      "syn",
      "ta"
    ],
    [
      "synta",
      "x</w>"
    ],
    [
      "wh",
      "ile</w>"
    ],
    [
      "ign",
      "oring</w>"
    ],
    [
      "f",
      "lo"
    ],
    [
      "flo",
      "w"
    ],
    [
      "flow",
      ".</w>"
    ],
    [
      "G",
      "o"
    ],
    [
      "Go",
      "o"
    ],
    [
      "Goo",
      "d</w>"
    ],
    [
      "te",
      "ch"
    ],
    [
      "tech",
      "n"
    ],
    [
      "techn",
      "ical</w>"
    ],
    [
      "in",
      "puts,</w>"
    ],
    [
      "ou",
      "t"
    ],
    [
      "out",
      "puts,</w>"
    ],
    [
      "change",
      "s,</w>"
    ],
    [
      "o",
      "w"
    ],
    [
      "ow",
      "ner"
    ],
    [
      "owner",
      "sh"
    ],
    [
      "ownersh",
      "i"
    ],
    [
      "ownershi",
      "p"
    ],
    [
      "ownership",
      ".</w>"
    ],
    [
      "Th",
      "at</w>"
    ],
    [
      "vi",
      "ew</w>"
    ],
    [
      "ma",
      "k"
    ],
    [
      "mak",
      "es</w>"
    ],
    [
      "ea",
      "si"
    ],
    [
      "easi",
      "er</w>"
    ],
    [
      "tes",
      "t</w>"
    ],
    [
      "fail",
      "ure"
    ],
    [
      "failure",
      "s</w>"
    ],
    [
      "under",
      "</w>"
    ],
    [
      "load",
      ".</w>"
    ],
    [
      "-",
      "2"
    ],
    [
      "-2",
      ":</w>"
    ],
    [
      "im",
      "por"
    ],
    [
      "impor",
      "tan"
    ],
    [
      "importan",
      "t</w>"
    ],
    [
      "b",
      "ec"
    ],
    [
      "bec",
      "a"
    ],
    [
      "beca",
      "use</w>"
    ],
    [
      "predic",
      "table</w>"
    ],
    [
      "behavior",
      ",</w>"
    ],
    [
      "fail",
      "ure</w>"
    ],
    [
      "mode",
      "s,</w>"
    ],
    [
      "main",
      "tain"
    ],
    [
      "maintain",
      "able</w>"
    ],
    [
      "code",
      ".</w>"
    ],
    [
      "p",
      "r"
    ],
    [
      "pr",
      "ac"
    ],
    [
      "prac",
      "tic"
    ],
    [
      "practic",
      "al</w>"
    ],
    [
      "im",
      "pl"
    ],
    [
      "impl",
      "e"
    ],
    [
      "imple",
      "mentation</w>"
    ],
    [
      "sta",
      "r"
    ],
    [
      "star",
      "ts</w>"
    ],
    [
      "in",
      "ter"
    ],
    [
      "inter",
      "fac"
    ],
    [
      "interfac",
      "e,</w>"
    ],
    [
      "ad",
      "ds</w>"
    ],
    [
      "c",
      "ase"
    ],
    [
      "case",
      "s,</w>"
    ],
    [
      "ass",
      "um"
    ],
    [
      "assum",
      "p"
    ],
    [
      "assump",
      "tions</w>"
    ],
    [
      "fu",
      "ture</w>"
    ],
    [
      "en",
      "gineers</w>"
    ],
    [
      "m",
      "us"
    ],
    [
      "mus",
      "t</w>"
    ],
    [
      "pres",
      "erv"
    ],
    [
      "preserv",
      "e"
    ],
    [
      "preserve",
      ".</w>"
    ],
    [
      "-",
      "0"
    ],
    [
      "-0",
      ":</w>"
    ],
    [
      "ex",
      "plain</w>"
    ],
    [
      "pro",
      "bl"
    ],
    [
      "probl",
      "em"
    ],
    [
      "problem",
      ",</w>"
    ],
    [
      "ch",
      "os"
    ],
    [
      "chos",
      "en</w>"
    ],
    [
      "al",
      "tern"
    ],
    [
      "altern",
      "a"
    ],
    [
      "alterna",
      "ti"
    ],
    [
      "alternati",
      "ves</w>"
    ],
    [
      "w",
      "er"
    ],
    [
      "wer",
      "e</w>"
    ],
    [
      "re",
      "jec"
    ],
    [
      "rejec",
      "te"
    ],
    [
      "rejecte",
      "d"
    ],
    [
      "rejected",
      ",</w>"
    ],
    [
      "ri",
      "s"
    ],
    [
      "ris",
      "ks</w>"
    ],
    [
      "re",
      "main"
    ],
    [
      "remain",
      ".</w>"
    ],
    [
      "S",
      "h"
    ],
    [
      "Sh",
      "or"
    ],
    [
      "Shor",
      "t</w>"
    ],
    [
      "h",
      "el"
    ],
    [
      "hel",
      "p</w>"
    ],
    [
      "re",
      "a"
    ],
    [
      "rea",
      "der"
    ],
    [
      "reader",
      "s</w>"
    ],
    [
      "con",
      "cep"
    ],
    [
      "concep",
      "t</w>"
    ],
    [
      "code",
      ",</w>"
    ],
    [
      "que",
      "ries,</w>"
    ],
    [
      "model",
      "s,</w>"
    ],
    [
      "operation",
      "s.</w>"
    ],
    [
      "-",
      "3"
    ],
    [
      "-3",
      ":</w>"
    ],
    [
      "W",
      "h"
    ],
    [
      "Wh",
      "en</w>"
    ],
    [
      "th",
      "e"
    ],
    [
      "the",
      "y</w>"
    ],
    [
      "res",
      "ul"
    ],
    [
      "resul",
      "t</w>"
    ],
    [
      "tr",
      "us"
    ],
    [
      "trus",
      "ting</w>"
    ],
    [
      "in",
      "tu"
    ],
    [
      "intu",
      "i"
    ],
    [
      "intui",
      "tion"
    ],
    [
      "intuition",
      ".</w>"
    ],
    [
      "U",
      "seful</w>"
    ],
    [
      "meas",
      "ure"
    ],
    [
      "measure",
      "ments</w>"
    ],
    [
      "in",
      "clu"
    ],
    [
      "inclu",
      "de</w>"
    ],
    [
      "laten",
      "cy"
    ],
    [
      "latency",
      ",</w>"
    ],
    [
      "cor",
      "re"
    ],
    [
      "corre",
      "ct"
    ],
    [
      "correct",
      "ness,</w>"
    ],
    [
      "resour",
      "ce</w>"
    ],
    [
      "us",
      "age,</w>"
    ],
    [
      "r",
      "ate"
    ],
    [
      "rate",
      "s,</w>"
    ],
    [
      "co",
      "s"
    ],
    [
      "cos",
      "t</w>"
    ],
    [
      "operation",
      "al</w>"
    ],
    [
      "main",
      "ten"
    ],
    [
      "mainten",
      "ance.</w>"
    ],
    [
      "Th",
      "ese</w>"
    ],
    [
      "t",
      "ur"
    ],
    [
      "tur",
      "n</w>"
    ],
    [
      "architect",
      "ural</w>"
    ],
    [
      "deb",
      "ates</w>"
    ],
    [
      "in",
      "to</w>"
    ],
    [
      "conc",
      "re"
    ],
    [
      "concre",
      "te</w>"
    ],
    [
      "tra",
      "de"
    ],
    [
      "trade",
      "of"
    ],
    [
      "tradeof",
      "f"
    ],
    [
      "tradeoff",
      "s.</w>"
    ],
    [
      "-",
      "1"
    ],
    [
      "-1",
      ":</w>"
    ],
    [
      "Rel",
      "iable</w>"
    ],
    [
      "depen",
      "ds</w>"
    ],
    [
      "fe",
      "ed"
    ],
    [
      "feed",
      "bac"
    ],
    [
      "feedbac",
      "k</w>"
    ],
    [
      "lo",
      "op"
    ],
    [
      "loop",
      "s.</w>"
    ],
    [
      "En",
      "gineers</w>"
    ],
    [
      "ma",
      "ke</w>"
    ],
    [
      "chan",
      "ge,</w>"
    ],
    [
      "run",
      "</w>"
    ],
    [
      "f",
      "ocu"
    ],
    [
      "focu",
      "sed</w>"
    ],
    [
      "ch",
      "ec"
    ],
    [
      "chec",
      "k"
    ],
    [
      "check",
      "s,</w>"
    ],
    [
      "in",
      "sp"
    ],
    [
      "insp",
      "ect</w>"
    ],
    [
      "th",
      "en</w>"
    ],
    [
      "de",
      "cid"
    ],
    [
      "decid",
      "e</w>"
    ],
    [
      "wh",
      "e"
    ],
    [
      "whe",
      "th"
    ],
    [
      "wheth",
      "er</w>"
    ],
    [
      "contin",
      "ue"
    ],
    [
      "continue",
      ",</w>"
    ],
    [
      "ro",
      "ll</w>"
    ],
    [
      "back",
      ",</w>"
    ],
    [
      "re",
      "design"
    ],
    [
      "redesign",
      ".</w>"
    ],
    [
      "Th",
      "is</w>"
    ],
    [
      "ha",
      "b"
    ],
    [
      "hab",
      "it</w>"
    ],
    [
      "m",
      "ore</w>"
    ],
    [
      "u",
      "seful</w>"
    ],
    [
      "th",
      "an</w>"
    ],
    [
      "un",
      "te"
    ],
    [
      "unte",
      "ste"
    ],
    [
      "unteste",
      "d</w>"
    ],
    [
      "re",
      "write"
    ],
    [
      "rewrite",
      "s.</w>"
    ],
    [
      "-",
      "4"
    ],
    [
      "-4",
      ":</w>"
    ],
    [
      "a",
      "tion</w>"
    ],
    [
      "en",
      "t</w>"
    ],
    [
      "t",
      "y</w>"
    ],
    [
      "i",
      "</w>"
    ],
    [
      "i",
      "z"
    ],
    [
      "in",
      "g"
    ],
    [
      "g",
      "r"
    ],
    [
      "v",
      "al"
    ],
    [
      "y",
      "th"
    ],
    [
      "yth",
      "on</w>"
    ],
    [
      "iz",
      "ation</w>"
    ],
    [
      "an",
      "s"
    ],
    [
      "a",
      "b"
    ],
    [
      "i",
      "da"
    ],
    [
      "ab",
      "il"
    ],
    [
      "abil",
      "i"
    ],
    [
      "q",
      "u"
    ],
    [
      "i",
      "ent</w>"
    ],
    [
      "ing",
      ",</w>"
    ],
    [
      "en",
      "c"
    ],
    [
      "er",
      "y</w>"
    ],
    [
      "a",
      "t"
    ],
    [
      "ida",
      "tion</w>"
    ],
    [
      "abili",
      "ty</w>"
    ],
    [
      "a",
      "p"
    ],
    [
      "l",
      "e"
    ],
    [
      "sh",
      "ing</w>"
    ],
    [
      "w",
      "ar"
    ],
    [
      "en",
      "gine"
    ],
    [
      "engine",
      "er"
    ],
    [
      "data",
      "b"
    ],
    [
      "datab",
      "ase"
    ],
    [
      "database",
      "s</w>"
    ],
    [
      "of",
      "t"
    ],
    [
      "oft",
      "war"
    ],
    [
      "oftwar",
      "e</w>"
    ],
    [
      "engineer",
      "ing</w>"
    ],
    [
      "tr",
      "ans"
    ],
    [
      "er",
      "s"
    ],
    [
      "val",
      "idation</w>"
    ],
    [
      "a",
      "i</w>"
    ],
    [
      "m",
      "l</w>"
    ],
    [
      "s",
      "oftware</w>"
    ],
    [
      "s",
      "e</w>"
    ],
    [
      "cy",
      "b"
    ],
    [
      "cyb",
      "ers"
    ],
    [
      "cybers",
      "ec"
    ],
    [
      "cybersec",
      "u"
    ],
    [
      "cybersecu",
      "ri"
    ],
    [
      "cybersecuri",
      "ty</w>"
    ],
    [
      "p",
      "ython</w>"
    ],
    [
      "ap",
      "i</w>"
    ],
    [
      "ac",
      "k"
    ],
    [
      "gr",
      "ation"
    ],
    [
      "f",
      "or"
    ],
    [
      "s",
      "c"
    ],
    [
      "er",
      "vi"
    ],
    [
      "pl",
      "ic"
    ],
    [
      "s",
      "erv"
    ],
    [
      "p",
      "o"
    ],
    [
      "A",
      "P"
    ],
    [
      "AP",
      "I"
    ],
    [
      "de",
      "x"
    ],
    [
      "-",
      "t"
    ],
    [
      "k",
      "en"
    ],
    [
      "or",
      "ma"
    ],
    [
      "orma",
      "l"
    ],
    [
      "for",
      "m"
    ],
    [
      "fac",
      "t"
    ],
    [
      "pl",
      "i"
    ],
    [
      "in",
      "te"
    ],
    [
      "d",
      "enc"
    ],
    [
      "n",
      "ing</w>"
    ],
    [
      "de",
      "f"
    ],
    [
      "p",
      "ack"
    ],
    [
      "pack",
      "a"
    ],
    [
      "pl",
      "an"
    ],
    [
      "ch",
      "e"
    ],
    [
      "che",
      "ma"
    ],
    [
      "chema",
      "</w>"
    ],
    [
      "co",
      "v"
    ],
    [
      "ine",
      "-t"
    ],
    [
      "ine-t",
      "un"
    ],
    [
      "s",
      "pli"
    ],
    [
      "b",
      "serv"
    ],
    [
      "h",
      "i"
    ],
    [
      "u",
      "ou"
    ],
    [
      "uou",
      "s</w>"
    ],
    [
      "val",
      "u"
    ],
    [
      "valu",
      "ation</w>"
    ],
    [
      "d",
      "ing"
    ],
    [
      "ation",
      ",</w>"
    ],
    [
      "g",
      "g"
    ],
    [
      "S",
      "T"
    ],
    [
      "p",
      "at"
    ],
    [
      "qu",
      "es"
    ],
    [
      "re",
      "at</w>"
    ],
    [
      "P",
      "ython</w>"
    ],
    [
      "packa",
      "ge"
    ],
    [
      "h",
      "an"
    ],
    [
      "han",
      "d"
    ],
    [
      "R",
      "E"
    ],
    [
      "RE",
      "ST"
    ],
    [
      "REST",
      "</w>"
    ],
    [
      "en",
      "d"
    ],
    [
      "end",
      "po"
    ],
    [
      "endpo",
      "in"
    ],
    [
      "f",
      "i"
    ],
    [
      "denc",
      "y</w>"
    ],
    [
      "in",
      "jec"
    ],
    [
      "hi",
      "shing</w>"
    ],
    [
      "def",
      "en"
    ],
    [
      "API",
      "</w>"
    ],
    [
      "ad",
      "ient</w>"
    ],
    [
      "de",
      "sc"
    ],
    [
      "ar",
      "ti"
    ],
    [
      "arti",
      "tion"
    ],
    [
      "b",
      "ed"
    ],
    [
      "bed",
      "ding"
    ],
    [
      "u",
      "p</w>"
    ],
    [
      "re",
      "cov"
    ],
    [
      "ervi",
      "ce</w>"
    ],
    [
      "b",
      "ou"
    ],
    [
      "bou",
      "n"
    ],
    [
      "boun",
      "da"
    ],
    [
      "mi",
      "gration"
    ],
    [
      "as",
      "t</w>"
    ],
    [
      "p",
      "ri"
    ],
    [
      "pri",
      "vi"
    ],
    [
      "privi",
      "le"
    ],
    [
      "ass",
      "wor"
    ],
    [
      "asswor",
      "d</w>"
    ],
    [
      "S",
      "D"
    ],
    [
      "SD",
      "K"
    ],
    [
      "u",
      "d"
    ],
    [
      "ud",
      "it</w>"
    ],
    [
      "lo",
      "gg"
    ],
    [
      "ul",
      "ner"
    ],
    [
      "ulner",
      "ability</w>"
    ],
    [
      "pat",
      "ch"
    ],
    [
      "cid",
      "ent</w>"
    ],
    [
      "res",
      "p"
    ],
    [
      "resp",
      "on"
    ],
    [
      "ques",
      "t</w>"
    ],
    [
      "syn",
      "c"
    ],
    [
      "sync",
      "</w>"
    ],
    [
      "wor",
      "k"
    ],
    [
      "hand",
      "l"
    ],
    [
      "r",
      "y"
    ],
    [
      "ry",
      "p"
    ],
    [
      "ri",
      "al"
    ],
    [
      "fi",
      "gu"
    ],
    [
      "figu",
      "r"
    ],
    [
      "dex",
      "es</w>"
    ],
    [
      "to",
      "ken"
    ],
    [
      "ormal",
      "ization</w>"
    ],
    [
      "ac",
      "tions</w>"
    ],
    [
      "co",
      "de</w>"
    ],
    [
      "s",
      "chema</w>"
    ],
    [
      "ine-tun",
      "ing</w>"
    ],
    [
      "plic",
      "ation</w>"
    ],
    [
      "spli",
      "ts</w>"
    ],
    [
      "form",
      "ers</w>"
    ],
    [
      "bserv",
      "ability</w>"
    ],
    [
      "ten",
      "tion</w>"
    ],
    [
      "fact",
      "oring</w>"
    ],
    [
      "revi",
      "ew</w>"
    ],
    [
      "inte",
      "gr"
    ],
    [
      "integr",
      "ation</w>"
    ],
    [
      "tion",
      ",</w>"
    ],
    [
      "th",
      "reat</w>"
    ],
    [
      "package",
      "s</w>"
    ],
    [
      "model",
      "ing</w>"
    ],
    [
      "1",
      "-2:</w>"
    ],
    [
      "0",
      "-3:</w>"
    ],
    [
      "2",
      "-3:</w>"
    ],
    [
      "4",
      "-4:</w>"
    ],
    [
      "2",
      "-2:</w>"
    ],
    [
      "0",
      "-2:</w>"
    ],
    [
      "1",
      "-0:</w>"
    ],
    [
      "4",
      "-3:</w>"
    ],
    [
      "2",
      "-4:</w>"
    ],
    [
      "0",
      "-1:</w>"
    ],
    [
      "2",
      "-0:</w>"
    ],
    [
      "0",
      "-4:</w>"
    ],
    [
      "1",
      "-3:</w>"
    ],
    [
      "3",
      "-4:</w>"
    ],
    [
      "3",
      "-1:</w>"
    ],
    [
      "1",
      "-1:</w>"
    ],
    [
      "3",
      "-0:</w>"
    ],
    [
      "2",
      "-1:</w>"
    ],
    [
      "5",
      "-4:</w>"
    ],
    [
      "1",
      "-4:</w>"
    ],
    [
      "3",
      "-3:</w>"
    ],
    [
      "5",
      "-2:</w>"
    ],
    [
      "0",
      "-0:</w>"
    ],
    [
      "4",
      "-2:</w>"
    ],
    [
      "3",
      "-2:</w>"
    ],
    [
      "5",
      "-0:</w>"
    ],
    [
      "5",
      "-1:</w>"
    ],
    [
      "4",
      "-0:</w>"
    ],
    [
      "5",
      "-3:</w>"
    ],
    [
      "4",
      "-1:</w>"
    ],
    [
      "depen",
      "dency</w>"
    ],
    [
      "injec",
      "tion</w>"
    ],
    [
      "p",
      "hishing</w>"
    ],
    [
      "defen",
      "se</w>"
    ],
    [
      "e",
      "valuation</w>"
    ],
    [
      "metric",
      "s</w>"
    ],
    [
      "contin",
      "uous</w>"
    ],
    [
      "gr",
      "adient</w>"
    ],
    [
      "desc",
      "ent</w>"
    ],
    [
      "p",
      "artition"
    ],
    [
      "un",
      "it</w>"
    ],
    [
      "tes",
      "ting</w>"
    ],
    [
      "em",
      "bedding"
    ],
    [
      "back",
      "up</w>"
    ],
    [
      "s",
      "ervice</w>"
    ],
    [
      "bounda",
      "ri"
    ],
    [
      "boundari",
      "es</w>"
    ],
    [
      "recov",
      "ery</w>"
    ],
    [
      "qu",
      "ery</w>"
    ],
    [
      "plan",
      "ning</w>"
    ],
    [
      "migration",
      "s</w>"
    ],
    [
      "le",
      "ast</w>"
    ],
    [
      "privile",
      "ge</w>"
    ],
    [
      "6",
      "-0:</w>"
    ],
    [
      "p",
      "assword</w>"
    ],
    [
      "ha",
      "shing</w>"
    ],
    [
      "6",
      "-3:</w>"
    ],
    [
      "6",
      "-1:</w>"
    ],
    [
      "6",
      "-2:</w>"
    ],
    [
      "6",
      "-4:</w>"
    ],
    [
      "SDK",
      "s</w>"
    ],
    [
      "a",
      "udit</w>"
    ],
    [
      "logg",
      "ing</w>"
    ],
    [
      "v",
      "ulnerability</w>"
    ],
    [
      "patch",
      "ing</w>"
    ],
    [
      "in",
      "cident</w>"
    ],
    [
      "respon",
      "se</w>"
    ],
    [
      "R",
      "e"
    ],
    [
      "re",
      "quest</w>"
    ],
    [
      "cl",
      "ient</w>"
    ],
    [
      "work",
      "ers</w>"
    ],
    [
      "handl",
      "ing</w>"
    ],
    [
      "endpoin",
      "ts</w>"
    ],
    [
      "enc",
      "ryp"
    ],
    [
      "rial",
      "ization</w>"
    ],
    [
      "con",
      "figur"
    ],
    [
      "a",
      "sync</w>"
    ],
    [
      "8",
      "-0:</w>"
    ],
    [
      "7",
      "-2:</w>"
    ],
    [
      "7",
      "-0:</w>"
    ],
    [
      "9",
      "-2:</w>"
    ],
    [
      "8",
      "-2:</w>"
    ],
    [
      "8",
      "-4:</w>"
    ],
    [
      "9",
      "-3:</w>"
    ],
    [
      "7",
      "-3:</w>"
    ],
    [
      "8",
      "-1:</w>"
    ],
    [
      "9",
      "-1:</w>"
    ],
    [
      "8",
      "-3:</w>"
    ],
    [
      "9",
      "-0:</w>"
    ],
    [
      "9",
      "-4:</w>"
    ],
    [
      "7",
      "-4:</w>"
    ],
    [
      "7",
      "-1:</w>"
    ],
    [
      "in",
      "dexes</w>"
    ],
    [
      "trans",
      "formers</w>"
    ],
    [
      "f",
      "ine-tuning</w>"
    ],
    [
      "o",
      "bservability</w>"
    ],
    [
      "at",
      "tention</w>"
    ],
    [
      "re",
      "factoring</w>"
    ],
    [
      "embedding",
      "s</w>"
    ],
    [
      "token",
      "ization</w>"
    ],
    [
      "trans",
      "actions</w>"
    ],
    [
      "partition",
      "ing</w>"
    ],
    [
      "re",
      "plication</w>"
    ],
    [
      "n",
      "ormalization</w>"
    ],
    [
      "iz",
      "ation,</w>"
    ],
    [
      "encryp",
      "tion</w>"
    ],
    [
      "se",
      "rialization</w>"
    ],
    [
      "configur",
      "ation</w>"
    ],
    [
      "C",
      "on"
    ],
    [
      "I",
      "n"
    ],
    [
      "T",
      "r"
    ],
    [
      "Tr",
      "ans"
    ],
    [
      "er",
      "s,</w>"
    ],
    [
      "y",
      ",</w>"
    ],
    [
      "se",
      ",</w>"
    ],
    [
      "l",
      "ear"
    ],
    [
      ";",
      "</w>"
    ],
    [
      "plan",
      "n"
    ],
    [
      "Q",
      "u"
    ],
    [
      "Qu",
      "ery</w>"
    ],
    [
      "tin",
      "g"
    ],
    [
      "U",
      "n"
    ],
    [
      "Trans",
      "actions</w>"
    ],
    [
      "In",
      "dexes</w>"
    ],
    [
      "fact",
      "or"
    ],
    [
      "Re",
      "plication</w>"
    ],
    [
      "ha",
      "sh"
    ],
    [
      "N",
      "ormalization</w>"
    ],
    [
      "Re",
      "factoring</w>"
    ],
    [
      "O",
      "bservability</w>"
    ],
    [
      "F",
      "ine-tuning</w>"
    ],
    [
      "endpoin",
      "ts,</w>"
    ],
    [
      "D",
      "e"
    ],
    [
      "Con",
      "tin"
    ],
    [
      "Contin",
      "uous</w>"
    ],
    [
      "A",
      "t"
    ],
    [
      "At",
      "tention</w>"
    ],
    [
      "t",
      ",</w>"
    ],
    [
      "E",
      "valuation</w>"
    ],
    [
      "lear",
      "ning</w>"
    ],
    [
      "o",
      "v"
    ],
    [
      "tr",
      "u"
    ],
    [
      "tru",
      "ct"
    ],
    [
      "er",
      "si"
    ],
    [
      "b",
      "u"
    ],
    [
      "t",
      ".</w>"
    ],
    [
      "Trans",
      "formers</w>"
    ],
    [
      "partition",
      "ing,</w>"
    ],
    [
      "revi",
      "ew"
    ],
    [
      "review",
      ",</w>"
    ],
    [
      "embedding",
      "s,</w>"
    ],
    [
      "trans",
      "form"
    ],
    [
      "transform",
      "ers,</w>"
    ],
    [
      "G",
      "r"
    ],
    [
      "Gr",
      "adient</w>"
    ],
    [
      "recov",
      "er"
    ],
    [
      "recover",
      "y,</w>"
    ],
    [
      "tes",
      "ting"
    ],
    [
      "testing",
      ",</w>"
    ],
    [
      "in",
      "dex"
    ],
    [
      "index",
      "es,</w>"
    ],
    [
      "Un",
      "it</w>"
    ],
    [
      "n",
      "ormal"
    ],
    [
      "normal",
      "ization,</w>"
    ],
    [
      "P",
      "assword</w>"
    ],
    [
      "T",
      "o"
    ],
    [
      "To",
      "ken"
    ],
    [
      "Token",
      "ization</w>"
    ],
    [
      "E",
      "m"
    ],
    [
      "Em",
      "bedding"
    ],
    [
      "Embedding",
      "s</w>"
    ],
    [
      "desc",
      "en"
    ],
    [
      "descen",
      "t,</w>"
    ],
    [
      "inte",
      "gration"
    ],
    [
      "integration",
      ",</w>"
    ],
    [
      "spli",
      "ts,</w>"
    ],
    [
      "De",
      "pen"
    ],
    [
      "Depen",
      "dency</w>"
    ],
    [
      "re",
      "plic"
    ],
    [
      "replic",
      "ation,</w>"
    ],
    [
      "o",
      "bserv"
    ],
    [
      "observ",
      "abili"
    ],
    [
      "observabili",
      "t"
    ],
    [
      "observabilit",
      "y,</w>"
    ],
    [
      "token",
      "ization,</w>"
    ],
    [
      "trans",
      "ac"
    ],
    [
      "transac",
      "tion"
    ],
    [
      "transaction",
      "s,</w>"
    ],
    [
      "injec",
      "tion,</w>"
    ],
    [
      "V",
      "al"
    ],
    [
      "Val",
      "idation</w>"
    ],
    [
      "privile",
      "ge,</w>"
    ],
    [
      "migration",
      "s,</w>"
    ],
    [
      "at",
      "ten"
    ],
    [
      "atten",
      "tion,</w>"
    ],
    [
      "f",
      "ine-tun"
    ],
    [
      "fine-tun",
      "ing,</w>"
    ],
    [
      "S",
      "ervice</w>"
    ],
    [
      "defen",
      "se,</w>"
    ],
    [
      "B",
      "ack"
    ],
    [
      "Back",
      "up</w>"
    ],
    [
      "S",
      "chema</w>"
    ],
    [
      "plann",
      "ing,</w>"
    ],
    [
      "re",
      "factor"
    ],
    [
      "refactor",
      "ing,</w>"
    ],
    [
      "P",
      "artition"
    ],
    [
      "Partition",
      "ing</w>"
    ],
    [
      "L",
      "e"
    ],
    [
      "Le",
      "ast</w>"
    ],
    [
      "hash",
      "ing,</w>"
    ],
    [
      "bounda",
      "ries,</w>"
    ],
    [
      "C",
      "o"
    ],
    [
      "Co",
      "de</w>"
    ],
    [
      "P",
      "hishing</w>"
    ],
    [
      "C",
      "l"
    ],
    [
      "Cl",
      "ient</w>"
    ],
    [
      "val",
      "ida"
    ],
    [
      "valida",
      "tion,</w>"
    ],
    [
      "In",
      "cident</w>"
    ],
    [
      "model",
      "ing,</w>"
    ],
    [
      "A",
      "sync</w>"
    ],
    [
      "handl",
      "ing,</w>"
    ],
    [
      "E",
      "r"
    ],
    [
      "Er",
      "ror</w>"
    ],
    [
      "A",
      "udit</w>"
    ],
    [
      "S",
      "e"
    ],
    [
      "Se",
      "rialization</w>"
    ],
    [
      "logg",
      "ing,</w>"
    ],
    [
      "Re",
      "quest</w>"
    ],
    [
      "SDK",
      "s,</w>"
    ],
    [
      "encryp",
      "tion,</w>"
    ],
    [
      "Th",
      "reat</w>"
    ],
    [
      "se",
      "rial"
    ],
    [
      "serial",
      "ization,</w>"
    ],
    [
      "respon",
      "se,</w>"
    ],
    [
      "V",
      "ulnerability</w>"
    ],
    [
      "Con",
      "figur"
    ],
    [
      "Configur",
      "ation</w>"
    ],
    [
      "work",
      "ers,</w>"
    ],
    [
      "package",
      "s,</w>"
    ],
    [
      "patch",
      "ing,</w>"
    ],
    [
      "En",
      "c"
    ],
    [
      "Enc",
      "ryp"
    ],
    [
      "Encryp",
      "tion</w>"
    ],
    [
      "configur",
      "ation,</w>"
    ],
    [
      "s",
      ";</w>"
    ],
    [
      "l",
      "a"
    ],
    [
      "e",
      "s.</w>"
    ],
    [
      "s",
      "truct"
    ],
    [
      "u",
      "p"
    ],
    [
      "i",
      "s"
    ],
    [
      "i",
      "es</w>"
    ],
    [
      "ne",
      "t"
    ],
    [
      "net",
      "wor"
    ],
    [
      "networ",
      "ks</w>"
    ],
    [
      "p",
      "er"
    ],
    [
      "ta",
      "bl"
    ],
    [
      "S",
      "Q"
    ],
    [
      "SQ",
      "L"
    ],
    [
      "ersi",
      "on</w>"
    ],
    [
      "struct",
      "ure"
    ],
    [
      "ov",
      "er</w>"
    ],
    [
      "re",
      "n"
    ],
    [
      "im",
      "pro"
    ],
    [
      "os",
      "e</w>"
    ],
    [
      "c",
      "es"
    ],
    [
      "in",
      "es</w>"
    ],
    [
      "f",
      "ic"
    ],
    [
      "te",
      "s</w>"
    ],
    [
      "2",
      "1-2:</w>"
    ],
    [
      "5",
      "6-0:</w>"
    ],
    [
      "1",
      "0-3:</w>"
    ],
    [
      "1",
      "6-3:</w>"
    ],
    [
      "6",
      "8-0:</w>"
    ],
    [
      "6",
      "2-3:</w>"
    ],
    [
      "5",
      "2-2:</w>"
    ],
    [
      "5",
      "0-2:</w>"
    ],
    [
      "1",
      "4-3:</w>"
    ],
    [
      "1",
      "2-4:</w>"
    ],
    [
      "2",
      "0-1:</w>"
    ],
    [
      "7",
      "2-0:</w>"
    ],
    [
      "1",
      "0-4:</w>"
    ],
    [
      "5",
      "1-3:</w>"
    ],
    [
      "7",
      "3-4:</w>"
    ],
    [
      "2",
      "7-0:</w>"
    ],
    [
      "3",
      "3-1:</w>"
    ],
    [
      "1",
      "4-4:</w>"
    ],
    [
      "7",
      "1-1:</w>"
    ],
    [
      "6",
      "0-1:</w>"
    ],
    [
      "7",
      "3-0:</w>"
    ],
    [
      "3",
      "1-1:</w>"
    ],
    [
      "1",
      "3-0:</w>"
    ],
    [
      "4",
      "1-1:</w>"
    ],
    [
      "3",
      "9-3:</w>"
    ],
    [
      "4",
      "7-3:</w>"
    ],
    [
      "4",
      "6-4:</w>"
    ],
    [
      "3",
      "7-0:</w>"
    ],
    [
      "5",
      "6-1:</w>"
    ],
    [
      "5",
      "1-1:</w>"
    ],
    [
      "3",
      "2-3:</w>"
    ],
    [
      "3",
      "8-1:</w>"
    ],
    [
      "3",
      "2-0:</w>"
    ],
    [
      "3",
      "8-2:</w>"
    ],
    [
      "4",
      "2-0:</w>"
    ],
    [
      "5",
      "2-3:</w>"
    ],
    [
      "4",
      "9-1:</w>"
    ],
    [
      "6",
      "4-4:</w>"
    ],
    [
      "3",
      "1-4:</w>"
    ],
    [
      "7",
      "1-2:</w>"
    ],
    [
      "1",
      "3-3:</w>"
    ],
    [
      "1",
      "2-2:</w>"
    ],
    [
      "6",
      "2-0:</w>"
    ],
    [
      "4",
      "8-3:</w>"
    ],
    [
      "2",
      "1-3:</w>"
    ],
    [
      "1",
      "6-0:</w>"
    ],
    [
      "2",
      "7-3:</w>"
    ],
    [
      "5",
      "3-4:</w>"
    ],
    [
      "7",
      "5-2:</w>"
    ],
    [
      "4",
      "1-0:</w>"
    ],
    [
      "7",
      "2-3:</w>"
    ],
    [
      "1",
      "1-0:</w>"
    ],
    [
      "2",
      "2-0:</w>"
    ],
    [
      "1",
      "0-2:</w>"
    ],
    [
      "1",
      "0-1:</w>"
    ],
    [
      "6",
      "0-3:</w>"
    ],
    [
      "7",
      "0-0:</w>"
    ],
    [
      "6",
      "9-0:</w>"
    ],
    [
      "1",
      "7-0:</w>"
    ],
    [
      "7",
      "4-3:</w>"
    ],
    [
      "4",
      "0-1:</w>"
    ],
    [
      "6",
      "4-3:</w>"
    ],
    [
      "4",
      "9-4:</w>"
    ],
    [
      "2",
      "0-2:</w>"
    ],
    [
      "4",
      "2-1:</w>"
    ],
    [
      "6",
      "2-2:</w>"
    ],
    [
      "6",
      "6-3:</w>"
    ],
    [
      "4",
      "6-3:</w>"
    ],
    [
      "4",
      "3-3:</w>"
    ],
    [
      "1",
      "3-2:</w>"
    ],
    [
      "1",
      "8-2:</w>"
    ],
    [
      "2",
      "8-2:</w>"
    ],
    [
      "1",
      "7-4:</w>"
    ],
    [
      "3",
      "3-4:</w>"
    ],
    [
      "7",
      "3-1:</w>"
    ],
    [
      "5",
      "3-3:</w>"
    ],
    [
      "1",
      "1-1:</w>"
    ],
    [
      "4",
      "0-3:</w>"
    ],
    [
      "3",
      "3-2:</w>"
    ],
    [
      "4",
      "6-1:</w>"
    ],
    [
      "5",
      "4-2:</w>"
    ],
    [
      "2",
      "0-0:</w>"
    ],
    [
      "1",
      "8-0:</w>"
    ],
    [
      "1",
      "9-2:</w>"
    ],
    [
      "1",
      "8-1:</w>"
    ],
    [
      "3",
      "9-1:</w>"
    ],
    [
      "2",
      "5-1:</w>"
    ],
    [
      "6",
      "0-4:</w>"
    ],
    [
      "1",
      "2-1:</w>"
    ],
    [
      "3",
      "2-2:</w>"
    ],
    [
      "2",
      "5-4:</w>"
    ],
    [
      "5",
      "2-4:</w>"
    ],
    [
      "3",
      "1-2:</w>"
    ],
    [
      "5",
      "7-4:</w>"
    ],
    [
      "6",
      "3-2:</w>"
    ],
    [
      "5",
      "7-2:</w>"
    ],
    [
      "2",
      "7-1:</w>"
    ],
    [
      "2",
      "9-0:</w>"
    ],
    [
      "4",
      "1-3:</w>"
    ],
    [
      "1",
      "5-2:</w>"
    ],
    [
      "7",
      "0-2:</w>"
    ],
    [
      "7",
      "5-0:</w>"
    ],
    [
      "5",
      "3-1:</w>"
    ],
    [
      "2",
      "2-4:</w>"
    ],
    [
      "5",
      "0-3:</w>"
    ],
    [
      "1",
      "4-0:</w>"
    ],
    [
      "6",
      "5-4:</w>"
    ],
    [
      "6",
      "3-1:</w>"
    ],
    [
      "4",
      "8-0:</w>"
    ],
    [
      "3",
      "4-3:</w>"
    ],
    [
      "1",
      "5-4:</w>"
    ],
    [
      "6",
      "3-4:</w>"
    ],
    [
      "7",
      "2-4:</w>"
    ],
    [
      "4",
      "0-4:</w>"
    ],
    [
      "3",
      "5-0:</w>"
    ],
    [
      "2",
      "3-4:</w>"
    ],
    [
      "5",
      "6-3:</w>"
    ],
    [
      "1",
      "5-0:</w>"
    ],
    [
      "5",
      "8-0:</w>"
    ],
    [
      "1",
      "6-4:</w>"
    ],
    [
      "7",
      "0-4:</w>"
    ],
    [
      "6",
      "1-0:</w>"
    ],
    [
      "7",
      "5-1:</w>"
    ],
    [
      "5",
      "8-3:</w>"
    ],
    [
      "3",
      "6-1:</w>"
    ],
    [
      "4",
      "7-0:</w>"
    ],
    [
      "2",
      "9-3:</w>"
    ],
    [
      "4",
      "5-2:</w>"
    ],
    [
      "7",
      "5-4:</w>"
    ],
    [
      "3",
      "0-4:</w>"
    ],
    [
      "3",
      "1-3:</w>"
    ],
    [
      "2",
      "8-4:</w>"
    ],
    [
      "1",
      "5-1:</w>"
    ],
    [
      "3",
      "5-3:</w>"
    ],
    [
      "4",
      "7-1:</w>"
    ],
    [
      "3",
      "5-4:</w>"
    ],
    [
      "4",
      "4-2:</w>"
    ],
    [
      "2",
      "4-1:</w>"
    ],
    [
      "2",
      "0-3:</w>"
    ],
    [
      "5",
      "7-1:</w>"
    ],
    [
      "5",
      "5-0:</w>"
    ],
    [
      "6",
      "6-1:</w>"
    ],
    [
      "2",
      "8-0:</w>"
    ],
    [
      "2",
      "1-1:</w>"
    ],
    [
      "5",
      "0-1:</w>"
    ],
    [
      "6",
      "9-4:</w>"
    ],
    [
      "6",
      "6-0:</w>"
    ],
    [
      "2",
      "6-0:</w>"
    ],
    [
      "1",
      "8-3:</w>"
    ],
    [
      "2",
      "1-0:</w>"
    ],
    [
      "5",
      "0-0:</w>"
    ],
    [
      "3",
      "0-2:</w>"
    ],
    [
      "1",
      "3-1:</w>"
    ],
    [
      "5",
      "3-0:</w>"
    ],
    [
      "1",
      "2-3:</w>"
    ],
    [
      "4",
      "4-1:</w>"
    ],
    [
      "5",
      "8-4:</w>"
    ],
    [
      "5",
      "5-2:</w>"
    ],
    [
      "5",
      "4-0:</w>"
    ],
    [
      "4",
      "3-0:</w>"
    ],
    [
      "6",
      "3-3:</w>"
    ],
    [
      "1",
      "6-2:</w>"
    ],
    [
      "6",
      "1-3:</w>"
    ],
    [
      "4",
      "7-4:</w>"
    ],
    [
      "6",
      "2-4:</w>"
    ],
    [
      "1",
      "1-4:</w>"
    ],
    [
      "6",
      "1-2:</w>"
    ],
    [
      "6",
      "4-1:</w>"
    ],
    [
      "7",
      "4-0:</w>"
    ],
    [
      "3",
      "6-2:</w>"
    ],
    [
      "3",
      "8-4:</w>"
    ],
    [
      "5",
      "4-3:</w>"
    ],
    [
      "6",
      "1-1:</w>"
    ],
    [
      "6",
      "3-0:</w>"
    ],
    [
      "3",
      "2-4:</w>"
    ],
    [
      "4",
      "2-3:</w>"
    ],
    [
      "7",
      "0-3:</w>"
    ],
    [
      "7",
      "3-2:</w>"
    ],
    [
      "4",
      "8-1:</w>"
    ],
    [
      "1",
      "8-4:</w>"
    ],
    [
      "4",
      "3-2:</w>"
    ],
    [
      "6",
      "7-2:</w>"
    ],
    [
      "4",
      "7-2:</w>"
    ],
    [
      "2",
      "4-2:</w>"
    ],
    [
      "6",
      "6-2:</w>"
    ],
    [
      "6",
      "8-3:</w>"
    ],
    [
      "2",
      "4-4:</w>"
    ],
    [
      "5",
      "9-4:</w>"
    ],
    [
      "6",
      "4-0:</w>"
    ],
    [
      "2",
      "5-0:</w>"
    ],
    [
      "4",
      "0-0:</w>"
    ],
    [
      "3",
      "0-3:</w>"
    ],
    [
      "5",
      "2-1:</w>"
    ],
    [
      "5",
      "7-3:</w>"
    ],
    [
      "4",
      "1-4:</w>"
    ],
    [
      "1",
      "3-4:</w>"
    ],
    [
      "3",
      "2-1:</w>"
    ],
    [
      "7",
      "0-1:</w>"
    ],
    [
      "6",
      "9-2:</w>"
    ],
    [
      "4",
      "5-1:</w>"
    ],
    [
      "4",
      "6-2:</w>"
    ],
    [
      "3",
      "7-1:</w>"
    ],
    [
      "1",
      "7-1:</w>"
    ],
    [
      "3",
      "5-1:</w>"
    ],
    [
      "4",
      "1-2:</w>"
    ],
    [
      "5",
      "9-2:</w>"
    ],
    [
      "5",
      "8-1:</w>"
    ],
    [
      "4",
      "2-4:</w>"
    ],
    [
      "6",
      "1-4:</w>"
    ],
    [
      "1",
      "6-1:</w>"
    ],
    [
      "2",
      "5-3:</w>"
    ],
    [
      "7",
      "4-2:</w>"
    ],
    [
      "7",
      "2-1:</w>"
    ],
    [
      "2",
      "0-4:</w>"
    ],
    [
      "4",
      "4-3:</w>"
    ],
    [
      "6",
      "0-2:</w>"
    ],
    [
      "5",
      "4-4:</w>"
    ],
    [
      "1",
      "7-3:</w>"
    ],
    [
      "1",
      "4-2:</w>"
    ],
    [
      "4",
      "4-0:</w>"
    ],
    [
      "6",
      "8-1:</w>"
    ],
    [
      "7",
      "1-4:</w>"
    ],
    [
      "3",
      "4-1:</w>"
    ],
    [
      "3",
      "9-4:</w>"
    ],
    [
      "5",
      "6-4:</w>"
    ],
    [
      "2",
      "3-3:</w>"
    ],
    [
      "2",
      "7-2:</w>"
    ],
    [
      "4",
      "8-4:</w>"
    ],
    [
      "7",
      "4-1:</w>"
    ],
    [
      "4",
      "3-4:</w>"
    ],
    [
      "6",
      "9-3:</w>"
    ],
    [
      "1",
      "1-2:</w>"
    ],
    [
      "5",
      "3-2:</w>"
    ],
    [
      "5",
      "0-4:</w>"
    ],
    [
      "2",
      "6-4:</w>"
    ],
    [
      "7",
      "2-2:</w>"
    ],
    [
      "6",
      "5-0:</w>"
    ],
    [
      "3",
      "7-2:</w>"
    ],
    [
      "3",
      "1-0:</w>"
    ],
    [
      "4",
      "0-2:</w>"
    ],
    [
      "4",
      "4-4:</w>"
    ],
    [
      "3",
      "3-0:</w>"
    ],
    [
      "2",
      "7-4:</w>"
    ],
    [
      "2",
      "6-1:</w>"
    ],
    [
      "7",
      "5-3:</w>"
    ],
    [
      "6",
      "7-3:</w>"
    ],
    [
      "5",
      "4-1:</w>"
    ],
    [
      "5",
      "6-2:</w>"
    ],
    [
      "3",
      "6-0:</w>"
    ],
    [
      "3",
      "6-3:</w>"
    ],
    [
      "7",
      "3-3:</w>"
    ],
    [
      "6",
      "7-1:</w>"
    ],
    [
      "1",
      "2-0:</w>"
    ],
    [
      "1",
      "9-3:</w>"
    ],
    [
      "6",
      "8-4:</w>"
    ],
    [
      "6",
      "5-1:</w>"
    ],
    [
      "5",
      "5-4:</w>"
    ],
    [
      "5",
      "8-2:</w>"
    ],
    [
      "4",
      "3-1:</w>"
    ],
    [
      "2",
      "3-2:</w>"
    ],
    [
      "2",
      "9-1:</w>"
    ],
    [
      "6",
      "5-2:</w>"
    ],
    [
      "4",
      "5-3:</w>"
    ],
    [
      "3",
      "5-2:</w>"
    ],
    [
      "4",
      "8-2:</w>"
    ],
    [
      "7",
      "4-4:</w>"
    ],
    [
      "6",
      "6-4:</w>"
    ],
    [
      "4",
      "9-3:</w>"
    ],
    [
      "6",
      "8-2:</w>"
    ],
    [
      "1",
      "0-0:</w>"
    ],
    [
      "6",
      "7-0:</w>"
    ],
    [
      "6",
      "7-4:</w>"
    ],
    [
      "3",
      "4-4:</w>"
    ],
    [
      "4",
      "6-0:</w>"
    ],
    [
      "5",
      "9-0:</w>"
    ],
    [
      "4",
      "9-2:</w>"
    ],
    [
      "2",
      "8-1:</w>"
    ],
    [
      "1",
      "4-1:</w>"
    ],
    [
      "2",
      "2-2:</w>"
    ],
    [
      "5",
      "2-0:</w>"
    ],
    [
      "3",
      "0-0:</w>"
    ],
    [
      "3",
      "0-1:</w>"
    ],
    [
      "7",
      "1-0:</w>"
    ],
    [
      "2",
      "4-0:</w>"
    ],
    [
      "3",
      "6-4:</w>"
    ],
    [
      "2",
      "5-2:</w>"
    ],
    [
      "3",
      "3-3:</w>"
    ],
    [
      "2",
      "9-2:</w>"
    ],
    [
      "4",
      "9-0:</w>"
    ],
    [
      "6",
      "4-2:</w>"
    ],
    [
      "5",
      "9-3:</w>"
    ],
    [
      "3",
      "8-0:</w>"
    ],
    [
      "2",
      "9-4:</w>"
    ],
    [
      "3",
      "7-3:</w>"
    ],
    [
      "3",
      "4-0:</w>"
    ],
    [
      "2",
      "6-2:</w>"
    ],
    [
      "2",
      "2-3:</w>"
    ],
    [
      "5",
      "1-4:</w>"
    ],
    [
      "4",
      "5-0:</w>"
    ],
    [
      "5",
      "5-1:</w>"
    ],
    [
      "4",
      "2-2:</w>"
    ],
    [
      "2",
      "3-1:</w>"
    ],
    [
      "2",
      "4-3:</w>"
    ],
    [
      "1",
      "9-0:</w>"
    ],
    [
      "2",
      "6-3:</w>"
    ],
    [
      "1",
      "7-2:</w>"
    ],
    [
      "6",
      "5-3:</w>"
    ],
    [
      "5",
      "1-2:</w>"
    ],
    [
      "6",
      "2-1:</w>"
    ],
    [
      "5",
      "9-1:</w>"
    ],
    [
      "7",
      "1-3:</w>"
    ],
    [
      "1",
      "5-3:</w>"
    ],
    [
      "3",
      "8-3:</w>"
    ],
    [
      "1",
      "9-1:</w>"
    ],
    [
      "3",
      "7-4:</w>"
    ],
    [
      "3",
      "4-2:</w>"
    ],
    [
      "3",
      "9-2:</w>"
    ],
    [
      "2",
      "8-3:</w>"
    ],
    [
      "2",
      "3-0:</w>"
    ],
    [
      "5",
      "1-0:</w>"
    ],
    [
      "4",
      "5-4:</w>"
    ],
    [
      "5",
      "7-0:</w>"
    ],
    [
      "1",
      "9-4:</w>"
    ],
    [
      "2",
      "1-4:</w>"
    ],
    [
      "3",
      "9-0:</w>"
    ],
    [
      "2",
      "2-1:</w>"
    ],
    [
      "5",
      "5-3:</w>"
    ],
    [
      "6",
      "9-1:</w>"
    ],
    [
      "1",
      "1-3:</w>"
    ],
    [
      "6",
      "0-0:</w>"
    ],
    [
      "k",
      "e"
    ],
    [
      "ke",
      "y"
    ],
    [
      "key",
      "s</w>"
    ],
    [
      "sc",
      "an"
    ],
    [
      "re",
      "g"
    ],
    [
      "ro",
      "w"
    ],
    [
      "SQL",
      "</w>"
    ],
    [
      "v",
      "ersion</w>"
    ],
    [
      "se",
      "s</w>"
    ],
    [
      "A",
      "u"
    ],
    [
      "Au",
      "th"
    ],
    [
      "d",
      "ing</w>"
    ],
    [
      "in",
      "s</w>"
    ],
    [
      "up",
      "ervi"
    ],
    [
      "upervi",
      "sed</w>"
    ],
    [
      "ro",
      "s"
    ],
    [
      "bu",
      "t</w>"
    ],
    [
      "y",
      ".</w>"
    ],
    [
      "structure",
      "d</w>"
    ],
    [
      "in",
      "e</w>"
    ],
    [
      "si",
      "on"
    ],
    [
      "sh",
      "ar"
    ],
    [
      "la",
      "y"
    ],
    [
      "ch",
      "</w>"
    ],
    [
      "ur",
      "ren"
    ],
    [
      "se",
      "l"
    ],
    [
      "sel",
      "ec"
    ],
    [
      "ma",
      "r"
    ],
    [
      "en",
      "ti"
    ],
    [
      "s",
      "a"
    ],
    [
      "o",
      "b"
    ],
    [
      "impro",
      "ves</w>"
    ],
    [
      "no",
      "w"
    ],
    [
      "mo",
      "d"
    ],
    [
      "war",
      "d</w>"
    ],
    [
      "o",
      "l"
    ],
    [
      "mode",
      "l</w>"
    ],
    [
      "s",
      "t"
    ],
    [
      "st",
      "ore</w>"
    ],
    [
      "m",
      "ul"
    ],
    [
      "mul",
      "ti"
    ],
    [
      "re",
      "l"
    ],
    [
      "con",
      "tr"
    ],
    [
      "now",
      "l"
    ],
    [
      "nowl",
      "edge</w>"
    ],
    [
      "ing",
      ".</w>"
    ],
    [
      "com",
      "b"
    ],
    [
      "comb",
      "ines</w>"
    ],
    [
      "a",
      "s</w>"
    ],
    [
      "i",
      "g"
    ],
    [
      "depen",
      "denc"
    ],
    [
      "dependenc",
      "ies</w>"
    ],
    [
      "ex",
      "p"
    ],
    [
      "exp",
      "ose</w>"
    ],
    [
      "a",
      "ch"
    ],
    [
      "d",
      "is"
    ],
    [
      "clu",
      "ste"
    ],
    [
      "cluste",
      "r"
    ],
    [
      "re",
      "du"
    ],
    [
      "redu",
      "ce</w>"
    ],
    [
      "ap",
      "plic"
    ],
    [
      "applic",
      "ation"
    ],
    [
      "application",
      "s</w>"
    ],
    [
      "re",
      "as"
    ],
    [
      "reas",
      "on"
    ],
    [
      "pro",
      "ces"
    ],
    [
      "system",
      "s.</w>"
    ],
    [
      "de",
      "pl"
    ],
    [
      "depl",
      "o"
    ],
    [
      "deplo",
      "y"
    ],
    [
      "deploy",
      "men"
    ],
    [
      "deploymen",
      "t.</w>"
    ],
    [
      "a",
      "ge</w>"
    ],
    [
      "l",
      "l"
    ],
    [
      "7",
      "6-2:</w>"
    ],
    [
      "7",
      "6-1:</w>"
    ],
    [
      "7",
      "6-0:</w>"
    ],
    [
      "7",
      "6-3:</w>"
    ],
    [
      "7",
      "6-4:</w>"
    ],
    [
      "u",
      "ses</w>"
    ],
    [
      "s",
      "u"
    ],
    [
      "su",
      "ch</w>"
    ],
    [
      "b",
      "as"
    ],
    [
      "bas",
      "e</w>"
    ],
    [
      "d",
      "ur"
    ],
    [
      "c",
      "an</w>"
    ],
    [
      "selec",
      "ts,</w>"
    ],
    [
      "f",
      "il"
    ],
    [
      "fil",
      "ter"
    ],
    [
      "filter",
      "s,</w>"
    ],
    [
      "j",
      "o"
    ],
    [
      "jo",
      "in"
    ],
    [
      "join",
      "s,</w>"
    ],
    [
      "gr",
      "ou"
    ],
    [
      "grou",
      "p"
    ],
    [
      "group",
      "s,</w>"
    ],
    [
      "a",
      "gg"
    ],
    [
      "agg",
      "reg"
    ],
    [
      "aggreg",
      "ates</w>"
    ],
    [
      "re",
      "cor"
    ],
    [
      "recor",
      "d"
    ],
    [
      "record",
      "s.</w>"
    ],
    [
      "P",
      "ri"
    ],
    [
      "Pri",
      "mar"
    ],
    [
      "Primar",
      "y</w>"
    ],
    [
      "un",
      "i"
    ],
    [
      "uni",
      "qu"
    ],
    [
      "uniqu",
      "el"
    ],
    [
      "uniquel",
      "y</w>"
    ],
    [
      "id",
      "enti"
    ],
    [
      "identi",
      "f"
    ],
    [
      "identif",
      "y</w>"
    ],
    [
      "row",
      "s;</w>"
    ],
    [
      "for",
      "e"
    ],
    [
      "fore",
      "ign"
    ],
    [
      "foreign",
      "</w>"
    ],
    [
      "l",
      "in"
    ],
    [
      "lin",
      "k</w>"
    ],
    [
      "tabl",
      "es.</w>"
    ],
    [
      "plann",
      "ers</w>"
    ],
    [
      "ch",
      "o"
    ],
    [
      "cho",
      "ose</w>"
    ],
    [
      "in",
      "de"
    ],
    [
      "inde",
      "x</w>"
    ],
    [
      "scan",
      "s</w>"
    ],
    [
      "v",
      "ers"
    ],
    [
      "vers",
      "u"
    ],
    [
      "versu",
      "s</w>"
    ],
    [
      "fu",
      "ll</w>"
    ],
    [
      "scan",
      "s.</w>"
    ],
    [
      "M",
      "i"
    ],
    [
      "Mi",
      "gration"
    ],
    [
      "Migration",
      "s</w>"
    ],
    [
      "change",
      "s</w>"
    ],
    [
      "sa",
      "f"
    ],
    [
      "saf",
      "el"
    ],
    [
      "safel",
      "y.</w>"
    ],
    [
      "O",
      "R"
    ],
    [
      "OR",
      "M"
    ],
    [
      "ORM",
      "s</w>"
    ],
    [
      "ma",
      "p</w>"
    ],
    [
      "ob",
      "jec"
    ],
    [
      "objec",
      "ts</w>"
    ],
    [
      "tabl",
      "es</w>"
    ],
    [
      "com",
      "pl"
    ],
    [
      "compl",
      "ex"
    ],
    [
      "complex",
      "</w>"
    ],
    [
      "re",
      "por"
    ],
    [
      "repor",
      "ts</w>"
    ],
    [
      "s",
      "ti"
    ],
    [
      "sti",
      "ll</w>"
    ],
    [
      "r",
      "a"
    ],
    [
      "ra",
      "w"
    ],
    [
      "raw",
      "</w>"
    ],
    [
      "SQL",
      ".</w>"
    ],
    [
      "with",
      "ou"
    ],
    [
      "withou",
      "t</w>"
    ],
    [
      "or",
      "g"
    ],
    [
      "org",
      "an"
    ],
    [
      "organ",
      "iz"
    ],
    [
      "organiz",
      "e</w>"
    ],
    [
      "re",
      "us"
    ],
    [
      "reus",
      "able</w>"
    ],
    [
      "mod",
      "ul"
    ],
    [
      "modul",
      "es</w>"
    ],
    [
      "pu",
      "bl"
    ],
    [
      "publ",
      "ic"
    ],
    [
      "public",
      "</w>"
    ],
    [
      "API",
      "s.</w>"
    ],
    [
      "V",
      "i"
    ],
    [
      "Vi",
      "r"
    ],
    [
      "Vir",
      "tu"
    ],
    [
      "Virtu",
      "al</w>"
    ],
    [
      "en",
      "vi"
    ],
    [
      "envi",
      "r"
    ],
    [
      "envir",
      "on"
    ],
    [
      "environ",
      "ments</w>"
    ],
    [
      "is",
      "o"
    ],
    [
      "iso",
      "la"
    ],
    [
      "isola",
      "te</w>"
    ],
    [
      "p",
      "er</w>"
    ],
    [
      "pro",
      "jec"
    ],
    [
      "projec",
      "t.</w>"
    ],
    [
      "API",
      "s</w>"
    ],
    [
      "resour",
      "c"
    ],
    [
      "resourc",
      "es</w>"
    ],
    [
      "H",
      "T"
    ],
    [
      "HT",
      "T"
    ],
    [
      "HTT",
      "P"
    ],
    [
      "HTTP",
      "</w>"
    ],
    [
      "J",
      "S"
    ],
    [
      "JS",
      "O"
    ],
    [
      "JSO",
      "N"
    ],
    [
      "JSON",
      "</w>"
    ],
    [
      "p",
      "a"
    ],
    [
      "pa",
      "y"
    ],
    [
      "pay",
      "load"
    ],
    [
      "payload",
      "s.</w>"
    ],
    [
      "Auth",
      "en"
    ],
    [
      "Authen",
      "tic"
    ],
    [
      "Authentic",
      "ation</w>"
    ],
    [
      "token",
      "s,</w>"
    ],
    [
      "se",
      "s"
    ],
    [
      "ses",
      "sion"
    ],
    [
      "session",
      "s,</w>"
    ],
    [
      "O",
      "Auth"
    ],
    [
      "OAuth",
      "</w>"
    ],
    [
      "depen",
      "ding</w>"
    ],
    [
      "model",
      "s.</w>"
    ],
    [
      "ex",
      "pla"
    ],
    [
      "expla",
      "ins</w>"
    ],
    [
      "code",
      "s,</w>"
    ],
    [
      "e",
      "xample</w>"
    ],
    [
      "re",
      "ques"
    ],
    [
      "reques",
      "t"
    ],
    [
      "request",
      "s.</w>"
    ],
    [
      "M",
      "ach"
    ],
    [
      "Mach",
      "ine</w>"
    ],
    [
      "tra",
      "ins</w>"
    ],
    [
      "model",
      "s</w>"
    ],
    [
      "hand",
      "-"
    ],
    [
      "hand-",
      "wri"
    ],
    [
      "hand-wri",
      "t"
    ],
    [
      "hand-writ",
      "ten"
    ],
    [
      "hand-written",
      "</w>"
    ],
    [
      "r",
      "ul"
    ],
    [
      "rul",
      "es.</w>"
    ],
    [
      "S",
      "upervised</w>"
    ],
    [
      "ma",
      "p"
    ],
    [
      "map",
      "s</w>"
    ],
    [
      "in",
      "pu"
    ],
    [
      "inpu",
      "ts</w>"
    ],
    [
      "l",
      "ab"
    ],
    [
      "lab",
      "el"
    ],
    [
      "label",
      "s</w>"
    ],
    [
      "c",
      "ros"
    ],
    [
      "cros",
      "s"
    ],
    [
      "cross",
      "-"
    ],
    [
      "cross-",
      "en"
    ],
    [
      "cross-en",
      "tr"
    ],
    [
      "cross-entr",
      "op"
    ],
    [
      "cross-entrop",
      "y</w>"
    ],
    [
      "reg",
      "res"
    ],
    [
      "regres",
      "si"
    ],
    [
      "regressi",
      "on</w>"
    ],
    [
      "lo",
      "s"
    ],
    [
      "los",
      "s.</w>"
    ],
    [
      "Un",
      "s"
    ],
    [
      "Uns",
      "upervised</w>"
    ],
    [
      "dis",
      "cov"
    ],
    [
      "discov",
      "ers</w>"
    ],
    [
      "cluster",
      "s,</w>"
    ],
    [
      "factor",
      "s,</w>"
    ],
    [
      "laten",
      "t</w>"
    ],
    [
      "structure",
      ".</w>"
    ],
    [
      "Re",
      "in"
    ],
    [
      "Rein",
      "for"
    ],
    [
      "Reinfor",
      "ce"
    ],
    [
      "Reinforce",
      "men"
    ],
    [
      "Reinforcemen",
      "t</w>"
    ],
    [
      "optimiz",
      "es</w>"
    ],
    [
      "po",
      "l"
    ],
    [
      "pol",
      "ic"
    ],
    [
      "polic",
      "ies</w>"
    ],
    [
      "f",
      "ro"
    ],
    [
      "fro",
      "m"
    ],
    [
      "from",
      "</w>"
    ],
    [
      "re",
      "ward</w>"
    ],
    [
      "ti",
      "me"
    ],
    [
      "time",
      ".</w>"
    ],
    [
      "F",
      "ea"
    ],
    [
      "Fea",
      "ture</w>"
    ],
    [
      "engineer",
      "ing,</w>"
    ],
    [
      "re",
      "gu"
    ],
    [
      "regu",
      "la"
    ],
    [
      "regula",
      "ri"
    ],
    [
      "regulari",
      "z"
    ],
    [
      "regulariz",
      "ation,</w>"
    ],
    [
      "ov",
      "er"
    ],
    [
      "over",
      "fi"
    ],
    [
      "overfi",
      "t"
    ],
    [
      "overfit",
      "ting"
    ],
    [
      "overfitting",
      ".</w>"
    ],
    [
      "N",
      "e"
    ],
    [
      "Ne",
      "ural</w>"
    ],
    [
      "lay",
      "ers,</w>"
    ],
    [
      "ac",
      "ti"
    ],
    [
      "acti",
      "v"
    ],
    [
      "activ",
      "ation"
    ],
    [
      "activation",
      "s,</w>"
    ],
    [
      "optimiz",
      "ers</w>"
    ],
    [
      "A",
      "d"
    ],
    [
      "Ad",
      "am"
    ],
    [
      "Adam",
      "W"
    ],
    [
      "AdamW",
      ".</w>"
    ],
    [
      "te",
      "d</w>"
    ],
    [
      "tra",
      "in"
    ],
    [
      "train",
      "ing</w>"
    ],
    [
      "D",
      "a"
    ],
    [
      "Da",
      "ta"
    ],
    [
      "Data",
      "base</w>"
    ],
    [
      "dur",
      "able</w>"
    ],
    [
      "an",
      "al"
    ],
    [
      "anal",
      "y"
    ],
    [
      "analy",
      "tic"
    ],
    [
      "analytic",
      "s.</w>"
    ],
    [
      "Rel",
      "ation"
    ],
    [
      "Relation",
      "al</w>"
    ],
    [
      "tabl",
      "es,</w>"
    ],
    [
      "row",
      "s,</w>"
    ],
    [
      "co",
      "l"
    ],
    [
      "col",
      "um"
    ],
    [
      "colum",
      "n"
    ],
    [
      "column",
      "s,</w>"
    ],
    [
      "que",
      "ri"
    ],
    [
      "queri",
      "es.</w>"
    ],
    [
      "sp",
      "e"
    ],
    [
      "spe",
      "ed</w>"
    ],
    [
      "lo",
      "o"
    ],
    [
      "loo",
      "k"
    ],
    [
      "look",
      "up"
    ],
    [
      "lookup",
      "s;</w>"
    ],
    [
      "B",
      "-t"
    ],
    [
      "B-t",
      "re"
    ],
    [
      "B-tre",
      "e</w>"
    ],
    [
      "hash",
      "</w>"
    ],
    [
      "serv",
      "e</w>"
    ],
    [
      "d",
      "i"
    ],
    [
      "di",
      "f"
    ],
    [
      "dif",
      "fe"
    ],
    [
      "diffe",
      "ren"
    ],
    [
      "differen",
      "t</w>"
    ],
    [
      "ac",
      "ces"
    ],
    [
      "acces",
      "s</w>"
    ],
    [
      "pat",
      "tern"
    ],
    [
      "pattern",
      "s.</w>"
    ],
    [
      "pro",
      "vi"
    ],
    [
      "provi",
      "de</w>"
    ],
    [
      "A",
      "C"
    ],
    [
      "AC",
      "I"
    ],
    [
      "ACI",
      "D"
    ],
    [
      "ACID",
      "</w>"
    ],
    [
      "gu",
      "ar"
    ],
    [
      "guar",
      "an"
    ],
    [
      "guaran",
      "te"
    ],
    [
      "guarante",
      "es</w>"
    ],
    [
      "lo",
      "c"
    ],
    [
      "loc",
      "k"
    ],
    [
      "lock",
      "ing</w>"
    ],
    [
      "multi",
      "-"
    ],
    [
      "multi-",
      "version</w>"
    ],
    [
      "conc",
      "urren"
    ],
    [
      "concurren",
      "cy"
    ],
    [
      "concurrency",
      ".</w>"
    ],
    [
      "re",
      "duc"
    ],
    [
      "reduc",
      "es</w>"
    ],
    [
      "re",
      "d"
    ],
    [
      "red",
      "un"
    ],
    [
      "redun",
      "d"
    ],
    [
      "redund",
      "an"
    ],
    [
      "redundan",
      "cy"
    ],
    [
      "redundancy",
      ";</w>"
    ],
    [
      "d",
      "en"
    ],
    [
      "den",
      "ormalization</w>"
    ],
    [
      "impro",
      "v"
    ],
    [
      "improv",
      "e</w>"
    ],
    [
      "re",
      "ad</w>"
    ],
    [
      "per",
      "form"
    ],
    [
      "perform",
      "ance.</w>"
    ],
    [
      "shar",
      "ding</w>"
    ],
    [
      "sc",
      "al"
    ],
    [
      "scal",
      "e</w>"
    ],
    [
      "re",
      "ad"
    ],
    [
      "read",
      "s</w>"
    ],
    [
      "write",
      "s</w>"
    ],
    [
      "ac",
      "ros"
    ],
    [
      "acros",
      "s</w>"
    ],
    [
      "ma",
      "ch"
    ],
    [
      "mach",
      "ine"
    ],
    [
      "machine",
      "s.</w>"
    ],
    [
      "S",
      "oftware</w>"
    ],
    [
      "ap",
      "pli"
    ],
    [
      "appli",
      "es</w>"
    ],
    [
      "proces",
      "ses</w>"
    ],
    [
      "bu",
      "i"
    ],
    [
      "bui",
      "ld</w>"
    ],
    [
      "rel",
      "iable</w>"
    ],
    [
      "Re",
      "qu"
    ],
    [
      "Requ",
      "i"
    ],
    [
      "Requi",
      "re"
    ],
    [
      "Require",
      "ments</w>"
    ],
    [
      "def",
      "ine</w>"
    ],
    [
      "us",
      "er</w>"
    ],
    [
      "ne",
      "ed"
    ],
    [
      "need",
      "s;</w>"
    ],
    [
      "c",
      "ap"
    ],
    [
      "cap",
      "ture</w>"
    ],
    [
      "architect",
      "ure</w>"
    ],
    [
      "de",
      "c"
    ],
    [
      "dec",
      "i"
    ],
    [
      "deci",
      "sion"
    ],
    [
      "decision",
      "s.</w>"
    ],
    [
      "V",
      "ersion</w>"
    ],
    [
      "contr",
      "o"
    ],
    [
      "contro",
      "l</w>"
    ],
    [
      "trac",
      "ks</w>"
    ],
    [
      "change",
      "s;</w>"
    ],
    [
      "qu",
      "al"
    ],
    [
      "qual",
      "i"
    ],
    [
      "quali",
      "ty</w>"
    ],
    [
      "k",
      "nowledge</w>"
    ],
    [
      "shar",
      "ing.</w>"
    ],
    [
      "run",
      "s</w>"
    ],
    [
      "e",
      "v"
    ],
    [
      "ev",
      "ery</w>"
    ],
    [
      "comm",
      "it</w>"
    ],
    [
      "be",
      "f"
    ],
    [
      "bef",
      "ore</w>"
    ],
    [
      "lo",
      "g"
    ],
    [
      "log",
      "s,</w>"
    ],
    [
      "is",
      "s"
    ],
    [
      "iss",
      "ue"
    ],
    [
      "issue",
      "s.</w>"
    ],
    [
      "struct",
      "ure</w>"
    ],
    [
      "chan",
      "g"
    ],
    [
      "chang",
      "ing</w>"
    ],
    [
      "ex",
      "tern"
    ],
    [
      "extern",
      "al</w>"
    ],
    [
      "behavior",
      ".</w>"
    ],
    [
      "De",
      "e"
    ],
    [
      "Dee",
      "p</w>"
    ],
    [
      "sta",
      "c"
    ],
    [
      "stac",
      "ks</w>"
    ],
    [
      "n",
      "on"
    ],
    [
      "non",
      "l"
    ],
    [
      "nonl",
      "ine"
    ],
    [
      "nonline",
      "ar"
    ],
    [
      "nonlinear",
      "</w>"
    ],
    [
      "lay",
      "ers</w>"
    ],
    [
      "lear",
      "n</w>"
    ],
    [
      "hi",
      "er"
    ],
    [
      "hier",
      "arch"
    ],
    [
      "hierarch",
      "ical</w>"
    ],
    [
      "re",
      "pres"
    ],
    [
      "repres",
      "en"
    ],
    [
      "represen",
      "ta"
    ],
    [
      "representa",
      "tion"
    ],
    [
      "representation",
      "s.</w>"
    ],
    [
      "Con",
      "v"
    ],
    [
      "Conv",
      "ol"
    ],
    [
      "Convol",
      "u"
    ],
    [
      "Convolu",
      "tion"
    ],
    [
      "Convolution",
      "al</w>"
    ],
    [
      "ex",
      "ce"
    ],
    [
      "exce",
      "l</w>"
    ],
    [
      "i",
      "ma"
    ],
    [
      "ima",
      "ge"
    ],
    [
      "image",
      "s.</w>"
    ],
    [
      "R",
      "ec"
    ],
    [
      "Rec",
      "urren"
    ],
    [
      "Recurren",
      "t</w>"
    ],
    [
      "se",
      "qu"
    ],
    [
      "sequ",
      "enc"
    ],
    [
      "sequenc",
      "es</w>"
    ],
    [
      "d",
      "o"
    ],
    [
      "do",
      "m"
    ],
    [
      "dom",
      "in"
    ],
    [
      "domin",
      "a"
    ],
    [
      "domina",
      "te</w>"
    ],
    [
      "langu",
      "age</w>"
    ],
    [
      "to",
      "da"
    ],
    [
      "toda",
      "y.</w>"
    ],
    [
      "com",
      "pu"
    ],
    [
      "compu",
      "tes</w>"
    ],
    [
      "w",
      "e"
    ],
    [
      "we",
      "ig"
    ],
    [
      "weig",
      "h"
    ],
    [
      "weigh",
      "ted</w>"
    ],
    [
      "s",
      "um"
    ],
    [
      "sum",
      "s</w>"
    ],
    [
      "con",
      "te"
    ],
    [
      "conte",
      "x"
    ],
    [
      "contex",
      "t</w>"
    ],
    [
      "token",
      "s.</w>"
    ],
    [
      "P",
      "re"
    ],
    [
      "Pre",
      "training</w>"
    ],
    [
      "predic",
      "ts</w>"
    ],
    [
      "n",
      "ex"
    ],
    [
      "nex",
      "t</w>"
    ],
    [
      "to",
      "k"
    ],
    [
      "tok",
      "en</w>"
    ],
    [
      "cor",
      "por"
    ],
    [
      "corpor",
      "a"
    ],
    [
      "corpora",
      ".</w>"
    ],
    [
      "a",
      "da"
    ],
    [
      "ada",
      "p"
    ],
    [
      "adap",
      "ts</w>"
    ],
    [
      "pre",
      "tra"
    ],
    [
      "pretra",
      "ine"
    ],
    [
      "pretraine",
      "d</w>"
    ],
    [
      "cl",
      "as"
    ],
    [
      "clas",
      "si"
    ],
    [
      "classi",
      "fic"
    ],
    [
      "classific",
      "ation</w>"
    ],
    [
      "g",
      "en"
    ],
    [
      "gen",
      "er"
    ],
    [
      "gener",
      "ation</w>"
    ],
    [
      "ta",
      "s"
    ],
    [
      "tas",
      "k"
    ],
    [
      "task",
      "s.</w>"
    ],
    [
      "A",
      "r"
    ],
    [
      "Ar",
      "ti"
    ],
    [
      "Arti",
      "fic"
    ],
    [
      "Artific",
      "i"
    ],
    [
      "Artifici",
      "al</w>"
    ],
    [
      "inte",
      "ll"
    ],
    [
      "intell",
      "ig"
    ],
    [
      "intellig",
      "en"
    ],
    [
      "intelligen",
      "ce</w>"
    ],
    [
      "bu",
      "il"
    ],
    [
      "buil",
      "ds</w>"
    ],
    [
      "per",
      "ce"
    ],
    [
      "perce",
      "i"
    ],
    [
      "percei",
      "v"
    ],
    [
      "perceiv",
      "e,</w>"
    ],
    [
      "reason",
      ",</w>"
    ],
    [
      "ac",
      "t.</w>"
    ],
    [
      "S",
      "ear"
    ],
    [
      "Sear",
      "ch</w>"
    ],
    [
      "al",
      "g"
    ],
    [
      "alg",
      "or"
    ],
    [
      "algor",
      "ith"
    ],
    [
      "algorith",
      "m"
    ],
    [
      "algorithm",
      "s</w>"
    ],
    [
      "ex",
      "pl"
    ],
    [
      "expl",
      "ore</w>"
    ],
    [
      "sp",
      "ac"
    ],
    [
      "spac",
      "es.</w>"
    ],
    [
      "K",
      "nowledge</w>"
    ],
    [
      "gr",
      "ap"
    ],
    [
      "grap",
      "h"
    ],
    [
      "graph",
      "s</w>"
    ],
    [
      "enti",
      "ti"
    ],
    [
      "entiti",
      "es</w>"
    ],
    [
      "rel",
      "ation"
    ],
    [
      "relation",
      "s.</w>"
    ],
    [
      "P",
      "lan"
    ],
    [
      "Plan",
      "ning</w>"
    ],
    [
      "selec",
      "ts</w>"
    ],
    [
      "to",
      "ward</w>"
    ],
    [
      "g",
      "o"
    ],
    [
      "go",
      "al"
    ],
    [
      "goal",
      "s.</w>"
    ],
    [
      "R",
      "ob"
    ],
    [
      "Rob",
      "o"
    ],
    [
      "Robo",
      "tic"
    ],
    [
      "Robotic",
      "s</w>"
    ],
    [
      "per",
      "cep"
    ],
    [
      "percep",
      "tion,</w>"
    ],
    [
      "contr",
      "ol"
    ],
    [
      "control",
      ",</w>"
    ],
    [
      "lear",
      "n"
    ],
    [
      "learn",
      "ing.</w>"
    ],
    [
      "A",
      "I"
    ],
    [
      "AI",
      "</w>"
    ],
    [
      "sa",
      "fe"
    ],
    [
      "safe",
      "ty</w>"
    ],
    [
      "s",
      "tu"
    ],
    [
      "stu",
      "d"
    ],
    [
      "stud",
      "ies</w>"
    ],
    [
      "al",
      "ign"
    ],
    [
      "align",
      "men"
    ],
    [
      "alignmen",
      "t,</w>"
    ],
    [
      "ro",
      "b"
    ],
    [
      "rob",
      "us"
    ],
    [
      "robus",
      "t"
    ],
    [
      "robust",
      "ness,</w>"
    ],
    [
      "ov",
      "ersi"
    ],
    [
      "oversi",
      "g"
    ],
    [
      "oversig",
      "h"
    ],
    [
      "oversigh",
      "t.</w>"
    ],
    [
      "b",
      "en"
    ],
    [
      "ben",
      "ch"
    ],
    [
      "bench",
      "mar"
    ],
    [
      "benchmar",
      "ks</w>"
    ],
    [
      "reason",
      "ing,</w>"
    ],
    [
      "co",
      "d"
    ],
    [
      "cod",
      "ing,</w>"
    ],
    [
      "multi",
      "mod"
    ],
    [
      "multimod",
      "al</w>"
    ],
    [
      "under",
      "s"
    ],
    [
      "unders",
      "tan"
    ],
    [
      "understan",
      "ding"
    ],
    [
      "understanding",
      ".</w>"
    ],
    [
      "O",
      "per"
    ],
    [
      "Oper",
      "a"
    ],
    [
      "Opera",
      "ting</w>"
    ],
    [
      "s",
      "ch"
    ],
    [
      "sch",
      "ed"
    ],
    [
      "sched",
      "ul"
    ],
    [
      "schedul",
      "e</w>"
    ],
    [
      "proces",
      "se"
    ],
    [
      "processe",
      "s,</w>"
    ],
    [
      "m",
      "an"
    ],
    [
      "man",
      "age</w>"
    ],
    [
      "me",
      "m"
    ],
    [
      "mem",
      "or"
    ],
    [
      "memor",
      "y,</w>"
    ],
    [
      "f",
      "ile</w>"
    ],
    [
      "Con",
      "tain"
    ],
    [
      "Contain",
      "ers</w>"
    ],
    [
      "packa",
      "ge</w>"
    ],
    [
      "re",
      "produc"
    ],
    [
      "reproduc",
      "i"
    ],
    [
      "reproduci",
      "ble</w>"
    ],
    [
      "K",
      "u"
    ],
    [
      "Ku",
      "b"
    ],
    [
      "Kub",
      "er"
    ],
    [
      "Kuber",
      "ne"
    ],
    [
      "Kuberne",
      "tes</w>"
    ],
    [
      "or",
      "ch"
    ],
    [
      "orch",
      "es"
    ],
    [
      "orches",
      "tr"
    ],
    [
      "orchestr",
      "ates</w>"
    ],
    [
      "po",
      "d"
    ],
    [
      "pod",
      "s,</w>"
    ],
    [
      "s",
      "ervi"
    ],
    [
      "servi",
      "ce"
    ],
    [
      "service",
      "s,</w>"
    ],
    [
      "ro",
      "ll"
    ],
    [
      "roll",
      "ing</w>"
    ],
    [
      "up",
      "da"
    ],
    [
      "upda",
      "tes</w>"
    ],
    [
      "cluster",
      "s.</w>"
    ],
    [
      "In",
      "f"
    ],
    [
      "Inf",
      "r"
    ],
    [
      "Infr",
      "as"
    ],
    [
      "Infras",
      "truct"
    ],
    [
      "Infrastruct",
      "ure</w>"
    ],
    [
      "def",
      "ines</w>"
    ],
    [
      "serv",
      "ers</w>"
    ],
    [
      "v",
      "ersi"
    ],
    [
      "versi",
      "on"
    ],
    [
      "version",
      "ed</w>"
    ],
    [
      "te",
      "m"
    ],
    [
      "tem",
      "pla"
    ],
    [
      "templa",
      "te"
    ],
    [
      "template",
      "s.</w>"
    ],
    [
      "L",
      "o"
    ],
    [
      "Lo",
      "ad</w>"
    ],
    [
      "b",
      "a"
    ],
    [
      "ba",
      "lan"
    ],
    [
      "balan",
      "c"
    ],
    [
      "balanc",
      "ers</w>"
    ],
    [
      "dis",
      "tri"
    ],
    [
      "distri",
      "bu"
    ],
    [
      "distribu",
      "te</w>"
    ],
    [
      "tra",
      "f"
    ],
    [
      "traf",
      "fic"
    ],
    [
      "traffic",
      ";</w>"
    ],
    [
      "c",
      "ach"
    ],
    [
      "cach",
      "es</w>"
    ],
    [
      "laten",
      "c"
    ],
    [
      "latenc",
      "y</w>"
    ],
    [
      "h",
      "o"
    ],
    [
      "ho",
      "t</w>"
    ],
    [
      "data",
      ".</w>"
    ],
    [
      ">",
      ",</w>"
    ],
    [
      "In",
      "s"
    ],
    [
      "Ins",
      "tru"
    ],
    [
      "Instru",
      "c"
    ],
    [
      "Instruc",
      "tion</w>"
    ],
    [
      "t",
      "un"
    ],
    [
      "tun",
      "ing</w>"
    ],
    [
      "late",
      "r"
    ],
    [
      "later",
      "</w>"
    ],
    [
      "l",
      "i"
    ],
    [
      "li",
      "ter"
    ],
    [
      "liter",
      "al</w>"
    ],
    [
      "ta",
      "g"
    ],
    [
      "tag",
      "s</w>"
    ],
    [
      "<",
      "U"
    ],
    [
      "<U",
      "S"
    ],
    [
      "<US",
      "E"
    ],
    [
      "<USE",
      "R"
    ],
    [
      "<USER",
      ">,</w>"
    ],
    [
      "<",
      "A"
    ],
    [
      "<A",
      "S"
    ],
    [
      "<AS",
      "S"
    ],
    [
      "<ASS",
      "I"
    ],
    [
      "<ASSI",
      "ST"
    ],
    [
      "<ASSIST",
      "A"
    ],
    [
      "<ASSISTA",
      "N"
    ],
    [
      "<ASSISTAN",
      "T"
    ],
    [
      "<ASSISTANT",
      ">,</w>"
    ],
    [
      "<",
      "E"
    ],
    [
      "<E",
      "N"
    ],
    [
      "<EN",
      "D"
    ],
    [
      "<END",
      ">"
    ],
    [
      "<END>",
      ".</w>"
    ],
    [
      "token",
      "iz"
    ],
    [
      "tokeniz",
      "er</w>"
    ],
    [
      "se",
      "e</w>"
    ],
    [
      "th",
      "ese</w>"
    ],
    [
      "ch",
      "ar"
    ],
    [
      "char",
      "ac"
    ],
    [
      "charac",
      "ter"
    ],
    [
      "character",
      "s</w>"
    ],
    [
      "dur",
      "ing</w>"
    ],
    [
      "pre",
      "training</w>"
    ],
    [
      "s",
      "o"
    ],
    [
      "so",
      "</w>"
    ],
    [
      "en",
      "code</w>"
    ],
    [
      "ch",
      "at"
    ],
    [
      "chat",
      "-"
    ],
    [
      "chat-",
      "for"
    ],
    [
      "chat-for",
      "ma"
    ],
    [
      "chat-forma",
      "t"
    ],
    [
      "chat-format",
      "ted</w>"
    ],
    [
      "un",
      "k"
    ],
    [
      "unk",
      "now"
    ],
    [
      "unknow",
      "n</w>"
    ],
    [
      "sy",
      "m"
    ],
    [
      "sym",
      "b"
    ],
    [
      "symb",
      "ol"
    ],
    [
      "symbol",
      "s.</w>"
    ]
  ],
  "vocab": [
    ",",
    ",</w>",
    "-",
    "-0",
    "-0:</w>",
    "-1",
    "-1:</w>",
    "-2",
    "-2:</w>",
    "-3",
    "-3:</w>",
    "-4",
    "-4:</w>",
    "-t",
    ".",
    ".</w>",
    "0",
    "0-0:</w>",
    "0-1:</w>",
    "0-2:</w>",
    "0-3:</w>",
    "0-4:</w>",
    "1",
    "1-0:</w>",
    "1-1:</w>",
    "1-2:</w>",
    "1-3:</w>",
    "1-4:</w>",
    "10-0:</w>",
    "10-1:</w>",
    "10-2:</w>",
    "10-3:</w>",
    "10-4:</w>",
    "11-0:</w>",
    "11-1:</w>",
    "11-2:</w>",
    "11-3:</w>",
    "11-4:</w>",
    "12-0:</w>",
    "12-1:</w>",
    "12-2:</w>",
    "12-3:</w>",
    "12-4:</w>",
    "13-0:</w>",
    "13-1:</w>",
    "13-2:</w>",
    "13-3:</w>",
    "13-4:</w>",
    "14-0:</w>",
    "14-1:</w>",
    "14-2:</w>",
    "14-3:</w>",
    "14-4:</w>",
    "15-0:</w>",
    "15-1:</w>",
    "15-2:</w>",
    "15-3:</w>",
    "15-4:</w>",
    "16-0:</w>",
    "16-1:</w>",
    "16-2:</w>",
    "16-3:</w>",
    "16-4:</w>",
    "17-0:</w>",
    "17-1:</w>",
    "17-2:</w>",
    "17-3:</w>",
    "17-4:</w>",
    "18-0:</w>",
    "18-1:</w>",
    "18-2:</w>",
    "18-3:</w>",
    "18-4:</w>",
    "19-0:</w>",
    "19-1:</w>",
    "19-2:</w>",
    "19-3:</w>",
    "19-4:</w>",
    "2",
    "2-0:</w>",
    "2-1:</w>",
    "2-2:</w>",
    "2-3:</w>",
    "2-4:</w>",
    "20-0:</w>",
    "20-1:</w>",
    "20-2:</w>",
    "20-3:</w>",
    "20-4:</w>",
    "21-0:</w>",
    "21-1:</w>",
    "21-2:</w>",
    "21-3:</w>",
    "21-4:</w>",
    "22-0:</w>",
    "22-1:</w>",
    "22-2:</w>",
    "22-3:</w>",
    "22-4:</w>",
    "23-0:</w>",
    "23-1:</w>",
    "23-2:</w>",
    "23-3:</w>",
    "23-4:</w>",
    "24-0:</w>",
    "24-1:</w>",
    "24-2:</w>",
    "24-3:</w>",
    "24-4:</w>",
    "25-0:</w>",
    "25-1:</w>",
    "25-2:</w>",
    "25-3:</w>",
    "25-4:</w>",
    "26-0:</w>",
    "26-1:</w>",
    "26-2:</w>",
    "26-3:</w>",
    "26-4:</w>",
    "27-0:</w>",
    "27-1:</w>",
    "27-2:</w>",
    "27-3:</w>",
    "27-4:</w>",
    "28-0:</w>",
    "28-1:</w>",
    "28-2:</w>",
    "28-3:</w>",
    "28-4:</w>",
    "29-0:</w>",
    "29-1:</w>",
    "29-2:</w>",
    "29-3:</w>",
    "29-4:</w>",
    "3",
    "3-0:</w>",
    "3-1:</w>",
    "3-2:</w>",
    "3-3:</w>",
    "3-4:</w>",
    "30-0:</w>",
    "30-1:</w>",
    "30-2:</w>",
    "30-3:</w>",
    "30-4:</w>",
    "31-0:</w>",
    "31-1:</w>",
    "31-2:</w>",
    "31-3:</w>",
    "31-4:</w>",
    "32-0:</w>",
    "32-1:</w>",
    "32-2:</w>",
    "32-3:</w>",
    "32-4:</w>",
    "33-0:</w>",
    "33-1:</w>",
    "33-2:</w>",
    "33-3:</w>",
    "33-4:</w>",
    "34-0:</w>",
    "34-1:</w>",
    "34-2:</w>",
    "34-3:</w>",
    "34-4:</w>",
    "35-0:</w>",
    "35-1:</w>",
    "35-2:</w>",
    "35-3:</w>",
    "35-4:</w>",
    "36-0:</w>",
    "36-1:</w>",
    "36-2:</w>",
    "36-3:</w>",
    "36-4:</w>",
    "37-0:</w>",
    "37-1:</w>",
    "37-2:</w>",
    "37-3:</w>",
    "37-4:</w>",
    "38-0:</w>",
    "38-1:</w>",
    "38-2:</w>",
    "38-3:</w>",
    "38-4:</w>",
    "39-0:</w>",
    "39-1:</w>",
    "39-2:</w>",
    "39-3:</w>",
    "39-4:</w>",
    "4",
    "4-0:</w>",
    "4-1:</w>",
    "4-2:</w>",
    "4-3:</w>",
    "4-4:</w>",
    "40-0:</w>",
    "40-1:</w>",
    "40-2:</w>",
    "40-3:</w>",
    "40-4:</w>",
    "41-0:</w>",
    "41-1:</w>",
    "41-2:</w>",
    "41-3:</w>",
    "41-4:</w>",
    "42-0:</w>",
    "42-1:</w>",
    "42-2:</w>",
    "42-3:</w>",
    "42-4:</w>",
    "43-0:</w>",
    "43-1:</w>",
    "43-2:</w>",
    "43-3:</w>",
    "43-4:</w>",
    "44-0:</w>",
    "44-1:</w>",
    "44-2:</w>",
    "44-3:</w>",
    "44-4:</w>",
    "45-0:</w>",
    "45-1:</w>",
    "45-2:</w>",
    "45-3:</w>",
    "45-4:</w>",
    "46-0:</w>",
    "46-1:</w>",
    "46-2:</w>",
    "46-3:</w>",
    "46-4:</w>",
    "47-0:</w>",
    "47-1:</w>",
    "47-2:</w>",
    "47-3:</w>",
    "47-4:</w>",
    "48-0:</w>",
    "48-1:</w>",
    "48-2:</w>",
    "48-3:</w>",
    "48-4:</w>",
    "49-0:</w>",
    "49-1:</w>",
    "49-2:</w>",
    "49-3:</w>",
    "49-4:</w>",
    "5",
    "5-0:</w>",
    "5-1:</w>",
    "5-2:</w>",
    "5-3:</w>",
    "5-4:</w>",
    "50-0:</w>",
    "50-1:</w>",
    "50-2:</w>",
    "50-3:</w>",
    "50-4:</w>",
    "51-0:</w>",
    "51-1:</w>",
    "51-2:</w>",
    "51-3:</w>",
    "51-4:</w>",
    "52-0:</w>",
    "52-1:</w>",
    "52-2:</w>",
    "52-3:</w>",
    "52-4:</w>",
    "53-0:</w>",
    "53-1:</w>",
    "53-2:</w>",
    "53-3:</w>",
    "53-4:</w>",
    "54-0:</w>",
    "54-1:</w>",
    "54-2:</w>",
    "54-3:</w>",
    "54-4:</w>",
    "55-0:</w>",
    "55-1:</w>",
    "55-2:</w>",
    "55-3:</w>",
    "55-4:</w>",
    "56-0:</w>",
    "56-1:</w>",
    "56-2:</w>",
    "56-3:</w>",
    "56-4:</w>",
    "57-0:</w>",
    "57-1:</w>",
    "57-2:</w>",
    "57-3:</w>",
    "57-4:</w>",
    "58-0:</w>",
    "58-1:</w>",
    "58-2:</w>",
    "58-3:</w>",
    "58-4:</w>",
    "59-0:</w>",
    "59-1:</w>",
    "59-2:</w>",
    "59-3:</w>",
    "59-4:</w>",
    "6",
    "6-0:</w>",
    "6-1:</w>",
    "6-2:</w>",
    "6-3:</w>",
    "6-4:</w>",
    "60-0:</w>",
    "60-1:</w>",
    "60-2:</w>",
    "60-3:</w>",
    "60-4:</w>",
    "61-0:</w>",
    "61-1:</w>",
    "61-2:</w>",
    "61-3:</w>",
    "61-4:</w>",
    "62-0:</w>",
    "62-1:</w>",
    "62-2:</w>",
    "62-3:</w>",
    "62-4:</w>",
    "63-0:</w>",
    "63-1:</w>",
    "63-2:</w>",
    "63-3:</w>",
    "63-4:</w>",
    "64-0:</w>",
    "64-1:</w>",
    "64-2:</w>",
    "64-3:</w>",
    "64-4:</w>",
    "65-0:</w>",
    "65-1:</w>",
    "65-2:</w>",
    "65-3:</w>",
    "65-4:</w>",
    "66-0:</w>",
    "66-1:</w>",
    "66-2:</w>",
    "66-3:</w>",
    "66-4:</w>",
    "67-0:</w>",
    "67-1:</w>",
    "67-2:</w>",
    "67-3:</w>",
    "67-4:</w>",
    "68-0:</w>",
    "68-1:</w>",
    "68-2:</w>",
    "68-3:</w>",
    "68-4:</w>",
    "69-0:</w>",
    "69-1:</w>",
    "69-2:</w>",
    "69-3:</w>",
    "69-4:</w>",
    "7",
    "7-0:</w>",
    "7-1:</w>",
    "7-2:</w>",
    "7-3:</w>",
    "7-4:</w>",
    "70-0:</w>",
    "70-1:</w>",
    "70-2:</w>",
    "70-3:</w>",
    "70-4:</w>",
    "71-0:</w>",
    "71-1:</w>",
    "71-2:</w>",
    "71-3:</w>",
    "71-4:</w>",
    "72-0:</w>",
    "72-1:</w>",
    "72-2:</w>",
    "72-3:</w>",
    "72-4:</w>",
    "73-0:</w>",
    "73-1:</w>",
    "73-2:</w>",
    "73-3:</w>",
    "73-4:</w>",
    "74-0:</w>",
    "74-1:</w>",
    "74-2:</w>",
    "74-3:</w>",
    "74-4:</w>",
    "75-0:</w>",
    "75-1:</w>",
    "75-2:</w>",
    "75-3:</w>",
    "75-4:</w>",
    "76-0:</w>",
    "76-1:</w>",
    "76-2:</w>",
    "76-3:</w>",
    "76-4:</w>",
    "8",
    "8-0:</w>",
    "8-1:</w>",
    "8-2:</w>",
    "8-3:</w>",
    "8-4:</w>",
    "9",
    "9-0:</w>",
    "9-1:</w>",
    "9-2:</w>",
    "9-3:</w>",
    "9-4:</w>",
    ":",
    ":</w>",
    ";",
    ";</w>",
    "<",
    "</w>",
    "<A",
    "<AS",
    "<ASS",
    "<ASSI",
    "<ASSIST",
    "<ASSISTA",
    "<ASSISTAN",
    "<ASSISTANT",
    "<ASSISTANT>,</w>",
    "<E",
    "<EN",
    "<END",
    "<END>",
    "<END>.</w>",
    "<U",
    "<US",
    "<USE",
    "<USER",
    "<USER>,</w>",
    ">",
    ">,</w>",
    "A",
    "A</w>",
    "AC",
    "ACI",
    "ACID",
    "ACID</w>",
    "AI",
    "AI</w>",
    "AP",
    "API",
    "API</w>",
    "APIs.</w>",
    "APIs</w>",
    "Ad",
    "Adam",
    "AdamW",
    "AdamW.</w>",
    "Ar",
    "Arti",
    "Artific",
    "Artifici",
    "Artificial</w>",
    "Async</w>",
    "At",
    "Attention</w>",
    "Au",
    "Audit</w>",
    "Auth",
    "Authen",
    "Authentic",
    "Authentication</w>",
    "B",
    "B-t",
    "B-tre",
    "B-tree</w>",
    "Back",
    "Backup</w>",
    "C",
    "Cl",
    "Client</w>",
    "Co",
    "Code</w>",
    "Con",
    "Configur",
    "Configuration</w>",
    "Contain",
    "Containers</w>",
    "Contin",
    "Continuous</w>",
    "Conv",
    "Convol",
    "Convolu",
    "Convolution",
    "Convolutional</w>",
    "D",
    "Da",
    "Data",
    "Database</w>",
    "De",
    "Dee",
    "Deep</w>",
    "Depen",
    "Dependency</w>",
    "Docu",
    "Documentation</w>",
    "E",
    "Em",
    "Embedding",
    "Embeddings</w>",
    "En",
    "Enc",
    "Encryp",
    "Encryption</w>",
    "Engineers</w>",
    "Er",
    "Error</w>",
    "Evaluation</w>",
    "Example</w>",
    "F",
    "Fea",
    "Feature</w>",
    "Fine-tuning</w>",
    "G",
    "Go",
    "Goo",
    "Good</w>",
    "Gr",
    "Gradient</w>",
    "H",
    "HT",
    "HTT",
    "HTTP",
    "HTTP</w>",
    "I",
    "In",
    "Incident</w>",
    "Indexes</w>",
    "Inf",
    "Infr",
    "Infras",
    "Infrastruct",
    "Infrastructure</w>",
    "Ins",
    "Instru",
    "Instruc",
    "Instruction</w>",
    "J",
    "JS",
    "JSO",
    "JSON",
    "JSON</w>",
    "K",
    "Knowledge</w>",
    "Ku",
    "Kub",
    "Kuber",
    "Kuberne",
    "Kubernetes</w>",
    "L",
    "Le",
    "Least</w>",
    "Lo",
    "Load</w>",
    "M",
    "Mach",
    "Machine</w>",
    "Mi",
    "Migration",
    "Migrations</w>",
    "N",
    "Ne",
    "Neural</w>",
    "Normalization</w>",
    "O",
    "OAuth",
    "OAuth</w>",
    "OR",
    "ORM",
    "ORMs</w>",
    "Observability</w>",
    "Oper",
    "Opera",
    "Operating</w>",
    "P",
    "Partition",
    "Partitioning</w>",
    "Password</w>",
    "Phishing</w>",
    "Plan",
    "Planning</w>",
    "Pre",
    "Pretraining</w>",
    "Pri",
    "Primar",
    "Primary</w>",
    "Python</w>",
    "Q",
    "Qu",
    "Query</w>",
    "R",
    "RE",
    "REST",
    "REST</w>",
    "Re",
    "Rec",
    "Recurren",
    "Recurrent</w>",
    "Refactoring</w>",
    "Rein",
    "Reinfor",
    "Reinforce",
    "Reinforcemen",
    "Reinforcement</w>",
    "Rel",
    "Relation",
    "Relational</w>",
    "Reliable</w>",
    "Replication</w>",
    "Requ",
    "Request</w>",
    "Requi",
    "Require",
    "Requirements</w>",
    "Rob",
    "Robo",
    "Robotic",
    "Robotics</w>",
    "S",
    "SD",
    "SDK",
    "SDKs,</w>",
    "SDKs</w>",
    "SQ",
    "SQL",
    "SQL.</w>",
    "SQL</w>",
    "ST",
    "Schema</w>",
    "Se",
    "Sear",
    "Search</w>",
    "Serialization</w>",
    "Service</w>",
    "Sh",
    "Shor",
    "Short</w>",
    "Software</w>",
    "Supervised</w>",
    "T",
    "Th",
    "That</w>",
    "These</w>",
    "This</w>",
    "Threat</w>",
    "To",
    "Token",
    "Tokenization</w>",
    "Tr",
    "Trans",
    "Transactions</w>",
    "Transformers</w>",
    "U",
    "Un",
    "Unit</w>",
    "Uns",
    "Unsupervised</w>",
    "Useful</w>",
    "V",
    "Val",
    "Validation</w>",
    "Version</w>",
    "Vi",
    "Vir",
    "Virtu",
    "Virtual</w>",
    "Vulnerability</w>",
    "W",
    "Wh",
    "When</w>",
    "a",
    "a</w>",
    "ab",
    "abil",
    "abili",
    "ability</w>",
    "able</w>",
    "ac",
    "acces",
    "access</w>",
    "ach",
    "ack",
    "acros",
    "across</w>",
    "act.</w>",
    "acti",
    "actions</w>",
    "activ",
    "activation",
    "activations,</w>",
    "ad",
    "ad</w>",
    "ada",
    "adap",
    "adapts</w>",
    "adds</w>",
    "adient</w>",
    "age,</w>",
    "age</w>",
    "agg",
    "aggreg",
    "aggregates</w>",
    "ai</w>",
    "al",
    "al</w>",
    "alg",
    "algor",
    "algorith",
    "algorithm",
    "algorithms</w>",
    "align",
    "alignmen",
    "alignment,</w>",
    "altern",
    "alterna",
    "alternati",
    "alternatives</w>",
    "am",
    "an",
    "an</w>",
    "anal",
    "analy",
    "analytic",
    "analytics.</w>",
    "ance",
    "ance.</w>",
    "and</w>",
    "ans",
    "ap",
    "api</w>",
    "appli",
    "applic",
    "application",
    "applications</w>",
    "applies</w>",
    "ar",
    "arch",
    "archi",
    "archite",
    "architect",
    "architectural</w>",
    "architecture</w>",
    "arti",
    "artition",
    "as",
    "as</w>",
    "ase",
    "ass",
    "assum",
    "assump",
    "assumptions</w>",
    "asswor",
    "assword</w>",
    "ast</w>",
    "async</w>",
    "at",
    "at</w>",
    "ate",
    "ates</w>",
    "ation",
    "ation,</w>",
    "ation</w>",
    "atten",
    "attention,</w>",
    "attention</w>",
    "audit</w>",
    "b",
    "ba",
    "bac",
    "back",
    "back,</w>",
    "backup</w>",
    "balan",
    "balanc",
    "balancers</w>",
    "bas",
    "base</w>",
    "be",
    "bec",
    "beca",
    "because</w>",
    "bed",
    "bedding",
    "bef",
    "before</w>",
    "beha",
    "behavi",
    "behavior",
    "behavior,</w>",
    "behavior.</w>",
    "ben",
    "bench",
    "benchmar",
    "benchmarks</w>",
    "bl",
    "ble</w>",
    "bou",
    "boun",
    "bounda",
    "boundari",
    "boundaries,</w>",
    "boundaries</w>",
    "bserv",
    "bservability</w>",
    "bu",
    "bui",
    "buil",
    "build</w>",
    "builds</w>",
    "but</w>",
    "c",
    "cach",
    "caches</w>",
    "can</w>",
    "cap",
    "capture</w>",
    "case",
    "cases,</w>",
    "ce",
    "ce</w>",
    "cep",
    "ces",
    "ch",
    "ch</w>",
    "chan",
    "chang",
    "change",
    "change,</w>",
    "changes,</w>",
    "changes.</w>",
    "changes;</w>",
    "changes</w>",
    "changing</w>",
    "char",
    "charac",
    "character",
    "characters</w>",
    "chat",
    "chat-",
    "chat-for",
    "chat-forma",
    "chat-format",
    "chat-formatted</w>",
    "che",
    "chec",
    "check",
    "checks,</w>",
    "chema",
    "chema</w>",
    "cho",
    "choose</w>",
    "chos",
    "chosen</w>",
    "cid",
    "cident</w>",
    "cl",
    "clas",
    "classi",
    "classific",
    "classification</w>",
    "clear",
    "clear</w>",
    "client</w>",
    "clu",
    "cluste",
    "cluster",
    "clusters,</w>",
    "clusters.</w>",
    "co",
    "cod",
    "code",
    "code,</w>",
    "code.</w>",
    "code</w>",
    "codes,</w>",
    "coding,</w>",
    "col",
    "colum",
    "column",
    "columns,</w>",
    "com",
    "comb",
    "combines</w>",
    "comm",
    "commit</w>",
    "common</w>",
    "compl",
    "complex",
    "complex</w>",
    "compu",
    "computes</w>",
    "con",
    "conc",
    "concep",
    "concept</w>",
    "concre",
    "concrete</w>",
    "concurren",
    "concurrency",
    "concurrency.</w>",
    "configur",
    "configuration,</w>",
    "configuration</w>",
    "conn",
    "connect</w>",
    "conte",
    "contex",
    "context</w>",
    "contin",
    "continue",
    "continue,</w>",
    "continuous</w>",
    "contr",
    "contro",
    "control",
    "control,</w>",
    "control</w>",
    "cor",
    "corpor",
    "corpora",
    "corpora.</w>",
    "corre",
    "correct",
    "correctness,</w>",
    "cos",
    "cost</w>",
    "cov",
    "cros",
    "cross",
    "cross-",
    "cross-en",
    "cross-entr",
    "cross-entrop",
    "cross-entropy</w>",
    "ct",
    "cy",
    "cyb",
    "cybers",
    "cybersec",
    "cybersecu",
    "cybersecuri",
    "cybersecurity</w>",
    "d",
    "d</w>",
    "da",
    "data",
    "data.</w>",
    "data</w>",
    "datab",
    "database",
    "databases</w>",
    "datase",
    "dataset</w>",
    "de",
    "de</w>",
    "deb",
    "debates</w>",
    "debu",
    "debug</w>",
    "dec",
    "deci",
    "decid",
    "decide</w>",
    "decision",
    "decisions.</w>",
    "def",
    "defen",
    "defense,</w>",
    "defense</w>",
    "define</w>",
    "defines</w>",
    "den",
    "denc",
    "dency</w>",
    "denormalization</w>",
    "depen",
    "dependenc",
    "dependencies</w>",
    "dependency</w>",
    "depending</w>",
    "depends</w>",
    "depl",
    "deplo",
    "deploy",
    "deploymen",
    "deployment.</w>",
    "der",
    "desc",
    "descen",
    "descent,</w>",
    "descent</w>",
    "design",
    "design,</w>",
    "design</w>",
    "dex",
    "dexes</w>",
    "di",
    "dif",
    "diffe",
    "differen",
    "different</w>",
    "ding",
    "ding</w>",
    "dis",
    "discov",
    "discovers</w>",
    "distri",
    "distribu",
    "distribute</w>",
    "do",
    "docu",
    "documents</w>",
    "dom",
    "domin",
    "domina",
    "dominate</w>",
    "ds</w>",
    "du",
    "duc",
    "dur",
    "durable</w>",
    "during</w>",
    "e",
    "e,</w>",
    "e</w>",
    "ea",
    "ear",
    "easi",
    "easier</w>",
    "ec",
    "ect</w>",
    "ed",
    "ed</w>",
    "edge</w>",
    "el",
    "em",
    "embedding",
    "embeddings,</w>",
    "embeddings</w>",
    "en",
    "en</w>",
    "enc",
    "encode</w>",
    "encryp",
    "encryption,</w>",
    "encryption</w>",
    "end",
    "endpo",
    "endpoin",
    "endpoints,</w>",
    "endpoints</w>",
    "engine",
    "engineer",
    "engineering,</w>",
    "engineering</w>",
    "engineers</w>",
    "ent</w>",
    "enti",
    "entiti",
    "entities</w>",
    "envi",
    "envir",
    "environ",
    "environments</w>",
    "er",
    "er</w>",
    "error</w>",
    "ers",
    "ers,</w>",
    "ers</w>",
    "ersi",
    "ersion</w>",
    "erv",
    "ervi",
    "ervice</w>",
    "ery</w>",
    "es",
    "es,</w>",
    "es.</w>",
    "es</w>",
    "ese</w>",
    "ev",
    "evaluation</w>",
    "every</w>",
    "ew",
    "ew</w>",
    "ex",
    "exampl",
    "example</w>",
    "examples</w>",
    "exce",
    "excel</w>",
    "exp",
    "expl",
    "expla",
    "explain</w>",
    "explains</w>",
    "explore</w>",
    "expose</w>",
    "extern",
    "external</w>",
    "f",
    "fa",
    "fac",
    "fact",
    "factor",
    "factoring</w>",
    "factors,</w>",
    "fail",
    "failure",
    "failure</w>",
    "failures</w>",
    "fe",
    "feed",
    "feedbac",
    "feedback</w>",
    "fi",
    "fic",
    "figu",
    "figur",
    "fil",
    "file</w>",
    "filter",
    "filters,</w>",
    "fine-tun",
    "fine-tuning,</w>",
    "fine-tuning</w>",
    "flo",
    "flow",
    "flow.</w>",
    "focu",
    "focused</w>",
    "for",
    "for</w>",
    "fore",
    "foreign",
    "foreign</w>",
    "form",
    "formers</w>",
    "fro",
    "from",
    "from</w>",
    "fu",
    "full</w>",
    "future</w>",
    "g",
    "g</w>",
    "ge",
    "ge,</w>",
    "ge</w>",
    "gen",
    "gener",
    "generation</w>",
    "gg",
    "gine",
    "gineers</w>",
    "gn",
    "go",
    "goal",
    "goals.</w>",
    "gr",
    "gradient</w>",
    "grap",
    "graph",
    "graphs</w>",
    "gration",
    "grou",
    "group",
    "groups,</w>",
    "gu",
    "guar",
    "guaran",
    "guarante",
    "guarantees</w>",
    "guid",
    "guidan",
    "guidance</w>",
    "h",
    "ha",
    "hab",
    "habit</w>",
    "han",
    "hand",
    "hand-",
    "hand-wri",
    "hand-writ",
    "hand-written",
    "hand-written</w>",
    "handl",
    "handling,</w>",
    "handling</w>",
    "hash",
    "hash</w>",
    "hashing,</w>",
    "hashing</w>",
    "hel",
    "help</w>",
    "hi",
    "hier",
    "hierarch",
    "hierarchical</w>",
    "hishing</w>",
    "ho",
    "hot</w>",
    "i",
    "i</w>",
    "iable</w>",
    "ic",
    "ical</w>",
    "id",
    "ida",
    "idation</w>",
    "identi",
    "identif",
    "identify</w>",
    "ient</w>",
    "ies</w>",
    "ig",
    "ign",
    "ignoring</w>",
    "il",
    "ile</w>",
    "im",
    "ima",
    "image",
    "images.</w>",
    "impl",
    "imple",
    "implementation</w>",
    "impor",
    "importan",
    "important</w>",
    "impro",
    "improv",
    "improve</w>",
    "improves</w>",
    "in",
    "in</w>",
    "incident</w>",
    "inclu",
    "include</w>",
    "inde",
    "index",
    "index</w>",
    "indexes,</w>",
    "indexes</w>",
    "ine",
    "ine-t",
    "ine-tun",
    "ine-tuning</w>",
    "ine</w>",
    "ines</w>",
    "ing",
    "ing,</w>",
    "ing.</w>",
    "ing</w>",
    "injec",
    "injection,</w>",
    "injection</w>",
    "inpu",
    "inputs,</w>",
    "inputs</w>",
    "ins</w>",
    "insp",
    "inspect</w>",
    "inste",
    "instead</w>",
    "inte",
    "integr",
    "integration",
    "integration,</w>",
    "integration</w>",
    "intell",
    "intellig",
    "intelligen",
    "intelligence</w>",
    "inter",
    "interfac",
    "interface,</w>",
    "into</w>",
    "intu",
    "intui",
    "intuition",
    "intuition.</w>",
    "is",
    "is</w>",
    "iso",
    "isola",
    "isolate</w>",
    "iss",
    "issue",
    "issues.</w>",
    "it</w>",
    "ith",
    "iz",
    "ization,</w>",
    "ization</w>",
    "j",
    "jec",
    "jo",
    "join",
    "joins,</w>",
    "k",
    "k</w>",
    "ke",
    "ke</w>",
    "ken",
    "key",
    "keys</w>",
    "knowledge</w>",
    "ks</w>",
    "l",
    "l</w>",
    "la",
    "lab",
    "label",
    "labels</w>",
    "lan",
    "langu",
    "language,</w>",
    "language</w>",
    "lar",
    "large</w>",
    "late",
    "laten",
    "latenc",
    "latency",
    "latency,</w>",
    "latency</w>",
    "latent</w>",
    "later",
    "later</w>",
    "lay",
    "layers,</w>",
    "layers</w>",
    "ld</w>",
    "le",
    "lear",
    "learn",
    "learn</w>",
    "learning.</w>",
    "learning</w>",
    "least</w>",
    "li",
    "lin",
    "link</w>",
    "liter",
    "literal</w>",
    "ll",
    "ll</w>",
    "lo",
    "load",
    "load.</w>",
    "loc",
    "lock",
    "locking</w>",
    "log",
    "logg",
    "logging,</w>",
    "logging</w>",
    "logs,</w>",
    "loo",
    "look",
    "lookup",
    "lookups;</w>",
    "loop",
    "loops.</w>",
    "los",
    "loss.</w>",
    "m",
    "ma",
    "mach",
    "machine",
    "machines.</w>",
    "main",
    "maintain",
    "maintainable</w>",
    "mainten",
    "maintenance.</w>",
    "mak",
    "make</w>",
    "makes</w>",
    "man",
    "manage</w>",
    "map",
    "map</w>",
    "maps</w>",
    "mar",
    "me",
    "meas",
    "measure",
    "measure</w>",
    "measurements</w>",
    "mem",
    "memor",
    "memory,</w>",
    "men",
    "menta",
    "mentation</w>",
    "ments</w>",
    "metri",
    "metric",
    "metrics,</w>",
    "metrics</w>",
    "mi",
    "migration",
    "migrations,</w>",
    "migrations</w>",
    "mista",
    "mistake</w>",
    "ml</w>",
    "mo",
    "mod",
    "mode",
    "model",
    "model</w>",
    "modeling,</w>",
    "modeling</w>",
    "models,</w>",
    "models.</w>",
    "models</w>",
    "modes,</w>",
    "modul",
    "modules</w>",
    "more</w>",
    "mul",
    "multi",
    "multi-",
    "multi-version</w>",
    "multimod",
    "multimodal</w>",
    "mus",
    "must</w>",
    "n",
    "n</w>",
    "ne",
    "need",
    "need</w>",
    "needs;</w>",
    "ner",
    "nes",
    "ness,</w>",
    "net",
    "networ",
    "networks</w>",
    "nex",
    "next</w>",
    "ning</w>",
    "no",
    "non",
    "nonl",
    "nonline",
    "nonlinear",
    "nonlinear</w>",
    "normal",
    "normalization,</w>",
    "normalization</w>",
    "note</w>",
    "now",
    "nowl",
    "nowledge</w>",
    "o",
    "ob",
    "objec",
    "objects</w>",
    "observ",
    "observabili",
    "observabilit",
    "observability,</w>",
    "observability</w>",
    "oc",
    "ocu",
    "of",
    "of</w>",
    "oft",
    "oftwar",
    "oftware</w>",
    "ol",
    "on",
    "on</w>",
    "op",
    "oper",
    "operation",
    "operational</w>",
    "operations.</w>",
    "opti",
    "optimi",
    "optimiz",
    "optimizers</w>",
    "optimizes</w>",
    "optimizing</w>",
    "or",
    "or</w>",
    "orch",
    "orches",
    "orchestr",
    "orchestrates</w>",
    "ore</w>",
    "org",
    "organ",
    "organiz",
    "organize</w>",
    "oring</w>",
    "orma",
    "ormal",
    "ormalization</w>",
    "os",
    "ose</w>",
    "ou",
    "out",
    "outputs,</w>",
    "ov",
    "over",
    "over</w>",
    "overfi",
    "overfit",
    "overfitting",
    "overfitting.</w>",
    "oversi",
    "oversig",
    "oversigh",
    "oversight.</w>",
    "ow",
    "owner",
    "ownersh",
    "ownershi",
    "ownership",
    "ownership.</w>",
    "p",
    "p</w>",
    "pa",
    "pack",
    "packa",
    "package",
    "package</w>",
    "packages,</w>",
    "packages</w>",
    "partition",
    "partitioning,</w>",
    "partitioning</w>",
    "password</w>",
    "pat",
    "patch",
    "patching,</w>",
    "patching</w>",
    "pattern",
    "patterns.</w>",
    "pay",
    "payload",
    "payloads.</w>",
    "pen",
    "per",
    "per</w>",
    "perce",
    "percei",
    "perceiv",
    "perceive,</w>",
    "percep",
    "perception,</w>",
    "perform",
    "performance.</w>",
    "phishing</w>",
    "pl",
    "pla",
    "plain</w>",
    "plan",
    "plann",
    "planners</w>",
    "planning,</w>",
    "planning</w>",
    "pli",
    "plic",
    "plication</w>",
    "po",
    "pod",
    "pods,</w>",
    "pol",
    "polic",
    "policies</w>",
    "por",
    "pr",
    "prac",
    "practic",
    "practical</w>",
    "pre",
    "pred",
    "predic",
    "predictable</w>",
    "predicts</w>",
    "pres",
    "preserv",
    "preserve",
    "preserve.</w>",
    "pretra",
    "pretraine",
    "pretrained</w>",
    "pretraining</w>",
    "pri",
    "privi",
    "privile",
    "privilege,</w>",
    "privilege</w>",
    "pro",
    "probl",
    "problem",
    "problem,</w>",
    "proces",
    "processe",
    "processes,</w>",
    "processes</w>",
    "produc",
    "production</w>",
    "projec",
    "project.</w>",
    "provi",
    "provide</w>",
    "pu",
    "publ",
    "public",
    "public</w>",
    "puts,</w>",
    "python</w>",
    "q",
    "qu",
    "qual",
    "quali",
    "quality</w>",
    "que",
    "queri",
    "queries,</w>",
    "queries.</w>",
    "query</w>",
    "ques",
    "quest</w>",
    "r",
    "ra",
    "rate",
    "rates,</w>",
    "raw",
    "raw</w>",
    "re",
    "rea",
    "read",
    "read</w>",
    "reader",
    "readers</w>",
    "reads</w>",
    "real</w>",
    "reas",
    "reason",
    "reason,</w>",
    "reasoning,</w>",
    "reat</w>",
    "recor",
    "record",
    "records.</w>",
    "recov",
    "recover",
    "recovery,</w>",
    "recovery</w>",
    "red",
    "redesign",
    "redesign.</w>",
    "redu",
    "reduc",
    "reduce</w>",
    "reduces</w>",
    "redun",
    "redund",
    "redundan",
    "redundancy",
    "redundancy;</w>",
    "refactor",
    "refactoring,</w>",
    "refactoring</w>",
    "reg",
    "regres",
    "regressi",
    "regression</w>",
    "regu",
    "regula",
    "regulari",
    "regulariz",
    "regularization,</w>",
    "rejec",
    "rejecte",
    "rejected",
    "rejected,</w>",
    "rel",
    "relation",
    "relations.</w>",
    "reliable</w>",
    "remain",
    "remain.</w>",
    "ren",
    "replic",
    "replication,</w>",
    "replication</w>",
    "repor",
    "reports</w>",
    "repres",
    "represen",
    "representa",
    "representation",
    "representations.</w>",
    "reproduc",
    "reproduci",
    "reproducible</w>",
    "reques",
    "request",
    "request</w>",
    "requests.</w>",
    "res",
    "resou",
    "resour",
    "resourc",
    "resource</w>",
    "resources</w>",
    "resp",
    "respon",
    "response,</w>",
    "response</w>",
    "resul",
    "result</w>",
    "reus",
    "reusable</w>",
    "revi",
    "review",
    "review,</w>",
    "review</w>",
    "revis",
    "revisit</w>",
    "reward</w>",
    "rewrite",
    "rewrites.</w>",
    "ri",
    "rial",
    "rialization</w>",
    "ries,</w>",
    "ris",
    "risks</w>",
    "ro",
    "rob",
    "robus",
    "robust",
    "robustness,</w>",
    "roll",
    "roll</w>",
    "rolling</w>",
    "ror</w>",
    "ros",
    "row",
    "rows,</w>",
    "rows;</w>",
    "rul",
    "rules.</w>",
    "run",
    "run</w>",
    "runs</w>",
    "ry",
    "ryp",
    "s",
    "s,</w>",
    "s.</w>",
    "s;</w>",
    "s</w>",
    "sa",
    "saf",
    "safe",
    "safel",
    "safely.</w>",
    "safety</w>",
    "sc",
    "scal",
    "scale</w>",
    "scan",
    "scans.</w>",
    "scans</w>",
    "sch",
    "sched",
    "schedul",
    "schedule</w>",
    "schema</w>",
    "se",
    "se,</w>",
    "se</w>",
    "sed</w>",
    "see</w>",
    "sefu",
    "seful</w>",
    "sel",
    "selec",
    "selects,</w>",
    "selects</w>",
    "sequ",
    "sequenc",
    "sequences</w>",
    "serial",
    "serialization,</w>",
    "serialization</w>",
    "serv",
    "serve</w>",
    "servers</w>",
    "servi",
    "service",
    "service</w>",
    "services,</w>",
    "ses",
    "ses</w>",
    "session",
    "sessions,</w>",
    "sh",
    "shar",
    "sharding</w>",
    "sharing.</w>",
    "shing</w>",
    "shou",
    "should</w>",
    "si",
    "sign",
    "signal",
    "signals</w>",
    "sion",
    "sma",
    "small</w>",
    "so",
    "so</w>",
    "software</w>",
    "sp",
    "spac",
    "spaces.</w>",
    "spe",
    "speed</w>",
    "spli",
    "splits,</w>",
    "splits</w>",
    "st",
    "sta",
    "stac",
    "stacks</w>",
    "star",
    "starts</w>",
    "state</w>",
    "ste",
    "sti",
    "still</w>",
    "store</w>",
    "struct",
    "structure",
    "structure.</w>",
    "structure</w>",
    "structured</w>",
    "stu",
    "stud",
    "studies</w>",
    "su",
    "such</w>",
    "sum",
    "sums</w>",
    "sy",
    "sym",
    "symb",
    "symbol",
    "symbols.</w>",
    "syn",
    "sync",
    "sync</w>",
    "synta",
    "syntax</w>",
    "syste",
    "system",
    "system</w>",
    "systems.</w>",
    "systems</w>",
    "t",
    "t,</w>",
    "t.</w>",
    "t</w>",
    "ta",
    "tabl",
    "table</w>",
    "tables,</w>",
    "tables.</w>",
    "tables</w>",
    "tag",
    "tags</w>",
    "tain",
    "tan",
    "tas",
    "task",
    "tasks.</w>",
    "te",
    "te</w>",
    "team",
    "teams</w>",
    "tech",
    "techn",
    "technical</w>",
    "ted</w>",
    "tem",
    "templa",
    "template",
    "templates.</w>",
    "ten",
    "tention</w>",
    "ter",
    "tern",
    "tes",
    "tes</w>",
    "test</w>",
    "testing",
    "testing,</w>",
    "testing</w>",
    "tests</w>",
    "th",
    "than</w>",
    "that</w>",
    "the",
    "the</w>",
    "then</w>",
    "these</w>",
    "they</w>",
    "this</w>",
    "threat</w>",
    "ti",
    "tic",
    "time",
    "time.</w>",
    "tin",
    "ting",
    "ting</w>",
    "tion",
    "tion,</w>",
    "tion</w>",
    "tions</w>",
    "to",
    "to</w>",
    "toda",
    "today.</w>",
    "tok",
    "token",
    "token</w>",
    "tokeniz",
    "tokenization,</w>",
    "tokenization</w>",
    "tokenizer</w>",
    "tokens,</w>",
    "tokens.</w>",
    "toward</w>",
    "tr",
    "tra",
    "trac",
    "traces</w>",
    "tracks</w>",
    "trade",
    "tradeof",
    "tradeoff",
    "tradeoffs.</w>",
    "traf",
    "traffic",
    "traffic;</w>",
    "train",
    "training</w>",
    "trains</w>",
    "trans",
    "transac",
    "transaction",
    "transactions,</w>",
    "transactions</w>",
    "transform",
    "transformers,</w>",
    "transformers</w>",
    "tri",
    "tru",
    "truct",
    "trus",
    "trusting</w>",
    "ts,</w>",
    "ts</w>",
    "tu",
    "tun",
    "tuning</w>",
    "tur",
    "ture</w>",
    "turn</w>",
    "ty</w>",
    "u",
    "ud",
    "udit</w>",
    "ue",
    "ul",
    "ulner",
    "ulnerability</w>",
    "um",
    "un",
    "under",
    "under</w>",
    "unders",
    "understan",
    "understanding",
    "understanding.</w>",
    "uni",
    "uniqu",
    "uniquel",
    "uniquely</w>",
    "unit</w>",
    "unk",
    "unknow",
    "unknown</w>",
    "unte",
    "unteste",
    "untested</w>",
    "uou",
    "uous</w>",
    "up",
    "up</w>",
    "upda",
    "updates</w>",
    "upervi",
    "upervised</w>",
    "ur",
    "ural</w>",
    "ure",
    "ure</w>",
    "urren",
    "us",
    "usage,</w>",
    "use</w>",
    "useful</w>",
    "user</w>",
    "uses</w>",
    "v",
    "val",
    "valida",
    "validation,</w>",
    "validation</w>",
    "valu",
    "valuation</w>",
    "vers",
    "versi",
    "version",
    "version</w>",
    "versioned</w>",
    "versu",
    "versus</w>",
    "ves</w>",
    "vi",
    "view</w>",
    "visi",
    "visible</w>",
    "vulnerability</w>",
    "w",
    "war",
    "ward</w>",
    "we",
    "weig",
    "weigh",
    "weighted</w>",
    "wer",
    "were</w>",
    "wh",
    "whe",
    "when</w>",
    "wheth",
    "whether</w>",
    "while</w>",
    "with",
    "with</w>",
    "withou",
    "without</w>",
    "wor",
    "work",
    "work</w>",
    "workers,</w>",
    "workers</w>",
    "wri",
    "write",
    "write</w>",
    "writes</w>",
    "x",
    "x</w>",
    "xam",
    "xampl",
    "xample</w>",
    "y",
    "y,</w>",
    "y.</w>",
    "y</w>",
    "yth",
    "ython</w>",
    "z"
  ],
  "stoi": {
    ",": 0,
    ",</w>": 1,
    "-": 2,
    "-0": 3,
    "-0:</w>": 4,
    "-1": 5,
    "-1:</w>": 6,
    "-2": 7,
    "-2:</w>": 8,
    "-3": 9,
    "-3:</w>": 10,
    "-4": 11,
    "-4:</w>": 12,
    "-t": 13,
    ".": 14,
    ".</w>": 15,
    "0": 16,
    "0-0:</w>": 17,
    "0-1:</w>": 18,
    "0-2:</w>": 19,
    "0-3:</w>": 20,
    "0-4:</w>": 21,
    "1": 22,
    "1-0:</w>": 23,
    "1-1:</w>": 24,
    "1-2:</w>": 25,
    "1-3:</w>": 26,
    "1-4:</w>": 27,
    "10-0:</w>": 28,
    "10-1:</w>": 29,
    "10-2:</w>": 30,
    "10-3:</w>": 31,
    "10-4:</w>": 32,
    "11-0:</w>": 33,
    "11-1:</w>": 34,
    "11-2:</w>": 35,
    "11-3:</w>": 36,
    "11-4:</w>": 37,
    "12-0:</w>": 38,
    "12-1:</w>": 39,
    "12-2:</w>": 40,
    "12-3:</w>": 41,
    "12-4:</w>": 42,
    "13-0:</w>": 43,
    "13-1:</w>": 44,
    "13-2:</w>": 45,
    "13-3:</w>": 46,
    "13-4:</w>": 47,
    "14-0:</w>": 48,
    "14-1:</w>": 49,
    "14-2:</w>": 50,
    "14-3:</w>": 51,
    "14-4:</w>": 52,
    "15-0:</w>": 53,
    "15-1:</w>": 54,
    "15-2:</w>": 55,
    "15-3:</w>": 56,
    "15-4:</w>": 57,
    "16-0:</w>": 58,
    "16-1:</w>": 59,
    "16-2:</w>": 60,
    "16-3:</w>": 61,
    "16-4:</w>": 62,
    "17-0:</w>": 63,
    "17-1:</w>": 64,
    "17-2:</w>": 65,
    "17-3:</w>": 66,
    "17-4:</w>": 67,
    "18-0:</w>": 68,
    "18-1:</w>": 69,
    "18-2:</w>": 70,
    "18-3:</w>": 71,
    "18-4:</w>": 72,
    "19-0:</w>": 73,
    "19-1:</w>": 74,
    "19-2:</w>": 75,
    "19-3:</w>": 76,
    "19-4:</w>": 77,
    "2": 78,
    "2-0:</w>": 79,
    "2-1:</w>": 80,
    "2-2:</w>": 81,
    "2-3:</w>": 82,
    "2-4:</w>": 83,
    "20-0:</w>": 84,
    "20-1:</w>": 85,
    "20-2:</w>": 86,
    "20-3:</w>": 87,
    "20-4:</w>": 88,
    "21-0:</w>": 89,
    "21-1:</w>": 90,
    "21-2:</w>": 91,
    "21-3:</w>": 92,
    "21-4:</w>": 93,
    "22-0:</w>": 94,
    "22-1:</w>": 95,
    "22-2:</w>": 96,
    "22-3:</w>": 97,
    "22-4:</w>": 98,
    "23-0:</w>": 99,
    "23-1:</w>": 100,
    "23-2:</w>": 101,
    "23-3:</w>": 102,
    "23-4:</w>": 103,
    "24-0:</w>": 104,
    "24-1:</w>": 105,
    "24-2:</w>": 106,
    "24-3:</w>": 107,
    "24-4:</w>": 108,
    "25-0:</w>": 109,
    "25-1:</w>": 110,
    "25-2:</w>": 111,
    "25-3:</w>": 112,
    "25-4:</w>": 113,
    "26-0:</w>": 114,
    "26-1:</w>": 115,
    "26-2:</w>": 116,
    "26-3:</w>": 117,
    "26-4:</w>": 118,
    "27-0:</w>": 119,
    "27-1:</w>": 120,
    "27-2:</w>": 121,
    "27-3:</w>": 122,
    "27-4:</w>": 123,
    "28-0:</w>": 124,
    "28-1:</w>": 125,
    "28-2:</w>": 126,
    "28-3:</w>": 127,
    "28-4:</w>": 128,
    "29-0:</w>": 129,
    "29-1:</w>": 130,
    "29-2:</w>": 131,
    "29-3:</w>": 132,
    "29-4:</w>": 133,
    "3": 134,
    "3-0:</w>": 135,
    "3-1:</w>": 136,
    "3-2:</w>": 137,
    "3-3:</w>": 138,
    "3-4:</w>": 139,
    "30-0:</w>": 140,
    "30-1:</w>": 141,
    "30-2:</w>": 142,
    "30-3:</w>": 143,
    "30-4:</w>": 144,
    "31-0:</w>": 145,
    "31-1:</w>": 146,
    "31-2:</w>": 147,
    "31-3:</w>": 148,
    "31-4:</w>": 149,
    "32-0:</w>": 150,
    "32-1:</w>": 151,
    "32-2:</w>": 152,
    "32-3:</w>": 153,
    "32-4:</w>": 154,
    "33-0:</w>": 155,
    "33-1:</w>": 156,
    "33-2:</w>": 157,
    "33-3:</w>": 158,
    "33-4:</w>": 159,
    "34-0:</w>": 160,
    "34-1:</w>": 161,
    "34-2:</w>": 162,
    "34-3:</w>": 163,
    "34-4:</w>": 164,
    "35-0:</w>": 165,
    "35-1:</w>": 166,
    "35-2:</w>": 167,
    "35-3:</w>": 168,
    "35-4:</w>": 169,
    "36-0:</w>": 170,
    "36-1:</w>": 171,
    "36-2:</w>": 172,
    "36-3:</w>": 173,
    "36-4:</w>": 174,
    "37-0:</w>": 175,
    "37-1:</w>": 176,
    "37-2:</w>": 177,
    "37-3:</w>": 178,
    "37-4:</w>": 179,
    "38-0:</w>": 180,
    "38-1:</w>": 181,
    "38-2:</w>": 182,
    "38-3:</w>": 183,
    "38-4:</w>": 184,
    "39-0:</w>": 185,
    "39-1:</w>": 186,
    "39-2:</w>": 187,
    "39-3:</w>": 188,
    "39-4:</w>": 189,
    "4": 190,
    "4-0:</w>": 191,
    "4-1:</w>": 192,
    "4-2:</w>": 193,
    "4-3:</w>": 194,
    "4-4:</w>": 195,
    "40-0:</w>": 196,
    "40-1:</w>": 197,
    "40-2:</w>": 198,
    "40-3:</w>": 199,
    "40-4:</w>": 200,
    "41-0:</w>": 201,
    "41-1:</w>": 202,
    "41-2:</w>": 203,
    "41-3:</w>": 204,
    "41-4:</w>": 205,
    "42-0:</w>": 206,
    "42-1:</w>": 207,
    "42-2:</w>": 208,
    "42-3:</w>": 209,
    "42-4:</w>": 210,
    "43-0:</w>": 211,
    "43-1:</w>": 212,
    "43-2:</w>": 213,
    "43-3:</w>": 214,
    "43-4:</w>": 215,
    "44-0:</w>": 216,
    "44-1:</w>": 217,
    "44-2:</w>": 218,
    "44-3:</w>": 219,
    "44-4:</w>": 220,
    "45-0:</w>": 221,
    "45-1:</w>": 222,
    "45-2:</w>": 223,
    "45-3:</w>": 224,
    "45-4:</w>": 225,
    "46-0:</w>": 226,
    "46-1:</w>": 227,
    "46-2:</w>": 228,
    "46-3:</w>": 229,
    "46-4:</w>": 230,
    "47-0:</w>": 231,
    "47-1:</w>": 232,
    "47-2:</w>": 233,
    "47-3:</w>": 234,
    "47-4:</w>": 235,
    "48-0:</w>": 236,
    "48-1:</w>": 237,
    "48-2:</w>": 238,
    "48-3:</w>": 239,
    "48-4:</w>": 240,
    "49-0:</w>": 241,
    "49-1:</w>": 242,
    "49-2:</w>": 243,
    "49-3:</w>": 244,
    "49-4:</w>": 245,
    "5": 246,
    "5-0:</w>": 247,
    "5-1:</w>": 248,
    "5-2:</w>": 249,
    "5-3:</w>": 250,
    "5-4:</w>": 251,
    "50-0:</w>": 252,
    "50-1:</w>": 253,
    "50-2:</w>": 254,
    "50-3:</w>": 255,
    "50-4:</w>": 256,
    "51-0:</w>": 257,
    "51-1:</w>": 258,
    "51-2:</w>": 259,
    "51-3:</w>": 260,
    "51-4:</w>": 261,
    "52-0:</w>": 262,
    "52-1:</w>": 263,
    "52-2:</w>": 264,
    "52-3:</w>": 265,
    "52-4:</w>": 266,
    "53-0:</w>": 267,
    "53-1:</w>": 268,
    "53-2:</w>": 269,
    "53-3:</w>": 270,
    "53-4:</w>": 271,
    "54-0:</w>": 272,
    "54-1:</w>": 273,
    "54-2:</w>": 274,
    "54-3:</w>": 275,
    "54-4:</w>": 276,
    "55-0:</w>": 277,
    "55-1:</w>": 278,
    "55-2:</w>": 279,
    "55-3:</w>": 280,
    "55-4:</w>": 281,
    "56-0:</w>": 282,
    "56-1:</w>": 283,
    "56-2:</w>": 284,
    "56-3:</w>": 285,
    "56-4:</w>": 286,
    "57-0:</w>": 287,
    "57-1:</w>": 288,
    "57-2:</w>": 289,
    "57-3:</w>": 290,
    "57-4:</w>": 291,
    "58-0:</w>": 292,
    "58-1:</w>": 293,
    "58-2:</w>": 294,
    "58-3:</w>": 295,
    "58-4:</w>": 296,
    "59-0:</w>": 297,
    "59-1:</w>": 298,
    "59-2:</w>": 299,
    "59-3:</w>": 300,
    "59-4:</w>": 301,
    "6": 302,
    "6-0:</w>": 303,
    "6-1:</w>": 304,
    "6-2:</w>": 305,
    "6-3:</w>": 306,
    "6-4:</w>": 307,
    "60-0:</w>": 308,
    "60-1:</w>": 309,
    "60-2:</w>": 310,
    "60-3:</w>": 311,
    "60-4:</w>": 312,
    "61-0:</w>": 313,
    "61-1:</w>": 314,
    "61-2:</w>": 315,
    "61-3:</w>": 316,
    "61-4:</w>": 317,
    "62-0:</w>": 318,
    "62-1:</w>": 319,
    "62-2:</w>": 320,
    "62-3:</w>": 321,
    "62-4:</w>": 322,
    "63-0:</w>": 323,
    "63-1:</w>": 324,
    "63-2:</w>": 325,
    "63-3:</w>": 326,
    "63-4:</w>": 327,
    "64-0:</w>": 328,
    "64-1:</w>": 329,
    "64-2:</w>": 330,
    "64-3:</w>": 331,
    "64-4:</w>": 332,
    "65-0:</w>": 333,
    "65-1:</w>": 334,
    "65-2:</w>": 335,
    "65-3:</w>": 336,
    "65-4:</w>": 337,
    "66-0:</w>": 338,
    "66-1:</w>": 339,
    "66-2:</w>": 340,
    "66-3:</w>": 341,
    "66-4:</w>": 342,
    "67-0:</w>": 343,
    "67-1:</w>": 344,
    "67-2:</w>": 345,
    "67-3:</w>": 346,
    "67-4:</w>": 347,
    "68-0:</w>": 348,
    "68-1:</w>": 349,
    "68-2:</w>": 350,
    "68-3:</w>": 351,
    "68-4:</w>": 352,
    "69-0:</w>": 353,
    "69-1:</w>": 354,
    "69-2:</w>": 355,
    "69-3:</w>": 356,
    "69-4:</w>": 357,
    "7": 358,
    "7-0:</w>": 359,
    "7-1:</w>": 360,
    "7-2:</w>": 361,
    "7-3:</w>": 362,
    "7-4:</w>": 363,
    "70-0:</w>": 364,
    "70-1:</w>": 365,
    "70-2:</w>": 366,
    "70-3:</w>": 367,
    "70-4:</w>": 368,
    "71-0:</w>": 369,
    "71-1:</w>": 370,
    "71-2:</w>": 371,
    "71-3:</w>": 372,
    "71-4:</w>": 373,
    "72-0:</w>": 374,
    "72-1:</w>": 375,
    "72-2:</w>": 376,
    "72-3:</w>": 377,
    "72-4:</w>": 378,
    "73-0:</w>": 379,
    "73-1:</w>": 380,
    "73-2:</w>": 381,
    "73-3:</w>": 382,
    "73-4:</w>": 383,
    "74-0:</w>": 384,
    "74-1:</w>": 385,
    "74-2:</w>": 386,
    "74-3:</w>": 387,
    "74-4:</w>": 388,
    "75-0:</w>": 389,
    "75-1:</w>": 390,
    "75-2:</w>": 391,
    "75-3:</w>": 392,
    "75-4:</w>": 393,
    "76-0:</w>": 394,
    "76-1:</w>": 395,
    "76-2:</w>": 396,
    "76-3:</w>": 397,
    "76-4:</w>": 398,
    "8": 399,
    "8-0:</w>": 400,
    "8-1:</w>": 401,
    "8-2:</w>": 402,
    "8-3:</w>": 403,
    "8-4:</w>": 404,
    "9": 405,
    "9-0:</w>": 406,
    "9-1:</w>": 407,
    "9-2:</w>": 408,
    "9-3:</w>": 409,
    "9-4:</w>": 410,
    ":": 411,
    ":</w>": 412,
    ";": 413,
    ";</w>": 414,
    "<": 415,
    "</w>": 416,
    "<A": 417,
    "<AS": 418,
    "<ASS": 419,
    "<ASSI": 420,
    "<ASSIST": 421,
    "<ASSISTA": 422,
    "<ASSISTAN": 423,
    "<ASSISTANT": 424,
    "<ASSISTANT>,</w>": 425,
    "<E": 426,
    "<EN": 427,
    "<END": 428,
    "<END>": 429,
    "<END>.</w>": 430,
    "<U": 431,
    "<US": 432,
    "<USE": 433,
    "<USER": 434,
    "<USER>,</w>": 435,
    ">": 436,
    ">,</w>": 437,
    "A": 438,
    "A</w>": 439,
    "AC": 440,
    "ACI": 441,
    "ACID": 442,
    "ACID</w>": 443,
    "AI": 444,
    "AI</w>": 445,
    "AP": 446,
    "API": 447,
    "API</w>": 448,
    "APIs.</w>": 449,
    "APIs</w>": 450,
    "Ad": 451,
    "Adam": 452,
    "AdamW": 453,
    "AdamW.</w>": 454,
    "Ar": 455,
    "Arti": 456,
    "Artific": 457,
    "Artifici": 458,
    "Artificial</w>": 459,
    "Async</w>": 460,
    "At": 461,
    "Attention</w>": 462,
    "Au": 463,
    "Audit</w>": 464,
    "Auth": 465,
    "Authen": 466,
    "Authentic": 467,
    "Authentication</w>": 468,
    "B": 469,
    "B-t": 470,
    "B-tre": 471,
    "B-tree</w>": 472,
    "Back": 473,
    "Backup</w>": 474,
    "C": 475,
    "Cl": 476,
    "Client</w>": 477,
    "Co": 478,
    "Code</w>": 479,
    "Con": 480,
    "Configur": 481,
    "Configuration</w>": 482,
    "Contain": 483,
    "Containers</w>": 484,
    "Contin": 485,
    "Continuous</w>": 486,
    "Conv": 487,
    "Convol": 488,
    "Convolu": 489,
    "Convolution": 490,
    "Convolutional</w>": 491,
    "D": 492,
    "Da": 493,
    "Data": 494,
    "Database</w>": 495,
    "De": 496,
    "Dee": 497,
    "Deep</w>": 498,
    "Depen": 499,
    "Dependency</w>": 500,
    "Docu": 501,
    "Documentation</w>": 502,
    "E": 503,
    "Em": 504,
    "Embedding": 505,
    "Embeddings</w>": 506,
    "En": 507,
    "Enc": 508,
    "Encryp": 509,
    "Encryption</w>": 510,
    "Engineers</w>": 511,
    "Er": 512,
    "Error</w>": 513,
    "Evaluation</w>": 514,
    "Example</w>": 515,
    "F": 516,
    "Fea": 517,
    "Feature</w>": 518,
    "Fine-tuning</w>": 519,
    "G": 520,
    "Go": 521,
    "Goo": 522,
    "Good</w>": 523,
    "Gr": 524,
    "Gradient</w>": 525,
    "H": 526,
    "HT": 527,
    "HTT": 528,
    "HTTP": 529,
    "HTTP</w>": 530,
    "I": 531,
    "In": 532,
    "Incident</w>": 533,
    "Indexes</w>": 534,
    "Inf": 535,
    "Infr": 536,
    "Infras": 537,
    "Infrastruct": 538,
    "Infrastructure</w>": 539,
    "Ins": 540,
    "Instru": 541,
    "Instruc": 542,
    "Instruction</w>": 543,
    "J": 544,
    "JS": 545,
    "JSO": 546,
    "JSON": 547,
    "JSON</w>": 548,
    "K": 549,
    "Knowledge</w>": 550,
    "Ku": 551,
    "Kub": 552,
    "Kuber": 553,
    "Kuberne": 554,
    "Kubernetes</w>": 555,
    "L": 556,
    "Le": 557,
    "Least</w>": 558,
    "Lo": 559,
    "Load</w>": 560,
    "M": 561,
    "Mach": 562,
    "Machine</w>": 563,
    "Mi": 564,
    "Migration": 565,
    "Migrations</w>": 566,
    "N": 567,
    "Ne": 568,
    "Neural</w>": 569,
    "Normalization</w>": 570,
    "O": 571,
    "OAuth": 572,
    "OAuth</w>": 573,
    "OR": 574,
    "ORM": 575,
    "ORMs</w>": 576,
    "Observability</w>": 577,
    "Oper": 578,
    "Opera": 579,
    "Operating</w>": 580,
    "P": 581,
    "Partition": 582,
    "Partitioning</w>": 583,
    "Password</w>": 584,
    "Phishing</w>": 585,
    "Plan": 586,
    "Planning</w>": 587,
    "Pre": 588,
    "Pretraining</w>": 589,
    "Pri": 590,
    "Primar": 591,
    "Primary</w>": 592,
    "Python</w>": 593,
    "Q": 594,
    "Qu": 595,
    "Query</w>": 596,
    "R": 597,
    "RE": 598,
    "REST": 599,
    "REST</w>": 600,
    "Re": 601,
    "Rec": 602,
    "Recurren": 603,
    "Recurrent</w>": 604,
    "Refactoring</w>": 605,
    "Rein": 606,
    "Reinfor": 607,
    "Reinforce": 608,
    "Reinforcemen": 609,
    "Reinforcement</w>": 610,
    "Rel": 611,
    "Relation": 612,
    "Relational</w>": 613,
    "Reliable</w>": 614,
    "Replication</w>": 615,
    "Requ": 616,
    "Request</w>": 617,
    "Requi": 618,
    "Require": 619,
    "Requirements</w>": 620,
    "Rob": 621,
    "Robo": 622,
    "Robotic": 623,
    "Robotics</w>": 624,
    "S": 625,
    "SD": 626,
    "SDK": 627,
    "SDKs,</w>": 628,
    "SDKs</w>": 629,
    "SQ": 630,
    "SQL": 631,
    "SQL.</w>": 632,
    "SQL</w>": 633,
    "ST": 634,
    "Schema</w>": 635,
    "Se": 636,
    "Sear": 637,
    "Search</w>": 638,
    "Serialization</w>": 639,
    "Service</w>": 640,
    "Sh": 641,
    "Shor": 642,
    "Short</w>": 643,
    "Software</w>": 644,
    "Supervised</w>": 645,
    "T": 646,
    "Th": 647,
    "That</w>": 648,
    "These</w>": 649,
    "This</w>": 650,
    "Threat</w>": 651,
    "To": 652,
    "Token": 653,
    "Tokenization</w>": 654,
    "Tr": 655,
    "Trans": 656,
    "Transactions</w>": 657,
    "Transformers</w>": 658,
    "U": 659,
    "Un": 660,
    "Unit</w>": 661,
    "Uns": 662,
    "Unsupervised</w>": 663,
    "Useful</w>": 664,
    "V": 665,
    "Val": 666,
    "Validation</w>": 667,
    "Version</w>": 668,
    "Vi": 669,
    "Vir": 670,
    "Virtu": 671,
    "Virtual</w>": 672,
    "Vulnerability</w>": 673,
    "W": 674,
    "Wh": 675,
    "When</w>": 676,
    "a": 677,
    "a</w>": 678,
    "ab": 679,
    "abil": 680,
    "abili": 681,
    "ability</w>": 682,
    "able</w>": 683,
    "ac": 684,
    "acces": 685,
    "access</w>": 686,
    "ach": 687,
    "ack": 688,
    "acros": 689,
    "across</w>": 690,
    "act.</w>": 691,
    "acti": 692,
    "actions</w>": 693,
    "activ": 694,
    "activation": 695,
    "activations,</w>": 696,
    "ad": 697,
    "ad</w>": 698,
    "ada": 699,
    "adap": 700,
    "adapts</w>": 701,
    "adds</w>": 702,
    "adient</w>": 703,
    "age,</w>": 704,
    "age</w>": 705,
    "agg": 706,
    "aggreg": 707,
    "aggregates</w>": 708,
    "ai</w>": 709,
    "al": 710,
    "al</w>": 711,
    "alg": 712,
    "algor": 713,
    "algorith": 714,
    "algorithm": 715,
    "algorithms</w>": 716,
    "align": 717,
    "alignmen": 718,
    "alignment,</w>": 719,
    "altern": 720,
    "alterna": 721,
    "alternati": 722,
    "alternatives</w>": 723,
    "am": 724,
    "an": 725,
    "an</w>": 726,
    "anal": 727,
    "analy": 728,
    "analytic": 729,
    "analytics.</w>": 730,
    "ance": 731,
    "ance.</w>": 732,
    "and</w>": 733,
    "ans": 734,
    "ap": 735,
    "api</w>": 736,
    "appli": 737,
    "applic": 738,
    "application": 739,
    "applications</w>": 740,
    "applies</w>": 741,
    "ar": 742,
    "arch": 743,
    "archi": 744,
    "archite": 745,
    "architect": 746,
    "architectural</w>": 747,
    "architecture</w>": 748,
    "arti": 749,
    "artition": 750,
    "as": 751,
    "as</w>": 752,
    "ase": 753,
    "ass": 754,
    "assum": 755,
    "assump": 756,
    "assumptions</w>": 757,
    "asswor": 758,
    "assword</w>": 759,
    "ast</w>": 760,
    "async</w>": 761,
    "at": 762,
    "at</w>": 763,
    "ate": 764,
    "ates</w>": 765,
    "ation": 766,
    "ation,</w>": 767,
    "ation</w>": 768,
    "atten": 769,
    "attention,</w>": 770,
    "attention</w>": 771,
    "audit</w>": 772,
    "b": 773,
    "ba": 774,
    "bac": 775,
    "back": 776,
    "back,</w>": 777,
    "backup</w>": 778,
    "balan": 779,
    "balanc": 780,
    "balancers</w>": 781,
    "bas": 782,
    "base</w>": 783,
    "be": 784,
    "bec": 785,
    "beca": 786,
    "because</w>": 787,
    "bed": 788,
    "bedding": 789,
    "bef": 790,
    "before</w>": 791,
    "beha": 792,
    "behavi": 793,
    "behavior": 794,
    "behavior,</w>": 795,
    "behavior.</w>": 796,
    "ben": 797,
    "bench": 798,
    "benchmar": 799,
    "benchmarks</w>": 800,
    "bl": 801,
    "ble</w>": 802,
    "bou": 803,
    "boun": 804,
    "bounda": 805,
    "boundari": 806,
    "boundaries,</w>": 807,
    "boundaries</w>": 808,
    "bserv": 809,
    "bservability</w>": 810,
    "bu": 811,
    "bui": 812,
    "buil": 813,
    "build</w>": 814,
    "builds</w>": 815,
    "but</w>": 816,
    "c": 817,
    "cach": 818,
    "caches</w>": 819,
    "can</w>": 820,
    "cap": 821,
    "capture</w>": 822,
    "case": 823,
    "cases,</w>": 824,
    "ce": 825,
    "ce</w>": 826,
    "cep": 827,
    "ces": 828,
    "ch": 829,
    "ch</w>": 830,
    "chan": 831,
    "chang": 832,
    "change": 833,
    "change,</w>": 834,
    "changes,</w>": 835,
    "changes.</w>": 836,
    "changes;</w>": 837,
    "changes</w>": 838,
    "changing</w>": 839,
    "char": 840,
    "charac": 841,
    "character": 842,
    "characters</w>": 843,
    "chat": 844,
    "chat-": 845,
    "chat-for": 846,
    "chat-forma": 847,
    "chat-format": 848,
    "chat-formatted</w>": 849,
    "che": 850,
    "chec": 851,
    "check": 852,
    "checks,</w>": 853,
    "chema": 854,
    "chema</w>": 855,
    "cho": 856,
    "choose</w>": 857,
    "chos": 858,
    "chosen</w>": 859,
    "cid": 860,
    "cident</w>": 861,
    "cl": 862,
    "clas": 863,
    "classi": 864,
    "classific": 865,
    "classification</w>": 866,
    "clear": 867,
    "clear</w>": 868,
    "client</w>": 869,
    "clu": 870,
    "cluste": 871,
    "cluster": 872,
    "clusters,</w>": 873,
    "clusters.</w>": 874,
    "co": 875,
    "cod": 876,
    "code": 877,
    "code,</w>": 878,
    "code.</w>": 879,
    "code</w>": 880,
    "codes,</w>": 881,
    "coding,</w>": 882,
    "col": 883,
    "colum": 884,
    "column": 885,
    "columns,</w>": 886,
    "com": 887,
    "comb": 888,
    "combines</w>": 889,
    "comm": 890,
    "commit</w>": 891,
    "common</w>": 892,
    "compl": 893,
    "complex": 894,
    "complex</w>": 895,
    "compu": 896,
    "computes</w>": 897,
    "con": 898,
    "conc": 899,
    "concep": 900,
    "concept</w>": 901,
    "concre": 902,
    "concrete</w>": 903,
    "concurren": 904,
    "concurrency": 905,
    "concurrency.</w>": 906,
    "configur": 907,
    "configuration,</w>": 908,
    "configuration</w>": 909,
    "conn": 910,
    "connect</w>": 911,
    "conte": 912,
    "contex": 913,
    "context</w>": 914,
    "contin": 915,
    "continue": 916,
    "continue,</w>": 917,
    "continuous</w>": 918,
    "contr": 919,
    "contro": 920,
    "control": 921,
    "control,</w>": 922,
    "control</w>": 923,
    "cor": 924,
    "corpor": 925,
    "corpora": 926,
    "corpora.</w>": 927,
    "corre": 928,
    "correct": 929,
    "correctness,</w>": 930,
    "cos": 931,
    "cost</w>": 932,
    "cov": 933,
    "cros": 934,
    "cross": 935,
    "cross-": 936,
    "cross-en": 937,
    "cross-entr": 938,
    "cross-entrop": 939,
    "cross-entropy</w>": 940,
    "ct": 941,
    "cy": 942,
    "cyb": 943,
    "cybers": 944,
    "cybersec": 945,
    "cybersecu": 946,
    "cybersecuri": 947,
    "cybersecurity</w>": 948,
    "d": 949,
    "d</w>": 950,
    "da": 951,
    "data": 952,
    "data.</w>": 953,
    "data</w>": 954,
    "datab": 955,
    "database": 956,
    "databases</w>": 957,
    "datase": 958,
    "dataset</w>": 959,
    "de": 960,
    "de</w>": 961,
    "deb": 962,
    "debates</w>": 963,
    "debu": 964,
    "debug</w>": 965,
    "dec": 966,
    "deci": 967,
    "decid": 968,
    "decide</w>": 969,
    "decision": 970,
    "decisions.</w>": 971,
    "def": 972,
    "defen": 973,
    "defense,</w>": 974,
    "defense</w>": 975,
    "define</w>": 976,
    "defines</w>": 977,
    "den": 978,
    "denc": 979,
    "dency</w>": 980,
    "denormalization</w>": 981,
    "depen": 982,
    "dependenc": 983,
    "dependencies</w>": 984,
    "dependency</w>": 985,
    "depending</w>": 986,
    "depends</w>": 987,
    "depl": 988,
    "deplo": 989,
    "deploy": 990,
    "deploymen": 991,
    "deployment.</w>": 992,
    "der": 993,
    "desc": 994,
    "descen": 995,
    "descent,</w>": 996,
    "descent</w>": 997,
    "design": 998,
    "design,</w>": 999,
    "design</w>": 1000,
    "dex": 1001,
    "dexes</w>": 1002,
    "di": 1003,
    "dif": 1004,
    "diffe": 1005,
    "differen": 1006,
    "different</w>": 1007,
    "ding": 1008,
    "ding</w>": 1009,
    "dis": 1010,
    "discov": 1011,
    "discovers</w>": 1012,
    "distri": 1013,
    "distribu": 1014,
    "distribute</w>": 1015,
    "do": 1016,
    "docu": 1017,
    "documents</w>": 1018,
    "dom": 1019,
    "domin": 1020,
    "domina": 1021,
    "dominate</w>": 1022,
    "ds</w>": 1023,
    "du": 1024,
    "duc": 1025,
    "dur": 1026,
    "durable</w>": 1027,
    "during</w>": 1028,
    "e": 1029,
    "e,</w>": 1030,
    "e</w>": 1031,
    "ea": 1032,
    "ear": 1033,
    "easi": 1034,
    "easier</w>": 1035,
    "ec": 1036,
    "ect</w>": 1037,
    "ed": 1038,
    "ed</w>": 1039,
    "edge</w>": 1040,
    "el": 1041,
    "em": 1042,
    "embedding": 1043,
    "embeddings,</w>": 1044,
    "embeddings</w>": 1045,
    "en": 1046,
    "en</w>": 1047,
    "enc": 1048,
    "encode</w>": 1049,
    "encryp": 1050,
    "encryption,</w>": 1051,
    "encryption</w>": 1052,
    "end": 1053,
    "endpo": 1054,
    "endpoin": 1055,
    "endpoints,</w>": 1056,
    "endpoints</w>": 1057,
    "engine": 1058,
    "engineer": 1059,
    "engineering,</w>": 1060,
    "engineering</w>": 1061,
    "engineers</w>": 1062,
    "ent</w>": 1063,
    "enti": 1064,
    "entiti": 1065,
    "entities</w>": 1066,
    "envi": 1067,
    "envir": 1068,
    "environ": 1069,
    "environments</w>": 1070,
    "er": 1071,
    "er</w>": 1072,
    "error</w>": 1073,
    "ers": 1074,
    "ers,</w>": 1075,
    "ers</w>": 1076,
    "ersi": 1077,
    "ersion</w>": 1078,
    "erv": 1079,
    "ervi": 1080,
    "ervice</w>": 1081,
    "ery</w>": 1082,
    "es": 1083,
    "es,</w>": 1084,
    "es.</w>": 1085,
    "es</w>": 1086,
    "ese</w>": 1087,
    "ev": 1088,
    "evaluation</w>": 1089,
    "every</w>": 1090,
    "ew": 1091,
    "ew</w>": 1092,
    "ex": 1093,
    "exampl": 1094,
    "example</w>": 1095,
    "examples</w>": 1096,
    "exce": 1097,
    "excel</w>": 1098,
    "exp": 1099,
    "expl": 1100,
    "expla": 1101,
    "explain</w>": 1102,
    "explains</w>": 1103,
    "explore</w>": 1104,
    "expose</w>": 1105,
    "extern": 1106,
    "external</w>": 1107,
    "f": 1108,
    "fa": 1109,
    "fac": 1110,
    "fact": 1111,
    "factor": 1112,
    "factoring</w>": 1113,
    "factors,</w>": 1114,
    "fail": 1115,
    "failure": 1116,
    "failure</w>": 1117,
    "failures</w>": 1118,
    "fe": 1119,
    "feed": 1120,
    "feedbac": 1121,
    "feedback</w>": 1122,
    "fi": 1123,
    "fic": 1124,
    "figu": 1125,
    "figur": 1126,
    "fil": 1127,
    "file</w>": 1128,
    "filter": 1129,
    "filters,</w>": 1130,
    "fine-tun": 1131,
    "fine-tuning,</w>": 1132,
    "fine-tuning</w>": 1133,
    "flo": 1134,
    "flow": 1135,
    "flow.</w>": 1136,
    "focu": 1137,
    "focused</w>": 1138,
    "for": 1139,
    "for</w>": 1140,
    "fore": 1141,
    "foreign": 1142,
    "foreign</w>": 1143,
    "form": 1144,
    "formers</w>": 1145,
    "fro": 1146,
    "from": 1147,
    "from</w>": 1148,
    "fu": 1149,
    "full</w>": 1150,
    "future</w>": 1151,
    "g": 1152,
    "g</w>": 1153,
    "ge": 1154,
    "ge,</w>": 1155,
    "ge</w>": 1156,
    "gen": 1157,
    "gener": 1158,
    "generation</w>": 1159,
    "gg": 1160,
    "gine": 1161,
    "gineers</w>": 1162,
    "gn": 1163,
    "go": 1164,
    "goal": 1165,
    "goals.</w>": 1166,
    "gr": 1167,
    "gradient</w>": 1168,
    "grap": 1169,
    "graph": 1170,
    "graphs</w>": 1171,
    "gration": 1172,
    "grou": 1173,
    "group": 1174,
    "groups,</w>": 1175,
    "gu": 1176,
    "guar": 1177,
    "guaran": 1178,
    "guarante": 1179,
    "guarantees</w>": 1180,
    "guid": 1181,
    "guidan": 1182,
    "guidance</w>": 1183,
    "h": 1184,
    "ha": 1185,
    "hab": 1186,
    "habit</w>": 1187,
    "han": 1188,
    "hand": 1189,
    "hand-": 1190,
    "hand-wri": 1191,
    "hand-writ": 1192,
    "hand-written": 1193,
    "hand-written</w>": 1194,
    "handl": 1195,
    "handling,</w>": 1196,
    "handling</w>": 1197,
    "hash": 1198,
    "hash</w>": 1199,
    "hashing,</w>": 1200,
    "hashing</w>": 1201,
    "hel": 1202,
    "help</w>": 1203,
    "hi": 1204,
    "hier": 1205,
    "hierarch": 1206,
    "hierarchical</w>": 1207,
    "hishing</w>": 1208,
    "ho": 1209,
    "hot</w>": 1210,
    "i": 1211,
    "i</w>": 1212,
    "iable</w>": 1213,
    "ic": 1214,
    "ical</w>": 1215,
    "id": 1216,
    "ida": 1217,
    "idation</w>": 1218,
    "identi": 1219,
    "identif": 1220,
    "identify</w>": 1221,
    "ient</w>": 1222,
    "ies</w>": 1223,
    "ig": 1224,
    "ign": 1225,
    "ignoring</w>": 1226,
    "il": 1227,
    "ile</w>": 1228,
    "im": 1229,
    "ima": 1230,
    "image": 1231,
    "images.</w>": 1232,
    "impl": 1233,
    "imple": 1234,
    "implementation</w>": 1235,
    "impor": 1236,
    "importan": 1237,
    "important</w>": 1238,
    "impro": 1239,
    "improv": 1240,
    "improve</w>": 1241,
    "improves</w>": 1242,
    "in": 1243,
    "in</w>": 1244,
    "incident</w>": 1245,
    "inclu": 1246,
    "include</w>": 1247,
    "inde": 1248,
    "index": 1249,
    "index</w>": 1250,
    "indexes,</w>": 1251,
    "indexes</w>": 1252,
    "ine": 1253,
    "ine-t": 1254,
    "ine-tun": 1255,
    "ine-tuning</w>": 1256,
    "ine</w>": 1257,
    "ines</w>": 1258,
    "ing": 1259,
    "ing,</w>": 1260,
    "ing.</w>": 1261,
    "ing</w>": 1262,
    "injec": 1263,
    "injection,</w>": 1264,
    "injection</w>": 1265,
    "inpu": 1266,
    "inputs,</w>": 1267,
    "inputs</w>": 1268,
    "ins</w>": 1269,
    "insp": 1270,
    "inspect</w>": 1271,
    "inste": 1272,
    "instead</w>": 1273,
    "inte": 1274,
    "integr": 1275,
    "integration": 1276,
    "integration,</w>": 1277,
    "integration</w>": 1278,
    "intell": 1279,
    "intellig": 1280,
    "intelligen": 1281,
    "intelligence</w>": 1282,
    "inter": 1283,
    "interfac": 1284,
    "interface,</w>": 1285,
    "into</w>": 1286,
    "intu": 1287,
    "intui": 1288,
    "intuition": 1289,
    "intuition.</w>": 1290,
    "is": 1291,
    "is</w>": 1292,
    "iso": 1293,
    "isola": 1294,
    "isolate</w>": 1295,
    "iss": 1296,
    "issue": 1297,
    "issues.</w>": 1298,
    "it</w>": 1299,
    "ith": 1300,
    "iz": 1301,
    "ization,</w>": 1302,
    "ization</w>": 1303,
    "j": 1304,
    "jec": 1305,
    "jo": 1306,
    "join": 1307,
    "joins,</w>": 1308,
    "k": 1309,
    "k</w>": 1310,
    "ke": 1311,
    "ke</w>": 1312,
    "ken": 1313,
    "key": 1314,
    "keys</w>": 1315,
    "knowledge</w>": 1316,
    "ks</w>": 1317,
    "l": 1318,
    "l</w>": 1319,
    "la": 1320,
    "lab": 1321,
    "label": 1322,
    "labels</w>": 1323,
    "lan": 1324,
    "langu": 1325,
    "language,</w>": 1326,
    "language</w>": 1327,
    "lar": 1328,
    "large</w>": 1329,
    "late": 1330,
    "laten": 1331,
    "latenc": 1332,
    "latency": 1333,
    "latency,</w>": 1334,
    "latency</w>": 1335,
    "latent</w>": 1336,
    "later": 1337,
    "later</w>": 1338,
    "lay": 1339,
    "layers,</w>": 1340,
    "layers</w>": 1341,
    "ld</w>": 1342,
    "le": 1343,
    "lear": 1344,
    "learn": 1345,
    "learn</w>": 1346,
    "learning.</w>": 1347,
    "learning</w>": 1348,
    "least</w>": 1349,
    "li": 1350,
    "lin": 1351,
    "link</w>": 1352,
    "liter": 1353,
    "literal</w>": 1354,
    "ll": 1355,
    "ll</w>": 1356,
    "lo": 1357,
    "load": 1358,
    "load.</w>": 1359,
    "loc": 1360,
    "lock": 1361,
    "locking</w>": 1362,
    "log": 1363,
    "logg": 1364,
    "logging,</w>": 1365,
    "logging</w>": 1366,
    "logs,</w>": 1367,
    "loo": 1368,
    "look": 1369,
    "lookup": 1370,
    "lookups;</w>": 1371,
    "loop": 1372,
    "loops.</w>": 1373,
    "los": 1374,
    "loss.</w>": 1375,
    "m": 1376,
    "ma": 1377,
    "mach": 1378,
    "machine": 1379,
    "machines.</w>": 1380,
    "main": 1381,
    "maintain": 1382,
    "maintainable</w>": 1383,
    "mainten": 1384,
    "maintenance.</w>": 1385,
    "mak": 1386,
    "make</w>": 1387,
    "makes</w>": 1388,
    "man": 1389,
    "manage</w>": 1390,
    "map": 1391,
    "map</w>": 1392,
    "maps</w>": 1393,
    "mar": 1394,
    "me": 1395,
    "meas": 1396,
    "measure": 1397,
    "measure</w>": 1398,
    "measurements</w>": 1399,
    "mem": 1400,
    "memor": 1401,
    "memory,</w>": 1402,
    "men": 1403,
    "menta": 1404,
    "mentation</w>": 1405,
    "ments</w>": 1406,
    "metri": 1407,
    "metric": 1408,
    "metrics,</w>": 1409,
    "metrics</w>": 1410,
    "mi": 1411,
    "migration": 1412,
    "migrations,</w>": 1413,
    "migrations</w>": 1414,
    "mista": 1415,
    "mistake</w>": 1416,
    "ml</w>": 1417,
    "mo": 1418,
    "mod": 1419,
    "mode": 1420,
    "model": 1421,
    "model</w>": 1422,
    "modeling,</w>": 1423,
    "modeling</w>": 1424,
    "models,</w>": 1425,
    "models.</w>": 1426,
    "models</w>": 1427,
    "modes,</w>": 1428,
    "modul": 1429,
    "modules</w>": 1430,
    "more</w>": 1431,
    "mul": 1432,
    "multi": 1433,
    "multi-": 1434,
    "multi-version</w>": 1435,
    "multimod": 1436,
    "multimodal</w>": 1437,
    "mus": 1438,
    "must</w>": 1439,
    "n": 1440,
    "n</w>": 1441,
    "ne": 1442,
    "need": 1443,
    "need</w>": 1444,
    "needs;</w>": 1445,
    "ner": 1446,
    "nes": 1447,
    "ness,</w>": 1448,
    "net": 1449,
    "networ": 1450,
    "networks</w>": 1451,
    "nex": 1452,
    "next</w>": 1453,
    "ning</w>": 1454,
    "no": 1455,
    "non": 1456,
    "nonl": 1457,
    "nonline": 1458,
    "nonlinear": 1459,
    "nonlinear</w>": 1460,
    "normal": 1461,
    "normalization,</w>": 1462,
    "normalization</w>": 1463,
    "note</w>": 1464,
    "now": 1465,
    "nowl": 1466,
    "nowledge</w>": 1467,
    "o": 1468,
    "ob": 1469,
    "objec": 1470,
    "objects</w>": 1471,
    "observ": 1472,
    "observabili": 1473,
    "observabilit": 1474,
    "observability,</w>": 1475,
    "observability</w>": 1476,
    "oc": 1477,
    "ocu": 1478,
    "of": 1479,
    "of</w>": 1480,
    "oft": 1481,
    "oftwar": 1482,
    "oftware</w>": 1483,
    "ol": 1484,
    "on": 1485,
    "on</w>": 1486,
    "op": 1487,
    "oper": 1488,
    "operation": 1489,
    "operational</w>": 1490,
    "operations.</w>": 1491,
    "opti": 1492,
    "optimi": 1493,
    "optimiz": 1494,
    "optimizers</w>": 1495,
    "optimizes</w>": 1496,
    "optimizing</w>": 1497,
    "or": 1498,
    "or</w>": 1499,
    "orch": 1500,
    "orches": 1501,
    "orchestr": 1502,
    "orchestrates</w>": 1503,
    "ore</w>": 1504,
    "org": 1505,
    "organ": 1506,
    "organiz": 1507,
    "organize</w>": 1508,
    "oring</w>": 1509,
    "orma": 1510,
    "ormal": 1511,
    "ormalization</w>": 1512,
    "os": 1513,
    "ose</w>": 1514,
    "ou": 1515,
    "out": 1516,
    "outputs,</w>": 1517,
    "ov": 1518,
    "over": 1519,
    "over</w>": 1520,
    "overfi": 1521,
    "overfit": 1522,
    "overfitting": 1523,
    "overfitting.</w>": 1524,
    "oversi": 1525,
    "oversig": 1526,
    "oversigh": 1527,
    "oversight.</w>": 1528,
    "ow": 1529,
    "owner": 1530,
    "ownersh": 1531,
    "ownershi": 1532,
    "ownership": 1533,
    "ownership.</w>": 1534,
    "p": 1535,
    "p</w>": 1536,
    "pa": 1537,
    "pack": 1538,
    "packa": 1539,
    "package": 1540,
    "package</w>": 1541,
    "packages,</w>": 1542,
    "packages</w>": 1543,
    "partition": 1544,
    "partitioning,</w>": 1545,
    "partitioning</w>": 1546,
    "password</w>": 1547,
    "pat": 1548,
    "patch": 1549,
    "patching,</w>": 1550,
    "patching</w>": 1551,
    "pattern": 1552,
    "patterns.</w>": 1553,
    "pay": 1554,
    "payload": 1555,
    "payloads.</w>": 1556,
    "pen": 1557,
    "per": 1558,
    "per</w>": 1559,
    "perce": 1560,
    "percei": 1561,
    "perceiv": 1562,
    "perceive,</w>": 1563,
    "percep": 1564,
    "perception,</w>": 1565,
    "perform": 1566,
    "performance.</w>": 1567,
    "phishing</w>": 1568,
    "pl": 1569,
    "pla": 1570,
    "plain</w>": 1571,
    "plan": 1572,
    "plann": 1573,
    "planners</w>": 1574,
    "planning,</w>": 1575,
    "planning</w>": 1576,
    "pli": 1577,
    "plic": 1578,
    "plication</w>": 1579,
    "po": 1580,
    "pod": 1581,
    "pods,</w>": 1582,
    "pol": 1583,
    "polic": 1584,
    "policies</w>": 1585,
    "por": 1586,
    "pr": 1587,
    "prac": 1588,
    "practic": 1589,
    "practical</w>": 1590,
    "pre": 1591,
    "pred": 1592,
    "predic": 1593,
    "predictable</w>": 1594,
    "predicts</w>": 1595,
    "pres": 1596,
    "preserv": 1597,
    "preserve": 1598,
    "preserve.</w>": 1599,
    "pretra": 1600,
    "pretraine": 1601,
    "pretrained</w>": 1602,
    "pretraining</w>": 1603,
    "pri": 1604,
    "privi": 1605,
    "privile": 1606,
    "privilege,</w>": 1607,
    "privilege</w>": 1608,
    "pro": 1609,
    "probl": 1610,
    "problem": 1611,
    "problem,</w>": 1612,
    "proces": 1613,
    "processe": 1614,
    "processes,</w>": 1615,
    "processes</w>": 1616,
    "produc": 1617,
    "production</w>": 1618,
    "projec": 1619,
    "project.</w>": 1620,
    "provi": 1621,
    "provide</w>": 1622,
    "pu": 1623,
    "publ": 1624,
    "public": 1625,
    "public</w>": 1626,
    "puts,</w>": 1627,
    "python</w>": 1628,
    "q": 1629,
    "qu": 1630,
    "qual": 1631,
    "quali": 1632,
    "quality</w>": 1633,
    "que": 1634,
    "queri": 1635,
    "queries,</w>": 1636,
    "queries.</w>": 1637,
    "query</w>": 1638,
    "ques": 1639,
    "quest</w>": 1640,
    "r": 1641,
    "ra": 1642,
    "rate": 1643,
    "rates,</w>": 1644,
    "raw": 1645,
    "raw</w>": 1646,
    "re": 1647,
    "rea": 1648,
    "read": 1649,
    "read</w>": 1650,
    "reader": 1651,
    "readers</w>": 1652,
    "reads</w>": 1653,
    "real</w>": 1654,
    "reas": 1655,
    "reason": 1656,
    "reason,</w>": 1657,
    "reasoning,</w>": 1658,
    "reat</w>": 1659,
    "recor": 1660,
    "record": 1661,
    "records.</w>": 1662,
    "recov": 1663,
    "recover": 1664,
    "recovery,</w>": 1665,
    "recovery</w>": 1666,
    "red": 1667,
    "redesign": 1668,
    "redesign.</w>": 1669,
    "redu": 1670,
    "reduc": 1671,
    "reduce</w>": 1672,
    "reduces</w>": 1673,
    "redun": 1674,
    "redund": 1675,
    "redundan": 1676,
    "redundancy": 1677,
    "redundancy;</w>": 1678,
    "refactor": 1679,
    "refactoring,</w>": 1680,
    "refactoring</w>": 1681,
    "reg": 1682,
    "regres": 1683,
    "regressi": 1684,
    "regression</w>": 1685,
    "regu": 1686,
    "regula": 1687,
    "regulari": 1688,
    "regulariz": 1689,
    "regularization,</w>": 1690,
    "rejec": 1691,
    "rejecte": 1692,
    "rejected": 1693,
    "rejected,</w>": 1694,
    "rel": 1695,
    "relation": 1696,
    "relations.</w>": 1697,
    "reliable</w>": 1698,
    "remain": 1699,
    "remain.</w>": 1700,
    "ren": 1701,
    "replic": 1702,
    "replication,</w>": 1703,
    "replication</w>": 1704,
    "repor": 1705,
    "reports</w>": 1706,
    "repres": 1707,
    "represen": 1708,
    "representa": 1709,
    "representation": 1710,
    "representations.</w>": 1711,
    "reproduc": 1712,
    "reproduci": 1713,
    "reproducible</w>": 1714,
    "reques": 1715,
    "request": 1716,
    "request</w>": 1717,
    "requests.</w>": 1718,
    "res": 1719,
    "resou": 1720,
    "resour": 1721,
    "resourc": 1722,
    "resource</w>": 1723,
    "resources</w>": 1724,
    "resp": 1725,
    "respon": 1726,
    "response,</w>": 1727,
    "response</w>": 1728,
    "resul": 1729,
    "result</w>": 1730,
    "reus": 1731,
    "reusable</w>": 1732,
    "revi": 1733,
    "review": 1734,
    "review,</w>": 1735,
    "review</w>": 1736,
    "revis": 1737,
    "revisit</w>": 1738,
    "reward</w>": 1739,
    "rewrite": 1740,
    "rewrites.</w>": 1741,
    "ri": 1742,
    "rial": 1743,
    "rialization</w>": 1744,
    "ries,</w>": 1745,
    "ris": 1746,
    "risks</w>": 1747,
    "ro": 1748,
    "rob": 1749,
    "robus": 1750,
    "robust": 1751,
    "robustness,</w>": 1752,
    "roll": 1753,
    "roll</w>": 1754,
    "rolling</w>": 1755,
    "ror</w>": 1756,
    "ros": 1757,
    "row": 1758,
    "rows,</w>": 1759,
    "rows;</w>": 1760,
    "rul": 1761,
    "rules.</w>": 1762,
    "run": 1763,
    "run</w>": 1764,
    "runs</w>": 1765,
    "ry": 1766,
    "ryp": 1767,
    "s": 1768,
    "s,</w>": 1769,
    "s.</w>": 1770,
    "s;</w>": 1771,
    "s</w>": 1772,
    "sa": 1773,
    "saf": 1774,
    "safe": 1775,
    "safel": 1776,
    "safely.</w>": 1777,
    "safety</w>": 1778,
    "sc": 1779,
    "scal": 1780,
    "scale</w>": 1781,
    "scan": 1782,
    "scans.</w>": 1783,
    "scans</w>": 1784,
    "sch": 1785,
    "sched": 1786,
    "schedul": 1787,
    "schedule</w>": 1788,
    "schema</w>": 1789,
    "se": 1790,
    "se,</w>": 1791,
    "se</w>": 1792,
    "sed</w>": 1793,
    "see</w>": 1794,
    "sefu": 1795,
    "seful</w>": 1796,
    "sel": 1797,
    "selec": 1798,
    "selects,</w>": 1799,
    "selects</w>": 1800,
    "sequ": 1801,
    "sequenc": 1802,
    "sequences</w>": 1803,
    "serial": 1804,
    "serialization,</w>": 1805,
    "serialization</w>": 1806,
    "serv": 1807,
    "serve</w>": 1808,
    "servers</w>": 1809,
    "servi": 1810,
    "service": 1811,
    "service</w>": 1812,
    "services,</w>": 1813,
    "ses": 1814,
    "ses</w>": 1815,
    "session": 1816,
    "sessions,</w>": 1817,
    "sh": 1818,
    "shar": 1819,
    "sharding</w>": 1820,
    "sharing.</w>": 1821,
    "shing</w>": 1822,
    "shou": 1823,
    "should</w>": 1824,
    "si": 1825,
    "sign": 1826,
    "signal": 1827,
    "signals</w>": 1828,
    "sion": 1829,
    "sma": 1830,
    "small</w>": 1831,
    "so": 1832,
    "so</w>": 1833,
    "software</w>": 1834,
    "sp": 1835,
    "spac": 1836,
    "spaces.</w>": 1837,
    "spe": 1838,
    "speed</w>": 1839,
    "spli": 1840,
    "splits,</w>": 1841,
    "splits</w>": 1842,
    "st": 1843,
    "sta": 1844,
    "stac": 1845,
    "stacks</w>": 1846,
    "star": 1847,
    "starts</w>": 1848,
    "state</w>": 1849,
    "ste": 1850,
    "sti": 1851,
    "still</w>": 1852,
    "store</w>": 1853,
    "struct": 1854,
    "structure": 1855,
    "structure.</w>": 1856,
    "structure</w>": 1857,
    "structured</w>": 1858,
    "stu": 1859,
    "stud": 1860,
    "studies</w>": 1861,
    "su": 1862,
    "such</w>": 1863,
    "sum": 1864,
    "sums</w>": 1865,
    "sy": 1866,
    "sym": 1867,
    "symb": 1868,
    "symbol": 1869,
    "symbols.</w>": 1870,
    "syn": 1871,
    "sync": 1872,
    "sync</w>": 1873,
    "synta": 1874,
    "syntax</w>": 1875,
    "syste": 1876,
    "system": 1877,
    "system</w>": 1878,
    "systems.</w>": 1879,
    "systems</w>": 1880,
    "t": 1881,
    "t,</w>": 1882,
    "t.</w>": 1883,
    "t</w>": 1884,
    "ta": 1885,
    "tabl": 1886,
    "table</w>": 1887,
    "tables,</w>": 1888,
    "tables.</w>": 1889,
    "tables</w>": 1890,
    "tag": 1891,
    "tags</w>": 1892,
    "tain": 1893,
    "tan": 1894,
    "tas": 1895,
    "task": 1896,
    "tasks.</w>": 1897,
    "te": 1898,
    "te</w>": 1899,
    "team": 1900,
    "teams</w>": 1901,
    "tech": 1902,
    "techn": 1903,
    "technical</w>": 1904,
    "ted</w>": 1905,
    "tem": 1906,
    "templa": 1907,
    "template": 1908,
    "templates.</w>": 1909,
    "ten": 1910,
    "tention</w>": 1911,
    "ter": 1912,
    "tern": 1913,
    "tes": 1914,
    "tes</w>": 1915,
    "test</w>": 1916,
    "testing": 1917,
    "testing,</w>": 1918,
    "testing</w>": 1919,
    "tests</w>": 1920,
    "th": 1921,
    "than</w>": 1922,
    "that</w>": 1923,
    "the": 1924,
    "the</w>": 1925,
    "then</w>": 1926,
    "these</w>": 1927,
    "they</w>": 1928,
    "this</w>": 1929,
    "threat</w>": 1930,
    "ti": 1931,
    "tic": 1932,
    "time": 1933,
    "time.</w>": 1934,
    "tin": 1935,
    "ting": 1936,
    "ting</w>": 1937,
    "tion": 1938,
    "tion,</w>": 1939,
    "tion</w>": 1940,
    "tions</w>": 1941,
    "to": 1942,
    "to</w>": 1943,
    "toda": 1944,
    "today.</w>": 1945,
    "tok": 1946,
    "token": 1947,
    "token</w>": 1948,
    "tokeniz": 1949,
    "tokenization,</w>": 1950,
    "tokenization</w>": 1951,
    "tokenizer</w>": 1952,
    "tokens,</w>": 1953,
    "tokens.</w>": 1954,
    "toward</w>": 1955,
    "tr": 1956,
    "tra": 1957,
    "trac": 1958,
    "traces</w>": 1959,
    "tracks</w>": 1960,
    "trade": 1961,
    "tradeof": 1962,
    "tradeoff": 1963,
    "tradeoffs.</w>": 1964,
    "traf": 1965,
    "traffic": 1966,
    "traffic;</w>": 1967,
    "train": 1968,
    "training</w>": 1969,
    "trains</w>": 1970,
    "trans": 1971,
    "transac": 1972,
    "transaction": 1973,
    "transactions,</w>": 1974,
    "transactions</w>": 1975,
    "transform": 1976,
    "transformers,</w>": 1977,
    "transformers</w>": 1978,
    "tri": 1979,
    "tru": 1980,
    "truct": 1981,
    "trus": 1982,
    "trusting</w>": 1983,
    "ts,</w>": 1984,
    "ts</w>": 1985,
    "tu": 1986,
    "tun": 1987,
    "tuning</w>": 1988,
    "tur": 1989,
    "ture</w>": 1990,
    "turn</w>": 1991,
    "ty</w>": 1992,
    "u": 1993,
    "ud": 1994,
    "udit</w>": 1995,
    "ue": 1996,
    "ul": 1997,
    "ulner": 1998,
    "ulnerability</w>": 1999,
    "um": 2000,
    "un": 2001,
    "under": 2002,
    "under</w>": 2003,
    "unders": 2004,
    "understan": 2005,
    "understanding": 2006,
    "understanding.</w>": 2007,
    "uni": 2008,
    "uniqu": 2009,
    "uniquel": 2010,
    "uniquely</w>": 2011,
    "unit</w>": 2012,
    "unk": 2013,
    "unknow": 2014,
    "unknown</w>": 2015,
    "unte": 2016,
    "unteste": 2017,
    "untested</w>": 2018,
    "uou": 2019,
    "uous</w>": 2020,
    "up": 2021,
    "up</w>": 2022,
    "upda": 2023,
    "updates</w>": 2024,
    "upervi": 2025,
    "upervised</w>": 2026,
    "ur": 2027,
    "ural</w>": 2028,
    "ure": 2029,
    "ure</w>": 2030,
    "urren": 2031,
    "us": 2032,
    "usage,</w>": 2033,
    "use</w>": 2034,
    "useful</w>": 2035,
    "user</w>": 2036,
    "uses</w>": 2037,
    "v": 2038,
    "val": 2039,
    "valida": 2040,
    "validation,</w>": 2041,
    "validation</w>": 2042,
    "valu": 2043,
    "valuation</w>": 2044,
    "vers": 2045,
    "versi": 2046,
    "version": 2047,
    "version</w>": 2048,
    "versioned</w>": 2049,
    "versu": 2050,
    "versus</w>": 2051,
    "ves</w>": 2052,
    "vi": 2053,
    "view</w>": 2054,
    "visi": 2055,
    "visible</w>": 2056,
    "vulnerability</w>": 2057,
    "w": 2058,
    "war": 2059,
    "ward</w>": 2060,
    "we": 2061,
    "weig": 2062,
    "weigh": 2063,
    "weighted</w>": 2064,
    "wer": 2065,
    "were</w>": 2066,
    "wh": 2067,
    "whe": 2068,
    "when</w>": 2069,
    "wheth": 2070,
    "whether</w>": 2071,
    "while</w>": 2072,
    "with": 2073,
    "with</w>": 2074,
    "withou": 2075,
    "without</w>": 2076,
    "wor": 2077,
    "work": 2078,
    "work</w>": 2079,
    "workers,</w>": 2080,
    "workers</w>": 2081,
    "wri": 2082,
    "write": 2083,
    "write</w>": 2084,
    "writes</w>": 2085,
    "x": 2086,
    "x</w>": 2087,
    "xam": 2088,
    "xampl": 2089,
    "xample</w>": 2090,
    "y": 2091,
    "y,</w>": 2092,
    "y.</w>": 2093,
    "y</w>": 2094,
    "yth": 2095,
    "ython</w>": 2096,
    "z": 2097
  }
}