{
  "end_marker": "</w>",
  "merges": [
    [
      "e",
      "</w>"
    ],
    [
      "s",
      "</w>"
    ],
    [
      "i",
      "n"
    ],
    [
      "t",
      "h"
    ],
    [
      "a",
      "n"
    ],
    [
      "d",
      "</w>"
    ],
    [
      "t",
      "</w>"
    ],
    [
      "e",
      "r"
    ],
    [
      ",",
      "</w>"
    ],
    [
      "o",
      "n"
    ],
    [
      ".",
      "</w>"
    ],
    [
      "e",
      "n"
    ],
    [
      "o",
      "r"
    ],
    [
      "th",
      "e</w>"
    ],
    [
      "r",
      "e"
    ],
    [
      "a",
      "t"
    ],
    [
      "a",
      "l"
    ],
    [
      "o",
      "</w>"
    ],
    [
      "an",
      "d</w>"
    ],
    [
      "e",
      "s"
    ],
    [
      "a",
      "r"
    ],
    [
      "y",
      "</w>"
    ],
    [
      "in",
      "g"
    ],
    [
      "a",
      "</w>"
    ],
    [
      "o",
      "u"
    ],
    [
      ">",
      "</w>"
    ],
    [
      "o",
      "f"
    ],
    [
      "s",
      "t"
    ],
    [
      "t",
      "o</w>"
    ],
    [
      "ing",
      "</w>"
    ],
    [
      "i",
      "c"
    ],
    [
      "i",
      "on"
    ],
    [
      "of",
      "</w>"
    ],
    [
      "i",
      "t"
    ],
    [
      "in",
      "</w>"
    ],
    [
      "e",
      "d</w>"
    ],
    [
      "or",
      "</w>"
    ],
    [
      "i",
      "s</w>"
    ],
    [
      "c",
      "h"
    ],
    [
      "e",
      "s</w>"
    ],
    [
      "er",
      "</w>"
    ],
    [
      "o",
      "m"
    ],
    [
      "e",
      "c"
    ],
    [
      "p",
      "l"
    ],
    [
      "a",
      "s"
    ],
    [
      "e",
      "l"
    ],
    [
      "a",
      "m"
    ],
    [
      "al",
      "</w>"
    ],
    [
      "i",
      "s"
    ],
    [
      "a",
      "c"
    ],
    [
      "r",
      "o"
    ],
    [
      "i",
      "l"
    ],
    [
      "e",
      "m"
    ],
    [
      "i",
      "t</w>"
    ],
    [
      "a",
      "t</w>"
    ],
    [
      "an",
      "</w>"
    ],
    [
      "s",
      ",</w>"
    ],
    [
      "en",
      "t"
    ],
    [
      "u",
      "r"
    ],
    [
      "en",
      "</w>"
    ],
    [
      "e",
      "t"
    ],
    [
      "u",
      "s"
    ],
    [
      "T",
      "h"
    ],
    [
      "a",
      "s</w>"
    ],
    [
      "at",
      "ion"
    ],
    [
      "i",
      "v"
    ],
    [
      "e",
      ",</w>"
    ],
    [
      "i",
      "m"
    ],
    [
      "c",
      "on"
    ],
    [
      "w",
      "h"
    ],
    [
      "i",
      "g"
    ],
    [
      "i",
      "d"
    ],
    [
      ":",
      "</w>"
    ],
    [
      "o",
      "w"
    ],
    [
      "o",
      "l"
    ],
    [
      "a",
      "g"
    ],
    [
      "on",
      "</w>"
    ],
    [
      "l",
      "</w>"
    ],
    [
      "u",
      "t"
    ],
    [
      "an",
      "g"
    ],
    [
      "a",
      "b"
    ],
    [
      "U",
      "S"
    ],
    [
      "s",
      "h"
    ],
    [
      "th",
      "</w>"
    ],
    [
      "S",
      "T"
    ],
    [
      "A",
      "S"
    ],
    [
      "E",
      "R"
    ],
    [
      "A",
      "N"
    ],
    [
      "E",
      "N"
    ],
    [
      "S",
      "I"
    ],
    [
      "AN",
      "T"
    ],
    [
      "EN",
      "D"
    ],
    [
      "US",
      "ER"
    ],
    [
      "<",
      "AS"
    ],
    [
      "<",
      "END"
    ],
    [
      "<",
      "USER"
    ],
    [
      "<AS",
      "SI"
    ],
    [
      "<ASSI",
      "ST"
    ],
    [
      "<ASSIST",
      "ANT"
    ],
    [
      "<ASSISTANT",
      "></w>"
    ],
    [
      "<END",
      "></w>"
    ],
    [
      "<USER",
      "></w>"
    ],
    [
      "a",
      "d"
    ],
    [
      "p",
      "ro"
    ],
    [
      "f",
      "or</w>"
    ],
    [
      "c",
      "e</w>"
    ],
    [
      "s",
      ".</w>"
    ],
    [
      "u",
      "n"
    ],
    [
      "t",
      "e"
    ],
    [
      "t",
      "r"
    ],
    [
      "l",
      "d</w>"
    ],
    [
      "o",
      "p"
    ],
    [
      "th",
      "at</w>"
    ],
    [
      "m",
      "a"
    ],
    [
      "t",
      "s</w>"
    ],
    [
      "s",
      "u"
    ],
    [
      "w",
      "i"
    ],
    [
      "e",
      ".</w>"
    ],
    [
      "i",
      "r"
    ],
    [
      "l",
      "e</w>"
    ],
    [
      "k",
      "</w>"
    ],
    [
      "c",
      "om"
    ],
    [
      "Th",
      "e</w>"
    ],
    [
      "ou",
      "ld</w>"
    ],
    [
      "e",
      "x"
    ],
    [
      "n",
      "</w>"
    ],
    [
      "o",
      "s"
    ],
    [
      "e",
      "d"
    ],
    [
      "wi",
      "th</w>"
    ],
    [
      "o",
      "t"
    ],
    [
      "es",
      ".</w>"
    ],
    [
      "ar",
      "e</w>"
    ],
    [
      "en",
      "t</w>"
    ],
    [
      "i",
      "f"
    ],
    [
      "o",
      "d"
    ],
    [
      "a",
      "v"
    ],
    [
      "s",
      "y"
    ],
    [
      "l",
      "e"
    ],
    [
      "ou",
      "r"
    ],
    [
      "at",
      "e</w>"
    ],
    [
      "es",
      ",</w>"
    ],
    [
      "ation",
      "</w>"
    ],
    [
      "o",
      "c"
    ],
    [
      "e",
      "t</w>"
    ],
    [
      "d",
      "at"
    ],
    [
      "in",
      "t"
    ],
    [
      "a",
      "p"
    ],
    [
      "u",
      "m"
    ],
    [
      "ion",
      "</w>"
    ],
    [
      "l",
      "y</w>"
    ],
    [
      "pl",
      "a"
    ],
    [
      "d",
      "e"
    ],
    [
      "re",
      "s"
    ],
    [
      "er",
      "s</w>"
    ],
    [
      "ec",
      "t</w>"
    ],
    [
      "st",
      "em"
    ],
    [
      "sh",
      "ould</w>"
    ],
    [
      "r",
      "it"
    ],
    [
      "p",
      "ut"
    ],
    [
      "w",
      "or"
    ],
    [
      "t",
      "es"
    ],
    [
      "sy",
      "stem"
    ],
    [
      "u",
      "l"
    ],
    [
      "p",
      "</w>"
    ],
    [
      "ch",
      "ang"
    ],
    [
      "q",
      "u"
    ],
    [
      "b",
      "e</w>"
    ],
    [
      "h",
      "</w>"
    ],
    [
      "pl",
      "e</w>"
    ],
    [
      "ch",
      "</w>"
    ],
    [
      "r",
      "ic"
    ],
    [
      "I",
      "n"
    ],
    [
      "c",
      "l"
    ],
    [
      "k",
      "e</w>"
    ],
    [
      "y",
      ",</w>"
    ],
    [
      "u",
      "c"
    ],
    [
      "f",
      "or"
    ],
    [
      "th",
      "e"
    ],
    [
      "o",
      "v"
    ],
    [
      "ou",
      "n"
    ],
    [
      "v",
      "is"
    ],
    [
      "f",
      "r"
    ],
    [
      "th",
      "is</w>"
    ],
    [
      "c",
      "an</w>"
    ],
    [
      "n",
      "e"
    ],
    [
      "ac",
      "t"
    ],
    [
      "ur",
      "e</w>"
    ],
    [
      "w",
      "rit"
    ],
    [
      "te",
      "am"
    ],
    [
      "s",
      "p"
    ],
    [
      "iv",
      "e</w>"
    ],
    [
      "pla",
      "in</w>"
    ],
    [
      "an",
      "ce</w>"
    ],
    [
      "b",
      "e"
    ],
    [
      "system",
      "</w>"
    ],
    [
      "i",
      "z"
    ],
    [
      "m",
      "et"
    ],
    [
      "wh",
      "en</w>"
    ],
    [
      "ab",
      "le</w>"
    ],
    [
      "con",
      "n"
    ],
    [
      "i",
      "st"
    ],
    [
      "ic",
      "</w>"
    ],
    [
      "e",
      "v"
    ],
    [
      "p",
      "er"
    ],
    [
      "b",
      "y</w>"
    ],
    [
      "l",
      "ow"
    ],
    [
      "ar",
      "</w>"
    ],
    [
      "ag",
      "e,</w>"
    ],
    [
      "E",
      "x"
    ],
    [
      "ig",
      "h"
    ],
    [
      "om",
      "</w>"
    ],
    [
      "u",
      "d"
    ],
    [
      "ang",
      "u"
    ],
    [
      "e",
      "f"
    ],
    [
      "met",
      "ric"
    ],
    [
      "team",
      "s</w>"
    ],
    [
      "l",
      "angu"
    ],
    [
      "o",
      "o"
    ],
    [
      "conn",
      "ect</w>"
    ],
    [
      "ec",
      "t"
    ],
    [
      "tes",
      "ts</w>"
    ],
    [
      "w",
      "as</w>"
    ],
    [
      "d",
      "es"
    ],
    [
      "g",
      "u"
    ],
    [
      "c",
      "re"
    ],
    [
      "metric",
      "s,</w>"
    ],
    [
      "al",
      "l</w>"
    ],
    [
      "p",
      "r"
    ],
    [
      "t",
      "a"
    ],
    [
      "ig",
      "n"
    ],
    [
      "-",
      "</w>"
    ],
    [
      "am",
      "ple</w>"
    ],
    [
      "er",
      "e</w>"
    ],
    [
      "e",
      "as"
    ],
    [
      "st",
      "r"
    ],
    [
      "n",
      "ot"
    ],
    [
      "th",
      "er</w>"
    ],
    [
      "W",
      "h"
    ],
    [
      "h",
      "av"
    ],
    [
      "w",
      "</w>"
    ],
    [
      "en",
      "c"
    ],
    [
      "o",
      "g"
    ],
    [
      "u",
      "re"
    ],
    [
      "i",
      "es</w>"
    ],
    [
      "it",
      "y</w>"
    ],
    [
      "d",
      "s</w>"
    ],
    [
      "or",
      "e</w>"
    ],
    [
      "writ",
      "e</w>"
    ],
    [
      "ic",
      "al</w>"
    ],
    [
      "A",
      "</w>"
    ],
    [
      "y",
      ".</w>"
    ],
    [
      "?",
      "</w>"
    ],
    [
      "gu",
      "id"
    ],
    [
      "dat",
      "as"
    ],
    [
      "vis",
      "it</w>"
    ],
    [
      "our",
      "</w>"
    ],
    [
      "put",
      ":</w>"
    ],
    [
      "In",
      "put:</w>"
    ],
    [
      "datas",
      "et</w>"
    ],
    [
      "langu",
      "age,</w>"
    ],
    [
      "b",
      "l"
    ],
    [
      "not",
      "e</w>"
    ],
    [
      "fr",
      "om</w>"
    ],
    [
      "t",
      "im"
    ],
    [
      "guid",
      "ance</w>"
    ],
    [
      "chang",
      "es.</w>"
    ],
    [
      "Ex",
      "ample</w>"
    ],
    [
      "re",
      "visit</w>"
    ],
    [
      "y",
      "ou"
    ],
    [
      "al",
      "l"
    ],
    [
      "t",
      "er"
    ],
    [
      "'",
      "s</w>"
    ],
    [
      "a",
      "d</w>"
    ],
    [
      "p",
      "or"
    ],
    [
      "re",
      "c"
    ],
    [
      "ent",
      "s</w>"
    ],
    [
      "ir",
      "</w>"
    ],
    [
      "w",
      "e"
    ],
    [
      "com",
      "m"
    ],
    [
      "d",
      "uc"
    ],
    [
      "ou",
      "t</w>"
    ],
    [
      "s",
      "o</w>"
    ],
    [
      "es",
      "s"
    ],
    [
      "i",
      "b"
    ],
    [
      "i",
      "al</w>"
    ],
    [
      "I",
      "</w>"
    ],
    [
      "you",
      "</w>"
    ],
    [
      "an",
      "d"
    ],
    [
      "e",
      "ar"
    ],
    [
      "er",
      "v"
    ],
    [
      "e",
      "p"
    ],
    [
      "f",
      "e"
    ],
    [
      "a",
      "y</w>"
    ],
    [
      "i",
      "p"
    ],
    [
      "b",
      "u"
    ],
    [
      ")",
      "</w>"
    ],
    [
      "for",
      "m"
    ],
    [
      "m",
      "ore</w>"
    ],
    [
      "g",
      "r"
    ],
    [
      "g",
      "e</w>"
    ],
    [
      "re",
      "al</w>"
    ],
    [
      "ion",
      "s</w>"
    ],
    [
      "u",
      "st"
    ],
    [
      "an",
      "t</w>"
    ],
    [
      "us",
      "ed</w>"
    ],
    [
      "l",
      "o"
    ],
    [
      "ar",
      "t"
    ],
    [
      "2",
      "0"
    ],
    [
      "es",
      "t</w>"
    ],
    [
      "en",
      "er"
    ],
    [
      "os",
      "t</w>"
    ],
    [
      "an",
      "c"
    ],
    [
      "us",
      "e</w>"
    ],
    [
      "a",
      "il"
    ],
    [
      "m",
      "od"
    ],
    [
      "on",
      "e</w>"
    ],
    [
      "es",
      "s</w>"
    ],
    [
      "id",
      "e</w>"
    ],
    [
      "h",
      "el"
    ],
    [
      "u",
      "l</w>"
    ],
    [
      "1",
      "9"
    ],
    [
      "a",
      "in"
    ],
    [
      "g",
      "</w>"
    ],
    [
      "en",
      "ce</w>"
    ],
    [
      "the",
      "ir</w>"
    ],
    [
      "hav",
      "e</w>"
    ],
    [
      "a",
      "y"
    ],
    [
      "ag",
      "e</w>"
    ],
    [
      "as",
      "s"
    ],
    [
      "ow",
      "</w>"
    ],
    [
      "pro",
      "v"
    ],
    [
      "en",
      "d"
    ],
    [
      "s",
      "m"
    ],
    [
      "k",
      "ing</w>"
    ],
    [
      "in",
      "e</w>"
    ],
    [
      "es",
      "t"
    ],
    [
      "in",
      "cl"
    ],
    [
      "por",
      "t"
    ],
    [
      "k",
      "s</w>"
    ],
    [
      "it",
      "ion"
    ],
    [
      "c",
      "r"
    ],
    [
      "ic",
      "h</w>"
    ],
    [
      "d",
      "i"
    ],
    [
      "it",
      "s</w>"
    ],
    [
      "p",
      "re"
    ],
    [
      "h",
      "as</w>"
    ],
    [
      "b",
      "ac"
    ],
    [
      "h",
      "e"
    ],
    [
      "t",
      "w"
    ],
    [
      "p",
      "res"
    ],
    [
      "il",
      "l"
    ],
    [
      "the",
      "y</w>"
    ],
    [
      "I",
      "t</w>"
    ],
    [
      "incl",
      "ud"
    ],
    [
      "al",
      "so</w>"
    ],
    [
      "en",
      "g"
    ],
    [
      "p",
      "h"
    ],
    [
      "at",
      "ed</w>"
    ],
    [
      "o",
      "t</w>"
    ],
    [
      "in",
      "e"
    ],
    [
      "an",
      "y</w>"
    ],
    [
      "al",
      "ly</w>"
    ],
    [
      "pro",
      "duc"
    ],
    [
      "int",
      "er"
    ],
    [
      "f",
      "er"
    ],
    [
      "il",
      "e</w>"
    ],
    [
      "wor",
      "k</w>"
    ],
    [
      "p",
      "e"
    ],
    [
      "m",
      "</w>"
    ],
    [
      "con",
      "t"
    ],
    [
      "wh",
      "ich</w>"
    ],
    [
      "Th",
      "is</w>"
    ],
    [
      "om",
      "e</w>"
    ],
    [
      "o",
      "b"
    ],
    [
      "dat",
      "a</w>"
    ],
    [
      "y",
      "our</w>"
    ],
    [
      "er",
      "s"
    ],
    [
      "0",
      "</w>"
    ],
    [
      "un",
      "d"
    ],
    [
      "su",
      "ch</w>"
    ],
    [
      "ou",
      "g"
    ],
    [
      "l",
      "i"
    ],
    [
      "t",
      "er</w>"
    ],
    [
      "p",
      "os"
    ],
    [
      "a",
      "re"
    ],
    [
      "in",
      "d"
    ],
    [
      "ma",
      "ke</w>"
    ],
    [
      "t",
      "ion</w>"
    ],
    [
      "ch",
      "n"
    ],
    [
      "in",
      "to</w>"
    ],
    [
      "an",
      "t"
    ],
    [
      "oo",
      "d</w>"
    ],
    [
      "il",
      "l</w>"
    ],
    [
      "d",
      "ec"
    ],
    [
      "am",
      "e</w>"
    ],
    [
      "b",
      "ec"
    ],
    [
      "ing",
      ",</w>"
    ],
    [
      "ou",
      "t"
    ],
    [
      "\"",
      "</w>"
    ],
    [
      "c",
      "od"
    ],
    [
      "es",
      "e</w>"
    ],
    [
      "d",
      "is"
    ],
    [
      "Wh",
      "at</w>"
    ],
    [
      "te",
      "chn"
    ],
    [
      "er",
      ",</w>"
    ],
    [
      "p",
      "o"
    ],
    [
      "el",
      "</w>"
    ],
    [
      "igh",
      "t</w>"
    ],
    [
      "des",
      "ign"
    ],
    [
      "l",
      "ar"
    ],
    [
      "d",
      "r"
    ],
    [
      "op",
      "er"
    ],
    [
      "a",
      "f"
    ],
    [
      "s",
      "e"
    ],
    [
      "c",
      "or"
    ],
    [
      "com",
      "p"
    ],
    [
      "hel",
      "p</w>"
    ],
    [
      "is",
      "t</w>"
    ],
    [
      "sm",
      "all</w>"
    ],
    [
      "al",
      "s</w>"
    ],
    [
      "h",
      "e</w>"
    ],
    [
      "ou",
      "s</w>"
    ],
    [
      "s",
      "erv"
    ],
    [
      "o",
      "ther</w>"
    ],
    [
      "el",
      "l"
    ],
    [
      "en",
      "s"
    ],
    [
      "ab",
      "out</w>"
    ],
    [
      "m",
      "eas"
    ],
    [
      "a",
      "st"
    ],
    [
      "comm",
      "on</w>"
    ],
    [
      "at",
      "es</w>"
    ],
    [
      "of",
      "f"
    ],
    [
      "us",
      "t</w>"
    ],
    [
      "w",
      "ere</w>"
    ],
    [
      "a",
      ",</w>"
    ],
    [
      "im",
      "port"
    ],
    [
      "t",
      "ur"
    ],
    [
      "f",
      "ol"
    ],
    [
      "th",
      "an</w>"
    ],
    [
      "n",
      "at"
    ],
    [
      "m",
      "ar"
    ],
    [
      "m",
      "e"
    ],
    [
      "u",
      "p</w>"
    ],
    [
      "b",
      "et"
    ],
    [
      "ma",
      "int"
    ],
    [
      "b",
      "r"
    ],
    [
      "x",
      "</w>"
    ],
    [
      "d",
      "if"
    ],
    [
      "su",
      "m"
    ],
    [
      "v",
      "i"
    ],
    [
      "e",
      "g"
    ],
    [
      "oc",
      "um"
    ],
    [
      "ic",
      "e</w>"
    ],
    [
      "wh",
      "ile</w>"
    ],
    [
      "n",
      "ing</w>"
    ],
    [
      "ac",
      "c"
    ],
    [
      "f",
      "ac"
    ],
    [
      "f",
      "in"
    ],
    [
      "ef",
      "ul</w>"
    ],
    [
      "b",
      "o"
    ],
    [
      "C",
      "h"
    ],
    [
      "i",
      "</w>"
    ],
    [
      "y",
      "p"
    ],
    [
      "ust",
      "om"
    ],
    [
      "ent",
      "ation</w>"
    ],
    [
      "iv",
      "en</w>"
    ],
    [
      "n",
      "ot</w>"
    ],
    [
      "fol",
      "low"
    ],
    [
      "oper",
      "ation"
    ],
    [
      "d",
      ",</w>"
    ],
    [
      "ure",
      "s</w>"
    ],
    [
      "I",
      "n</w>"
    ],
    [
      "includ",
      "e</w>"
    ],
    [
      "p",
      "ar"
    ],
    [
      "a",
      "ch</w>"
    ],
    [
      "h",
      "is</w>"
    ],
    [
      "f",
      "l"
    ],
    [
      "f",
      "ail"
    ],
    [
      "S",
      "t"
    ],
    [
      "t",
      "ed</w>"
    ],
    [
      "g",
      "re"
    ],
    [
      "s",
      "t</w>"
    ],
    [
      "ow",
      "n</w>"
    ],
    [
      "e",
      "w</w>"
    ],
    [
      "er",
      "i"
    ],
    [
      "a",
      "ke</w>"
    ],
    [
      "ur",
      "al</w>"
    ],
    [
      "c",
      "ustom"
    ],
    [
      "m",
      "ent"
    ],
    [
      "m",
      "ent</w>"
    ],
    [
      "ov",
      "er"
    ],
    [
      "ig",
      "n</w>"
    ],
    [
      "th",
      "em"
    ],
    [
      "oun",
      "d</w>"
    ],
    [
      "ing",
      ".</w>"
    ],
    [
      "c",
      "ol"
    ],
    [
      "E",
      "n"
    ],
    [
      "r",
      "is"
    ],
    [
      "k",
      ",</w>"
    ],
    [
      "tw",
      "o</w>"
    ],
    [
      "er",
      ".</w>"
    ],
    [
      "s",
      "c"
    ],
    [
      "import",
      "ant</w>"
    ],
    [
      "ine",
      "ers</w>"
    ],
    [
      "ol",
      "og"
    ],
    [
      "k",
      "n"
    ],
    [
      "ib",
      "le</w>"
    ],
    [
      "put",
      "s,</w>"
    ],
    [
      "d",
      "u"
    ],
    [
      "su",
      "l"
    ],
    [
      "ef",
      "f"
    ],
    [
      "a",
      "use</w>"
    ],
    [
      "e",
      "y</w>"
    ],
    [
      "m",
      "ost</w>"
    ],
    [
      "a",
      "ch"
    ],
    [
      "as",
      "ed</w>"
    ],
    [
      "ar",
      "y</w>"
    ],
    [
      "v",
      "el"
    ],
    [
      "de",
      "p"
    ],
    [
      "le",
      "ar"
    ],
    [
      "as",
      "e</w>"
    ],
    [
      "th",
      "en</w>"
    ],
    [
      "w",
      "ill</w>"
    ],
    [
      "a",
      "w"
    ],
    [
      "oug",
      "h</w>"
    ],
    [
      "re",
      "e</w>"
    ],
    [
      "at",
      "ing</w>"
    ],
    [
      "st",
      "or"
    ],
    [
      "ic",
      "t"
    ],
    [
      "dif",
      "fer"
    ],
    [
      "il",
      "</w>"
    ],
    [
      "ne",
      "w</w>"
    ],
    [
      "2",
      "</w>"
    ],
    [
      "u",
      "p"
    ],
    [
      "ow",
      "n"
    ],
    [
      "pe",
      "o"
    ],
    [
      "re",
      "sul"
    ],
    [
      "l",
      "at"
    ],
    [
      "un",
      "</w>"
    ],
    [
      "n",
      "um"
    ],
    [
      "con",
      "c"
    ],
    [
      "el",
      "y</w>"
    ],
    [
      "bl",
      "em"
    ],
    [
      "st",
      "ar"
    ],
    [
      "ation",
      "s</w>"
    ],
    [
      "am",
      "pl"
    ],
    [
      "ar",
      "i"
    ],
    [
      "u",
      "s</w>"
    ],
    [
      "f",
      "ir"
    ],
    [
      "on",
      "g</w>"
    ],
    [
      "pro",
      "blem"
    ],
    [
      "tr",
      "ac"
    ],
    [
      "as",
      "t</w>"
    ],
    [
      ";",
      "</w>"
    ],
    [
      "re",
      "ad"
    ],
    [
      "t",
      "ing</w>"
    ],
    [
      "w",
      "ould</w>"
    ],
    [
      "st",
      "e"
    ],
    [
      "ne",
      "ed</w>"
    ],
    [
      "pro",
      "c"
    ],
    [
      "5",
      "</w>"
    ],
    [
      "U",
      "n"
    ],
    [
      "2",
      ".</w>"
    ],
    [
      "k",
      "es</w>"
    ],
    [
      "m",
      "an"
    ],
    [
      "in",
      "v"
    ],
    [
      "b",
      "er</w>"
    ],
    [
      "p",
      "u"
    ],
    [
      "1",
      ".</w>"
    ],
    [
      "ab",
      "l"
    ],
    [
      "or",
      "t</w>"
    ],
    [
      "er",
      "r"
    ],
    [
      "follow",
      "ing</w>"
    ],
    [
      "S",
      "h"
    ],
    [
      "mod",
      "el"
    ],
    [
      "im",
      "pl"
    ],
    [
      "s",
      "ign"
    ],
    [
      "v",
      "er"
    ],
    [
      "s",
      "ol"
    ],
    [
      "lar",
      "ge</w>"
    ],
    [
      "bu",
      "t</w>"
    ],
    [
      "iv",
      "es</w>"
    ],
    [
      "m",
      "in"
    ],
    [
      "bac",
      "k</w>"
    ],
    [
      "el",
      "l</w>"
    ],
    [
      "en",
      "ds</w>"
    ],
    [
      "f",
      "</w>"
    ],
    [
      "sh",
      "ip"
    ],
    [
      "ro",
      "l"
    ],
    [
      "f",
      "oc"
    ],
    [
      "cont",
      "in"
    ],
    [
      "h",
      "ad</w>"
    ],
    [
      "1",
      "</w>"
    ],
    [
      "iz",
      "e</w>"
    ],
    [
      "e",
      "ther</w>"
    ],
    [
      "tim",
      "e</w>"
    ],
    [
      "3",
      ".</w>"
    ],
    [
      "we",
      "en</w>"
    ],
    [
      "wh",
      "o</w>"
    ],
    [
      "ex",
      "ampl"
    ],
    [
      "t",
      "yp"
    ],
    [
      "tr",
      "ad"
    ],
    [
      "c",
      "o"
    ],
    [
      "an",
      "s"
    ],
    [
      "c",
      "le"
    ],
    [
      "ar",
      "d"
    ],
    [
      "bet",
      "ween</w>"
    ],
    [
      "bec",
      "ause</w>"
    ],
    [
      "l",
      "if"
    ],
    [
      "ener",
      "ate</w>"
    ],
    [
      "in",
      "cre"
    ],
    [
      "s",
      "ent"
    ],
    [
      "res",
      "our"
    ],
    [
      "or",
      "d"
    ],
    [
      "tur",
      "n</w>"
    ],
    [
      "igh",
      "t"
    ],
    [
      "A",
      "d"
    ],
    [
      "contin",
      "u"
    ],
    [
      "if",
      "ic"
    ],
    [
      "pre",
      "d"
    ],
    [
      "k",
      "s,</w>"
    ],
    [
      "re",
      "l"
    ],
    [
      "all",
      "y,</w>"
    ],
    [
      "En",
      "g"
    ],
    [
      "D",
      "es"
    ],
    [
      "ab",
      "il"
    ],
    [
      "us",
      "ing</w>"
    ],
    [
      "w",
      "at"
    ],
    [
      "li",
      "ke</w>"
    ],
    [
      "ar",
      "d</w>"
    ],
    [
      "it",
      "e</w>"
    ],
    [
      "s",
      "e</w>"
    ],
    [
      "th",
      "er"
    ],
    [
      "r",
      "at"
    ],
    [
      "am",
      "</w>"
    ],
    [
      "th",
      "r"
    ],
    [
      "m",
      "ust</w>"
    ],
    [
      "pr",
      "act"
    ],
    [
      "el",
      "i"
    ],
    [
      "he",
      "al"
    ],
    [
      "t",
      "ions</w>"
    ],
    [
      "c",
      "ould</w>"
    ],
    [
      "s",
      "ec"
    ],
    [
      "t",
      "o"
    ],
    [
      "a",
      ".</w>"
    ],
    [
      "A",
      "l"
    ],
    [
      "peo",
      "ple</w>"
    ],
    [
      "ed",
      ".</w>"
    ],
    [
      "i",
      "re"
    ],
    [
      "s",
      "k"
    ],
    [
      "ation",
      ",</w>"
    ],
    [
      "ov",
      "er</w>"
    ],
    [
      "per",
      "i"
    ],
    [
      "str",
      "uc"
    ],
    [
      "H",
      "e</w>"
    ],
    [
      "is",
      "h"
    ],
    [
      "c",
      "oun"
    ],
    [
      "f",
      "low"
    ],
    [
      "m",
      "ents</w>"
    ],
    [
      "A",
      "n"
    ],
    [
      "rec",
      "t"
    ],
    [
      "f",
      "ut"
    ],
    [
      "des",
      "ign</w>"
    ],
    [
      "Wh",
      "en</w>"
    ],
    [
      "or",
      ",</w>"
    ],
    [
      "g",
      "iven</w>"
    ],
    [
      "d",
      "ition"
    ],
    [
      "iz",
      "ing</w>"
    ],
    [
      "i",
      "er</w>"
    ],
    [
      "m",
      "ov"
    ],
    [
      "ep",
      "t</w>"
    ],
    [
      "per",
      "s"
    ],
    [
      "c",
      "as"
    ],
    [
      "a",
      "k"
    ],
    [
      "g",
      "o"
    ],
    [
      "op",
      "</w>"
    ],
    [
      "m",
      "on"
    ],
    [
      "C",
      "re"
    ],
    [
      "ic",
      "i"
    ],
    [
      "Th",
      "ese</w>"
    ],
    [
      "re",
      "g"
    ],
    [
      "m",
      "any</w>"
    ],
    [
      "it",
      "ed</w>"
    ],
    [
      "ed",
      "ge</w>"
    ],
    [
      "fir",
      "st</w>"
    ],
    [
      "m",
      "ed"
    ],
    [
      "v",
      "ir"
    ],
    [
      "s",
      "ome</w>"
    ],
    [
      "ation",
      ".</w>"
    ],
    [
      "ul",
      "t"
    ],
    [
      "es",
      "s,</w>"
    ],
    [
      "be",
      "en</w>"
    ],
    [
      "v",
      "al"
    ],
    [
      "ay",
      "s</w>"
    ],
    [
      "i",
      "d</w>"
    ],
    [
      "ion",
      ".</w>"
    ],
    [
      "h",
      "ow</w>"
    ],
    [
      "ar",
      "r"
    ],
    [
      "p",
      "ow"
    ],
    [
      "vi",
      "ew</w>"
    ],
    [
      "F",
      "r"
    ],
    [
      "ener",
      "g"
    ],
    [
      "or",
      "ing</w>"
    ],
    [
      "pla",
      "y"
    ],
    [
      "ac",
      "e</w>"
    ],
    [
      "re",
      "ma"
    ],
    [
      "st",
      "ate</w>"
    ],
    [
      "ev",
      "er"
    ],
    [
      "ar",
      "ch"
    ],
    [
      "d",
      "o</w>"
    ],
    [
      "3",
      "</w>"
    ],
    [
      "op",
      "tim"
    ],
    [
      "de",
      "vel"
    ],
    [
      "i",
      "a</w>"
    ],
    [
      "c",
      "ost</w>"
    ],
    [
      "system",
      "s</w>"
    ],
    [
      "anc",
      "e.</w>"
    ],
    [
      "hav",
      "i"
    ],
    [
      "ch",
      "ar"
    ],
    [
      "s",
      "el"
    ],
    [
      "l",
      "ist</w>"
    ],
    [
      "be",
      "havi"
    ],
    [
      "ro",
      "w"
    ],
    [
      "en",
      "d</w>"
    ],
    [
      "ch",
      "ec"
    ],
    [
      "or",
      "i"
    ],
    [
      "1",
      ":</w>"
    ],
    [
      "at",
      "t"
    ],
    [
      "u",
      "g"
    ],
    [
      "custom",
      "er</w>"
    ],
    [
      "p",
      "ol"
    ],
    [
      "it",
      "ies</w>"
    ],
    [
      "pred",
      "ict"
    ],
    [
      "a",
      "ut"
    ],
    [
      "h",
      "er</w>"
    ],
    [
      "=",
      "</w>"
    ],
    [
      "e",
      "ach</w>"
    ],
    [
      "1",
      "0"
    ],
    [
      "on",
      "g"
    ],
    [
      "h",
      "ab"
    ],
    [
      "2",
      ":</w>"
    ],
    [
      "a",
      "in</w>"
    ],
    [
      "c",
      "ur"
    ],
    [
      "und",
      "er</w>"
    ],
    [
      "em",
      "ent</w>"
    ],
    [
      "fe",
      "ed"
    ],
    [
      ")",
      ",</w>"
    ],
    [
      "j",
      "ec"
    ],
    [
      "ex",
      "plain</w>"
    ],
    [
      "d",
      "ocum"
    ],
    [
      "wh",
      "at</w>"
    ],
    [
      "ad",
      "v"
    ],
    [
      "w",
      "ay</w>"
    ],
    [
      "sp",
      "ec"
    ],
    [
      "t",
      "e</w>"
    ],
    [
      "m",
      "er"
    ],
    [
      "conc",
      "ept</w>"
    ],
    [
      "fut",
      "ure</w>"
    ],
    [
      "i",
      "be</w>"
    ],
    [
      "res",
      "p"
    ],
    [
      "if",
      "y</w>"
    ],
    [
      "d",
      ".</w>"
    ],
    [
      "d",
      "o"
    ],
    [
      "ing",
      "s</w>"
    ],
    [
      "cr",
      "ibe</w>"
    ],
    [
      "com",
      "pl"
    ],
    [
      "p",
      "art"
    ],
    [
      "resul",
      "t</w>"
    ],
    [
      "G",
      "enerate</w>"
    ],
    [
      "p",
      "op"
    ],
    [
      "ma",
      "kes</w>"
    ],
    [
      "sy",
      "n"
    ],
    [
      "Cre",
      "ate</w>"
    ],
    [
      "cle",
      "ar</w>"
    ],
    [
      "al",
      "ter"
    ],
    [
      "y",
      "s"
    ],
    [
      "4",
      ".</w>"
    ],
    [
      "or",
      "s</w>"
    ],
    [
      "ent",
      "ial</w>"
    ],
    [
      "C",
      "om"
    ],
    [
      "in",
      "ste"
    ],
    [
      "du",
      "ce</w>"
    ],
    [
      "A",
      "r"
    ],
    [
      "U",
      "s"
    ],
    [
      "in",
      ".</w>"
    ],
    [
      "wh",
      "ether</w>"
    ],
    [
      "u",
      "e</w>"
    ],
    [
      "if",
      "</w>"
    ],
    [
      "produc",
      "tion</w>"
    ],
    [
      "tes",
      "t</w>"
    ],
    [
      "l",
      "oc"
    ],
    [
      "f",
      "ul</w>"
    ],
    [
      "t",
      "en</w>"
    ],
    [
      "in",
      "sp"
    ],
    [
      "al",
      "low"
    ],
    [
      "exampl",
      "es</w>"
    ],
    [
      "te",
      "x"
    ],
    [
      "pl",
      "an"
    ],
    [
      "re",
      "qu"
    ],
    [
      "techn",
      "olog"
    ],
    [
      "impl",
      "em"
    ],
    [
      "5",
      ".</w>"
    ],
    [
      "e",
      "w"
    ],
    [
      "sum",
      "p"
    ],
    [
      "arch",
      "it"
    ],
    [
      "eas",
      "ier</w>"
    ],
    [
      "l",
      "ine</w>"
    ],
    [
      "1",
      "8"
    ],
    [
      "p",
      "a"
    ],
    [
      "m",
      "e</w>"
    ],
    [
      "k",
      "et"
    ],
    [
      "ul",
      "ar</w>"
    ],
    [
      "them",
      "</w>"
    ],
    [
      "r",
      "un</w>"
    ],
    [
      "s",
      "oc"
    ],
    [
      "alter",
      "nat"
    ],
    [
      "feed",
      "back</w>"
    ],
    [
      "differ",
      "ent</w>"
    ],
    [
      "th",
      "ree</w>"
    ],
    [
      "ain",
      "able</w>"
    ],
    [
      "ap",
      "pl"
    ],
    [
      "ion",
      ",</w>"
    ],
    [
      "y",
      "ear"
    ],
    [
      "h",
      "um"
    ],
    [
      "o",
      "y"
    ],
    [
      "ed",
      ",</w>"
    ],
    [
      "meas",
      "ure</w>"
    ],
    [
      "st",
      "ud"
    ],
    [
      "archit",
      "ect"
    ],
    [
      "v",
      "ari"
    ],
    [
      "inste",
      "ad</w>"
    ],
    [
      "de",
      "b"
    ],
    [
      "inter",
      "fac"
    ],
    [
      "err",
      "or</w>"
    ],
    [
      "ap",
      "p"
    ],
    [
      "d",
      "et"
    ],
    [
      "ation",
      "al</w>"
    ],
    [
      "ad",
      ".</w>"
    ],
    [
      "ta",
      "x</w>"
    ],
    [
      "os",
      "e</w>"
    ],
    [
      "c",
      "ar"
    ],
    [
      "oo",
      "k</w>"
    ],
    [
      "C",
      "on"
    ],
    [
      "ition",
      ".</w>"
    ],
    [
      "4",
      "</w>"
    ],
    [
      "com",
      "put"
    ],
    [
      "im",
      "prov"
    ],
    [
      "-",
      "-"
    ],
    [
      "or",
      "g"
    ],
    [
      "con",
      "s"
    ],
    [
      "foc",
      "used</w>"
    ],
    [
      "ur",
      "ing</w>"
    ],
    [
      "m",
      "ist"
    ],
    [
      "um",
      "</w>"
    ],
    [
      "is",
      "h</w>"
    ],
    [
      "ris",
      "ks</w>"
    ],
    [
      "meas",
      "ure"
    ],
    [
      "cor",
      "rect"
    ],
    [
      "m",
      "at"
    ],
    [
      "b",
      "us"
    ],
    [
      "te",
      "d,</w>"
    ],
    [
      "und",
      "er"
    ],
    [
      "3",
      ":</w>"
    ],
    [
      "thr",
      "ough</w>"
    ],
    [
      "s",
      "ur"
    ],
    [
      "prov",
      "id"
    ],
    [
      "Th",
      "at</w>"
    ],
    [
      "ship",
      ".</w>"
    ],
    [
      "ch",
      "o"
    ],
    [
      "pres",
      "erv"
    ],
    [
      "us",
      "eful</w>"
    ],
    [
      "id",
      "e"
    ],
    [
      "b",
      "re"
    ],
    [
      "G",
      "ood</w>"
    ],
    [
      "n",
      "ess,</w>"
    ],
    [
      "tr",
      "ust"
    ],
    [
      "u",
      "al</w>"
    ],
    [
      "enc",
      "y,</w>"
    ],
    [
      "in",
      "form"
    ],
    [
      "star",
      "ts</w>"
    ],
    [
      "ex",
      "peri"
    ],
    [
      "design",
      ",</w>"
    ],
    [
      "O",
      "n"
    ],
    [
      "techn",
      "ical</w>"
    ],
    [
      "m",
      "y</w>"
    ],
    [
      "f",
      "am"
    ],
    [
      "k",
      "e"
    ],
    [
      "e",
      "p</w>"
    ],
    [
      "devel",
      "op"
    ],
    [
      "int",
      "u"
    ],
    [
      "dep",
      "ends</w>"
    ],
    [
      "own",
      "er"
    ],
    [
      "wor",
      "k"
    ],
    [
      "4",
      ":</w>"
    ],
    [
      "maint",
      "en"
    ],
    [
      "t",
      "as"
    ],
    [
      "docum",
      "ents</w>"
    ],
    [
      "0",
      ":</w>"
    ],
    [
      "eri",
      "es,</w>"
    ],
    [
      "ac",
      "t</w>"
    ],
    [
      "ad",
      "e</w>"
    ],
    [
      "rol",
      "l</w>"
    ],
    [
      "tes",
      "ted</w>"
    ],
    [
      "in",
      "c"
    ],
    [
      "vis",
      "ible</w>"
    ],
    [
      "ic",
      "k"
    ],
    [
      "t",
      "re"
    ],
    [
      "chang",
      "e,</w>"
    ],
    [
      "dec",
      "ide</w>"
    ],
    [
      "h",
      "igh"
    ],
    [
      "de",
      "bu"
    ],
    [
      "ch",
      "os"
    ],
    [
      "design",
      ".</w>"
    ],
    [
      "resour",
      "ce</w>"
    ],
    [
      "bac",
      "k,</w>"
    ],
    [
      "cre",
      "te</w>"
    ],
    [
      "pract",
      "ical</w>"
    ],
    [
      "s",
      "of"
    ],
    [
      "or",
      "y</w>"
    ],
    [
      "lo",
      "op"
    ],
    [
      "chos",
      "en</w>"
    ],
    [
      "cod",
      "e.</w>"
    ],
    [
      "optim",
      "izing</w>"
    ],
    [
      "sign",
      "als</w>"
    ],
    [
      "cod",
      "e,</w>"
    ],
    [
      "implem",
      "entation</w>"
    ],
    [
      "model",
      "s,</w>"
    ],
    [
      "fail",
      "ure</w>"
    ],
    [
      "behavi",
      "or,</w>"
    ],
    [
      "cas",
      "es,</w>"
    ],
    [
      "oug",
      "h"
    ],
    [
      "g",
      "et</w>"
    ],
    [
      "eng",
      "ineers</w>"
    ],
    [
      "read",
      "ers</w>"
    ],
    [
      "n",
      "am"
    ],
    [
      "operation",
      "s.</w>"
    ],
    [
      "we",
      "b"
    ],
    [
      "D",
      "ocum"
    ],
    [
      "operation",
      "al</w>"
    ],
    [
      "problem",
      ",</w>"
    ],
    [
      "syn",
      "tax</w>"
    ],
    [
      "at",
      "ive</w>"
    ],
    [
      "con",
      "crete</w>"
    ],
    [
      "as",
      "sump"
    ],
    [
      "alternat",
      "ives</w>"
    ],
    [
      "heal",
      "th"
    ],
    [
      "hab",
      "it</w>"
    ],
    [
      "predict",
      "able</w>"
    ],
    [
      "architect",
      "ural</w>"
    ],
    [
      "ad",
      "ds</w>"
    ],
    [
      "chang",
      "es,</w>"
    ],
    [
      "flow",
      ".</w>"
    ],
    [
      "oun",
      "d"
    ],
    [
      "interfac",
      "e,</w>"
    ],
    [
      "mist",
      "ake</w>"
    ],
    [
      "rat",
      "es,</w>"
    ],
    [
      "ic",
      "s</w>"
    ],
    [
      "debu",
      "g</w>"
    ],
    [
      "energ",
      "y</w>"
    ],
    [
      "us",
      "age,</w>"
    ],
    [
      "r",
      "ap"
    ],
    [
      "ta",
      "ke</w>"
    ],
    [
      "R",
      "eli"
    ],
    [
      "Sh",
      "ort</w>"
    ],
    [
      "wh",
      "ere</w>"
    ],
    [
      "b",
      "ased</w>"
    ],
    [
      "Us",
      "eful</w>"
    ],
    [
      "coun",
      "tr"
    ],
    [
      "trac",
      "es</w>"
    ],
    [
      "measure",
      "ments</w>"
    ],
    [
      "mainten",
      "ance.</w>"
    ],
    [
      "qu",
      "eries,</w>"
    ],
    [
      "bus",
      "in"
    ],
    [
      "lo",
      "ad.</w>"
    ],
    [
      "assump",
      "tions</w>"
    ],
    [
      "in",
      "puts,</w>"
    ],
    [
      "Docum",
      "entation</w>"
    ],
    [
      "fail",
      "ures</w>"
    ],
    [
      "insp",
      "ect</w>"
    ],
    [
      "Eng",
      "ineers</w>"
    ],
    [
      "re",
      "writ"
    ],
    [
      "act",
      "iv"
    ],
    [
      "e",
      "off"
    ],
    [
      "abil",
      "ity</w>"
    ],
    [
      "deb",
      "ates</w>"
    ],
    [
      "trust",
      "ing</w>"
    ],
    [
      "owner",
      "ship.</w>"
    ],
    [
      "n",
      "et"
    ],
    [
      "prov",
      "ide</w>"
    ],
    [
      "re",
      "jec"
    ],
    [
      "out",
      "puts,</w>"
    ],
    [
      "chec",
      "ks,</w>"
    ],
    [
      "ign",
      "oring</w>"
    ],
    [
      "on",
      "om"
    ],
    [
      "rema",
      "in.</w>"
    ],
    [
      "Reli",
      "able</w>"
    ],
    [
      "loop",
      "s.</w>"
    ],
    [
      "lat",
      "ency,</w>"
    ],
    [
      "trad",
      "eoff"
    ],
    [
      "mod",
      "es,</w>"
    ],
    [
      "continu",
      "e,</w>"
    ],
    [
      "rejec",
      "ted,</w>"
    ],
    [
      "-",
      "2:</w>"
    ],
    [
      "intu",
      "ition.</w>"
    ],
    [
      "maint",
      "ainable</w>"
    ],
    [
      "-",
      "1:</w>"
    ],
    [
      "-",
      "0:</w>"
    ],
    [
      "-",
      "3:</w>"
    ],
    [
      "-",
      "4:</w>"
    ],
    [
      "correct",
      "ness,</w>"
    ],
    [
      "preserv",
      "e.</w>"
    ],
    [
      "tradeoff",
      "s.</w>"
    ],
    [
      "re",
      "design.</w>"
    ],
    [
      "rewrit",
      "es.</w>"
    ],
    [
      "un",
      "tested</w>"
    ],
    [
      "Des",
      "cribe</w>"
    ],
    [
      "0",
      "0"
    ],
    [
      "P",
      "ro"
    ],
    [
      "p",
      "ot"
    ],
    [
      "fr",
      "i"
    ],
    [
      "an",
      "s</w>"
    ],
    [
      "vir",
      "on"
    ],
    [
      "wor",
      "l"
    ],
    [
      "ec",
      "tr"
    ],
    [
      "th",
      "ere</w>"
    ],
    [
      "ag",
      "es</w>"
    ],
    [
      "ma",
      "y</w>"
    ],
    [
      "iz",
      "ed</w>"
    ],
    [
      "s",
      ":</w>"
    ],
    [
      "lear",
      "ning</w>"
    ],
    [
      "c",
      "ap"
    ],
    [
      "F",
      "in"
    ],
    [
      "il",
      "y</w>"
    ],
    [
      "om",
      "e"
    ],
    [
      "t",
      ",</w>"
    ],
    [
      "W",
      "rit"
    ],
    [
      "l",
      "in"
    ],
    [
      "mer",
      "ic"
    ],
    [
      "re",
      "duce</w>"
    ],
    [
      "c",
      "c"
    ],
    [
      "w",
      "ays</w>"
    ],
    [
      "on",
      "ly</w>"
    ],
    [
      "it",
      "y.</w>"
    ],
    [
      "f",
      "act"
    ],
    [
      "A",
      "meric"
    ],
    [
      "cre",
      "ate</w>"
    ],
    [
      "en",
      "viron"
    ],
    [
      "resp",
      "on"
    ],
    [
      "er",
      "s,</w>"
    ],
    [
      "i",
      "ed</w>"
    ],
    [
      ")",
      ".</w>"
    ],
    [
      "c",
      "ent"
    ],
    [
      "it",
      "i"
    ],
    [
      "wi",
      "th"
    ],
    [
      "is",
      "s"
    ],
    [
      "fe",
      "at"
    ],
    [
      "p",
      "ur"
    ],
    [
      "u",
      "str"
    ],
    [
      "tr",
      "ans"
    ],
    [
      "pro",
      "gr"
    ],
    [
      "an",
      "al"
    ],
    [
      "!",
      "</w>"
    ],
    [
      "comm",
      "un"
    ],
    [
      "be",
      "ing</w>"
    ],
    [
      "it",
      "ion</w>"
    ],
    [
      "j",
      "ect"
    ],
    [
      "ol",
      "v"
    ],
    [
      "H",
      "ow</w>"
    ],
    [
      "org",
      "an"
    ],
    [
      "Writ",
      "e</w>"
    ],
    [
      "i",
      "p</w>"
    ],
    [
      "A",
      "I</w>"
    ],
    [
      "on",
      ",</w>"
    ],
    [
      "w",
      "ar"
    ],
    [
      "y",
      "ing</w>"
    ],
    [
      "iv",
      "ers"
    ],
    [
      "m",
      "em"
    ],
    [
      "ta",
      "in</w>"
    ],
    [
      "b",
      "est</w>"
    ],
    [
      "Ad",
      "dition"
    ],
    [
      "ic",
      "ally</w>"
    ],
    [
      "t",
      ".</w>"
    ],
    [
      "g",
      "ori"
    ],
    [
      "gori",
      "th"
    ],
    [
      "t",
      "em"
    ],
    [
      "w",
      "e</w>"
    ],
    [
      "it",
      "y,</w>"
    ],
    [
      "d",
      "ist"
    ],
    [
      "ex",
      "p"
    ],
    [
      "b",
      "en"
    ],
    [
      "su",
      "p"
    ],
    [
      "p",
      "ass"
    ],
    [
      "Un",
      "ited</w>"
    ],
    [
      "e",
      "qu"
    ],
    [
      "th",
      "ing</w>"
    ],
    [
      "Addition",
      "ally,</w>"
    ],
    [
      "at",
      "eg"
    ],
    [
      "num",
      "ber</w>"
    ],
    [
      "g",
      "est</w>"
    ],
    [
      "bo",
      "th</w>"
    ],
    [
      "er",
      "s.</w>"
    ],
    [
      "o",
      "od"
    ],
    [
      "st",
      "at"
    ],
    [
      "struc",
      "t"
    ],
    [
      "ol",
      "</w>"
    ],
    [
      "char",
      "act"
    ],
    [
      "p",
      "at"
    ],
    [
      "el",
      "ectr"
    ],
    [
      "is",
      "e</w>"
    ],
    [
      "su",
      "cc"
    ],
    [
      "sh",
      "e</w>"
    ],
    [
      "u",
      "b"
    ],
    [
      "bu",
      "il"
    ],
    [
      "under",
      "st"
    ],
    [
      "Th",
      "ey</w>"
    ],
    [
      "su",
      "b"
    ],
    [
      "m",
      "s</w>"
    ],
    [
      "J",
      "o"
    ],
    [
      "d",
      "ing</w>"
    ],
    [
      "er",
      "ed</w>"
    ],
    [
      "f",
      "ul"
    ],
    [
      "pu",
      "t</w>"
    ],
    [
      "20",
      "0"
    ],
    [
      "id",
      "ent"
    ],
    [
      "form",
      "</w>"
    ],
    [
      "i",
      "an</w>"
    ],
    [
      "al",
      "gorith"
    ],
    [
      "ac",
      "k</w>"
    ],
    [
      "d",
      "ay</w>"
    ],
    [
      "kn",
      "own</w>"
    ],
    [
      "s",
      "et</w>"
    ],
    [
      "m",
      "ade</w>"
    ],
    [
      "s",
      "our"
    ],
    [
      "ta",
      "in"
    ],
    [
      "hel",
      "p"
    ],
    [
      "6",
      "</w>"
    ],
    [
      "w",
      "ell</w>"
    ],
    [
      "un",
      "c"
    ],
    [
      "g",
      "ener"
    ],
    [
      "serv",
      "ic"
    ],
    [
      "or",
      "t"
    ],
    [
      "th",
      "ese</w>"
    ],
    [
      "sp",
      "e"
    ],
    [
      "pers",
      "on"
    ],
    [
      "ar",
      "ound</w>"
    ],
    [
      "f",
      "i"
    ],
    [
      "wat",
      "er</w>"
    ],
    [
      "|",
      "</w>"
    ],
    [
      "sent",
      "ence</w>"
    ],
    [
      "e",
      "-"
    ],
    [
      "j",
      "o"
    ],
    [
      "u",
      "ally</w>"
    ],
    [
      "l",
      "es</w>"
    ],
    [
      "k",
      "ed</w>"
    ],
    [
      "ben",
      "ef"
    ],
    [
      "ear",
      "ch</w>"
    ],
    [
      "i",
      "qu"
    ],
    [
      "pu",
      "bl"
    ],
    [
      "of",
      "ten</w>"
    ],
    [
      "20",
      "1"
    ],
    [
      "eff",
      "ici"
    ],
    [
      "em",
      "ent"
    ],
    [
      "et",
      "y</w>"
    ],
    [
      "ec",
      "onom"
    ],
    [
      "wor",
      "ld</w>"
    ],
    [
      "dis",
      "c"
    ],
    [
      "langu",
      "age</w>"
    ],
    [
      "s",
      "it"
    ],
    [
      "sof",
      "tw"
    ],
    [
      "s",
      "ome"
    ],
    [
      "l",
      "a"
    ],
    [
      "iz",
      "ation</w>"
    ],
    [
      "iv",
      "ing</w>"
    ],
    [
      "ion",
      "al</w>"
    ],
    [
      "]",
      "</w>"
    ],
    [
      "a",
      "u"
    ],
    [
      "proc",
      "ess"
    ],
    [
      "as",
      "h"
    ],
    [
      "m",
      "us"
    ],
    [
      "s",
      "et"
    ],
    [
      "iv",
      "id"
    ],
    [
      "f",
      "ive</w>"
    ],
    [
      "ne",
      "ed"
    ],
    [
      "ma",
      "ch"
    ],
    [
      "ic",
      "ation</w>"
    ],
    [
      "sc",
      "i"
    ],
    [
      "c",
      "es</w>"
    ],
    [
      "M",
      "ar"
    ],
    [
      "T",
      "r"
    ],
    [
      "e",
      ":</w>"
    ],
    [
      "er",
      "ing</w>"
    ],
    [
      "ut",
      "ion</w>"
    ],
    [
      "ma",
      "king</w>"
    ],
    [
      "8",
      "</w>"
    ],
    [
      "av",
      "e</w>"
    ],
    [
      "b",
      "as"
    ],
    [
      "im",
      "p"
    ],
    [
      "ol",
      "d</w>"
    ],
    [
      "cl",
      "ass"
    ],
    [
      "ac",
      "k"
    ],
    [
      "l",
      "and"
    ],
    [
      "’",
      "s</w>"
    ],
    [
      "cur",
      "r"
    ],
    [
      "b",
      "i"
    ],
    [
      "ap",
      "pro"
    ],
    [
      "o",
      ",</w>"
    ],
    [
      "enc",
      "e.</w>"
    ],
    [
      "P",
      "r"
    ],
    [
      "pos",
      "s"
    ],
    [
      "7",
      "</w>"
    ],
    [
      "pro",
      "t"
    ],
    [
      "ex",
      "pl"
    ],
    [
      "fin",
      "d</w>"
    ],
    [
      "a",
      "th"
    ],
    [
      "lif",
      "e</w>"
    ],
    [
      "ir",
      "e</w>"
    ],
    [
      "n",
      "o</w>"
    ],
    [
      "proc",
      "ess</w>"
    ],
    [
      "ter",
      "n"
    ],
    [
      "enc",
      "es</w>"
    ],
    [
      "inv",
      "olv"
    ],
    [
      "pres",
      "s"
    ],
    [
      "ou",
      "s"
    ],
    [
      "ord",
      "er</w>"
    ],
    [
      "A",
      "f"
    ],
    [
      "h",
      "and"
    ],
    [
      "t",
      "op"
    ],
    [
      "be",
      "for"
    ],
    [
      "s",
      "al"
    ],
    [
      "bet",
      "ter</w>"
    ],
    [
      "stor",
      "y</w>"
    ],
    [
      "i",
      "ent</w>"
    ],
    [
      "In",
      "di"
    ],
    [
      "an",
      "im"
    ],
    [
      "le",
      "ad"
    ],
    [
      "pl",
      "ac"
    ],
    [
      "h",
      "ist"
    ],
    [
      "c",
      "er"
    ],
    [
      "eff",
      "ect"
    ],
    [
      "com",
      "e</w>"
    ],
    [
      "'",
      "</w>"
    ],
    [
      "ell",
      "ig"
    ],
    [
      "it",
      "ive</w>"
    ],
    [
      "technolog",
      "y</w>"
    ],
    [
      "lo",
      "b"
    ],
    [
      "ma",
      "in</w>"
    ],
    [
      "ro",
      "s"
    ],
    [
      "'",
      "t</w>"
    ],
    [
      "r",
      "a"
    ],
    [
      "Y",
      "ou"
    ],
    [
      "us",
      "es</w>"
    ],
    [
      "con",
      "v"
    ],
    [
      "dec",
      "is"
    ],
    [
      "Ex",
      "plain</w>"
    ],
    [
      "pot",
      "ential</w>"
    ],
    [
      "ect",
      "ed</w>"
    ],
    [
      "ion",
      "s.</w>"
    ],
    [
      "un",
      "t"
    ],
    [
      "tex",
      "t</w>"
    ],
    [
      "\"",
      ".</w>"
    ],
    [
      "s",
      "im"
    ],
    [
      "R",
      "e"
    ],
    [
      "S",
      "he</w>"
    ],
    [
      "k",
      ".</w>"
    ],
    [
      "m",
      "or"
    ],
    [
      "po",
      "in"
    ],
    [
      "al",
      "ity</w>"
    ],
    [
      "a",
      "y,</w>"
    ],
    [
      "i",
      "e</w>"
    ],
    [
      "l",
      "ov"
    ],
    [
      "it",
      "em"
    ],
    [
      "re",
      "le"
    ],
    [
      "softw",
      "are</w>"
    ],
    [
      "in",
      "n"
    ],
    [
      "a",
      "y.</w>"
    ],
    [
      "col",
      "l"
    ],
    [
      "Jo",
      "h"
    ],
    [
      "b",
      "all</w>"
    ],
    [
      "cons",
      "id"
    ],
    [
      "includ",
      "ing</w>"
    ],
    [
      "W",
      "or"
    ],
    [
      "pr",
      "of"
    ],
    [
      "pr",
      "om"
    ],
    [
      "a",
      "ir"
    ],
    [
      "ev",
      "en</w>"
    ],
    [
      "pl",
      "oy"
    ],
    [
      "comp",
      "an"
    ],
    [
      "r",
      "ang"
    ],
    [
      "pop",
      "ul"
    ],
    [
      "g",
      "ood</w>"
    ],
    [
      "mar",
      "ket"
    ],
    [
      "it",
      "al</w>"
    ],
    [
      "f",
      "il"
    ],
    [
      "C",
      "l"
    ],
    [
      "y",
      "th"
    ],
    [
      "am",
      "m"
    ],
    [
      "art",
      "ic"
    ],
    [
      "be",
      "g"
    ],
    [
      "c",
      "a"
    ],
    [
      "qu",
      "est"
    ],
    [
      "acc",
      "ess</w>"
    ],
    [
      "nat",
      "ural</w>"
    ],
    [
      "ow",
      "l"
    ],
    [
      "d",
      "uring</w>"
    ],
    [
      "ch",
      "il"
    ],
    [
      "al",
      ",</w>"
    ],
    [
      "en",
      ",</w>"
    ],
    [
      "soc",
      "ial</w>"
    ],
    [
      "cl",
      "im"
    ],
    [
      "ph",
      "ys"
    ],
    [
      "ed",
      "uc"
    ],
    [
      "l",
      "ess</w>"
    ],
    [
      "af",
      "ter</w>"
    ],
    [
      "ex",
      "ample</w>"
    ],
    [
      "e",
      "ar</w>"
    ],
    [
      "on",
      "s</w>"
    ],
    [
      "ad",
      "d"
    ],
    [
      "b",
      "od"
    ],
    [
      "environ",
      "ment"
    ],
    [
      "on",
      "d"
    ],
    [
      "an",
      "n"
    ],
    [
      "a",
      "ir</w>"
    ],
    [
      "F",
      "or</w>"
    ],
    [
      "oun",
      "t</w>"
    ],
    [
      "per",
      "form"
    ],
    [
      "por",
      "t</w>"
    ],
    [
      "6",
      ".</w>"
    ],
    [
      "G",
      "iven</w>"
    ],
    [
      "ig",
      "h</w>"
    ],
    [
      "ens",
      "e</w>"
    ],
    [
      "wor",
      "d</w>"
    ],
    [
      "gre",
      "at</w>"
    ],
    [
      "m",
      "i"
    ],
    [
      "serv",
      "ice</w>"
    ],
    [
      "e",
      "?</w>"
    ],
    [
      "c",
      "ul"
    ],
    [
      "if",
      "ic</w>"
    ],
    [
      "over",
      "n"
    ],
    [
      "s",
      "l"
    ],
    [
      "improv",
      "e</w>"
    ],
    [
      "am",
      "p"
    ],
    [
      "unt",
      "il</w>"
    ],
    [
      "f",
      "ic"
    ],
    [
      "A",
      "s</w>"
    ],
    [
      "h",
      "y"
    ],
    [
      "sh",
      "ip</w>"
    ],
    [
      "res",
      "s</w>"
    ],
    [
      "P",
      "h"
    ],
    [
      "c",
      "y"
    ],
    [
      "m",
      "il"
    ],
    [
      "p",
      "er</w>"
    ],
    [
      "ind",
      "ivid"
    ],
    [
      "g",
      "row"
    ],
    [
      "lob",
      "al</w>"
    ],
    [
      "inform",
      "ation</w>"
    ],
    [
      "ific",
      "ial</w>"
    ],
    [
      "ure",
      ".</w>"
    ],
    [
      "cr",
      "ip"
    ],
    [
      "9",
      "</w>"
    ],
    [
      "it",
      ".</w>"
    ],
    [
      "re",
      "d</w>"
    ],
    [
      "m",
      "ot"
    ],
    [
      "val",
      "u"
    ],
    [
      "enc",
      "y</w>"
    ],
    [
      "befor",
      "e</w>"
    ],
    [
      "fi",
      "el"
    ],
    [
      "S",
      "p"
    ],
    [
      "m",
      "u"
    ],
    [
      "Americ",
      "an</w>"
    ],
    [
      "ec",
      "ts</w>"
    ],
    [
      "er",
      "c"
    ],
    [
      "c",
      "are"
    ],
    [
      "c",
      "al"
    ],
    [
      "pl",
      "ace</w>"
    ],
    [
      "dep",
      "end"
    ],
    [
      "re",
      "v"
    ],
    [
      "N",
      "ew</w>"
    ],
    [
      "d",
      "el"
    ],
    [
      "c",
      "our"
    ],
    [
      "l",
      "ong"
    ],
    [
      "s",
      "ide</w>"
    ],
    [
      "in",
      "ce</w>"
    ],
    [
      "man",
      "ag"
    ],
    [
      "im",
      "</w>"
    ],
    [
      "ion",
      "s,</w>"
    ],
    [
      "ma",
      "j"
    ],
    [
      "v",
      "er</w>"
    ],
    [
      "f",
      "re"
    ],
    [
      "typ",
      "e</w>"
    ],
    [
      "g",
      "et"
    ],
    [
      "m",
      "ult"
    ],
    [
      "o",
      "th"
    ],
    [
      "On",
      "e</w>"
    ],
    [
      "o",
      "st"
    ],
    [
      "f",
      "ound</w>"
    ],
    [
      "j",
      "ob"
    ],
    [
      "19",
      "9"
    ],
    [
      "l",
      "ight</w>"
    ],
    [
      "j",
      "ect</w>"
    ],
    [
      "t",
      "og"
    ],
    [
      "%",
      "</w>"
    ],
    [
      "N",
      "ame</w>"
    ],
    [
      "ect",
      "ion</w>"
    ],
    [
      "i",
      "es.</w>"
    ],
    [
      "b",
      "oo"
    ],
    [
      "og",
      "n"
    ],
    [
      "er",
      "y</w>"
    ],
    [
      "P",
      "ar"
    ],
    [
      "is",
      "su"
    ],
    [
      "ur",
      "ity</w>"
    ],
    [
      "f",
      "ood</w>"
    ],
    [
      "h",
      "ol"
    ],
    [
      "c",
      "all"
    ],
    [
      "hum",
      "an</w>"
    ],
    [
      "G",
      "re"
    ],
    [
      "par",
      "t</w>"
    ],
    [
      "i",
      "es,</w>"
    ],
    [
      "tr",
      "ain"
    ],
    [
      "P",
      "l"
    ],
    [
      "part",
      "ic"
    ],
    [
      "on",
      "d</w>"
    ],
    [
      "e",
      "y"
    ],
    [
      "on",
      "line</w>"
    ],
    [
      "ex",
      "c"
    ],
    [
      "in",
      "s</w>"
    ],
    [
      "i",
      "ev"
    ],
    [
      "as",
      "s</w>"
    ],
    [
      "compl",
      "et"
    ],
    [
      "fri",
      "end"
    ],
    [
      "Th",
      "ere</w>"
    ],
    [
      "l",
      "et"
    ],
    [
      "1",
      "0</w>"
    ],
    [
      "tr",
      "an"
    ],
    [
      "l",
      "ist"
    ],
    [
      "B",
      "r"
    ],
    [
      "in",
      "d</w>"
    ],
    [
      "con",
      "tr"
    ],
    [
      "as",
      "es</w>"
    ],
    [
      "gr",
      "ou"
    ],
    [
      "s",
      "ing"
    ],
    [
      "W",
      "e</w>"
    ],
    [
      "You",
      "</w>"
    ],
    [
      "es",
      "s.</w>"
    ],
    [
      "a",
      "z"
    ],
    [
      "h",
      "ear"
    ],
    [
      "str",
      "ateg"
    ],
    [
      "–",
      "</w>"
    ],
    [
      "de",
      "v"
    ],
    [
      "l",
      "ed</w>"
    ],
    [
      "num",
      "b"
    ],
    [
      "g",
      "am"
    ],
    [
      "s",
      "ame</w>"
    ],
    [
      "mod",
      "el</w>"
    ],
    [
      "pos",
      "e</w>"
    ],
    [
      "du",
      "e</w>"
    ],
    [
      "low",
      "</w>"
    ],
    [
      "an",
      ",</w>"
    ],
    [
      "su",
      "g"
    ],
    [
      "produc",
      "t</w>"
    ],
    [
      "I",
      "t"
    ],
    [
      "comput",
      "er</w>"
    ],
    [
      "I",
      "f</w>"
    ],
    [
      "are",
      "d</w>"
    ],
    [
      "f",
      "unc"
    ],
    [
      "t",
      "y</w>"
    ],
    [
      "k",
      "et</w>"
    ],
    [
      "m",
      "ill"
    ],
    [
      "team",
      "</w>"
    ],
    [
      "ent",
      "ly</w>"
    ],
    [
      "20",
      "2"
    ],
    [
      "ex",
      "</w>"
    ],
    [
      "chang",
      "e</w>"
    ],
    [
      "er",
      "n</w>"
    ],
    [
      "incre",
      "ase</w>"
    ],
    [
      "ro",
      "p"
    ],
    [
      "m",
      "ag"
    ],
    [
      "int",
      "ellig"
    ],
    [
      "produc",
      "t"
    ],
    [
      "l",
      "oo"
    ],
    [
      "on",
      ".</w>"
    ],
    [
      "tr",
      "av"
    ],
    [
      "and",
      "ing</w>"
    ],
    [
      "G",
      "r"
    ],
    [
      "mach",
      "ine</w>"
    ],
    [
      "7",
      ".</w>"
    ],
    [
      "l",
      "y,</w>"
    ],
    [
      "em",
      "ploy"
    ],
    [
      "pop",
      "ular</w>"
    ],
    [
      "pow",
      "er</w>"
    ],
    [
      "ure",
      ",</w>"
    ],
    [
      "ind",
      "ustr"
    ],
    [
      "me",
      "th"
    ],
    [
      "j",
      "ust</w>"
    ],
    [
      "t",
      "op</w>"
    ],
    [
      "C",
      "</w>"
    ],
    [
      "d",
      "own</w>"
    ],
    [
      "do",
      "es</w>"
    ],
    [
      "A",
      "c"
    ],
    [
      "ver",
      "y</w>"
    ],
    [
      "1",
      ",</w>"
    ],
    [
      "g",
      "ame</w>"
    ],
    [
      "s",
      "ure</w>"
    ],
    [
      "g",
      "overn"
    ],
    [
      "per",
      "at"
    ],
    [
      "b",
      "an"
    ],
    [
      "bec",
      "ome</w>"
    ],
    [
      "g",
      "l"
    ],
    [
      "em",
      "ents</w>"
    ],
    [
      "igh",
      "ts</w>"
    ],
    [
      "a",
      "ud"
    ],
    [
      "u",
      "t</w>"
    ],
    [
      "y",
      "z"
    ],
    [
      "mu",
      "ch</w>"
    ],
    [
      "sk",
      "ill"
    ],
    [
      "rap",
      "h"
    ],
    [
      "I",
      "'"
    ],
    [
      "l",
      "og"
    ],
    [
      "s",
      "a"
    ],
    [
      "k",
      "ey</w>"
    ],
    [
      "acc",
      "ur"
    ],
    [
      "ire",
      "d</w>"
    ],
    [
      "pr",
      "i"
    ],
    [
      "wh",
      "y</w>"
    ],
    [
      "g",
      "lobal</w>"
    ],
    [
      "le",
      "g"
    ],
    [
      "in",
      "k</w>"
    ],
    [
      "qu",
      "ick"
    ],
    [
      "aut",
      "om"
    ],
    [
      "pers",
      "on</w>"
    ],
    [
      "s",
      "un"
    ],
    [
      "o",
      "ot"
    ],
    [
      "d",
      "em"
    ],
    [
      "eng",
      "ine"
    ],
    [
      "s",
      "eas"
    ],
    [
      "s",
      "er"
    ],
    [
      "A",
      "n</w>"
    ],
    [
      "re",
      "st"
    ],
    [
      "e",
      "'s</w>"
    ],
    [
      "i",
      "a,</w>"
    ],
    [
      "1",
      "7"
    ],
    [
      "b",
      "or"
    ],
    [
      "appl",
      "ic"
    ],
    [
      "b",
      "ir"
    ],
    [
      "sol",
      "v"
    ],
    [
      "W",
      "i"
    ],
    [
      "Joh",
      "n</w>"
    ],
    [
      "tem",
      "perat"
    ],
    [
      "ch",
      "ing</w>"
    ],
    [
      "r",
      "en"
    ],
    [
      "al",
      ".</w>"
    ],
    [
      "publ",
      "ic</w>"
    ],
    [
      "d",
      "ig"
    ],
    [
      "gre",
      "at"
    ],
    [
      "typ",
      "ically</w>"
    ],
    [
      "experi",
      "ence</w>"
    ],
    [
      "inv",
      "est"
    ],
    [
      "le",
      "vel"
    ],
    [
      "L",
      "e"
    ],
    [
      "h",
      "igh</w>"
    ],
    [
      "re",
      "duc"
    ],
    [
      "wor",
      "ds</w>"
    ],
    [
      "l",
      "ong</w>"
    ],
    [
      "19",
      "8"
    ],
    [
      "N",
      "or"
    ],
    [
      "ne",
      "w"
    ],
    [
      "r",
      "un"
    ],
    [
      "act",
      "ion</w>"
    ],
    [
      "b",
      "</w>"
    ],
    [
      "e",
      "th"
    ],
    [
      "m",
      "an</w>"
    ],
    [
      "ist",
      "s</w>"
    ],
    [
      "year",
      "s</w>"
    ],
    [
      "st",
      "re"
    ],
    [
      "ib",
      "ut"
    ],
    [
      "ent",
      ".</w>"
    ],
    [
      "fl",
      "u"
    ],
    [
      "p",
      "i"
    ],
    [
      "a",
      "king</w>"
    ],
    [
      "h",
      "ou"
    ],
    [
      "s",
      "w"
    ],
    [
      "ev",
      "er</w>"
    ],
    [
      "me",
      "an"
    ],
    [
      "af",
      "f"
    ],
    [
      "mult",
      "i"
    ],
    [
      "2",
      ",</w>"
    ],
    [
      "ation",
      "s.</w>"
    ],
    [
      "ag",
      "ain"
    ],
    [
      "s",
      "af"
    ],
    [
      "us",
      "er</w>"
    ],
    [
      "n",
      "or"
    ],
    [
      "a",
      "k</w>"
    ],
    [
      "p",
      "ric"
    ],
    [
      "det",
      "er"
    ],
    [
      "l",
      "and</w>"
    ],
    [
      "ag",
      "e.</w>"
    ],
    [
      "s",
      "o"
    ],
    [
      "s",
      "cho"
    ],
    [
      "h",
      "ome</w>"
    ],
    [
      "succ",
      "ess"
    ],
    [
      "--",
      "--"
    ],
    [
      "heal",
      "th</w>"
    ],
    [
      "inter",
      "n"
    ],
    [
      "sel",
      "f"
    ],
    [
      "comp",
      "any</w>"
    ],
    [
      "st",
      "ep"
    ],
    [
      "_",
      "_"
    ],
    [
      "with",
      "out</w>"
    ],
    [
      "rec",
      "ogn"
    ],
    [
      "respon",
      "s"
    ],
    [
      "l",
      "im"
    ],
    [
      "ent",
      ",</w>"
    ],
    [
      "\"",
      ",</w>"
    ],
    [
      "bac",
      "k"
    ],
    [
      "v",
      "eg"
    ],
    [
      "com",
      "b"
    ],
    [
      "is",
      "m</w>"
    ],
    [
      "c",
      "an"
    ],
    [
      "be",
      "aut"
    ],
    [
      "c",
      "at"
    ],
    [
      "cod",
      "e</w>"
    ],
    [
      "an",
      "ds</w>"
    ],
    [
      "res",
      "s"
    ],
    [
      "l",
      "ing</w>"
    ],
    [
      "Com",
      "p"
    ],
    [
      "c",
      "are</w>"
    ],
    [
      "g",
      "en"
    ],
    [
      "yth",
      "on</w>"
    ],
    [
      "5",
      "0"
    ],
    [
      ".",
      "\"</w>"
    ],
    [
      "ic",
      "k</w>"
    ],
    [
      "le",
      "ad</w>"
    ],
    [
      "adv",
      "ant"
    ],
    [
      "algorith",
      "m</w>"
    ],
    [
      "fe",
      "w</w>"
    ],
    [
      "t",
      "it"
    ],
    [
      "tim",
      "e.</w>"
    ],
    [
      "C",
      "ol"
    ],
    [
      "tas",
      "ks</w>"
    ],
    [
      "a",
      "h"
    ],
    [
      "fam",
      "ily</w>"
    ],
    [
      "dat",
      "ab"
    ],
    [
      "G",
      "ive</w>"
    ],
    [
      "ar",
      "t</w>"
    ],
    [
      "pr",
      "im"
    ],
    [
      "phys",
      "ical</w>"
    ],
    [
      "s",
      "ite</w>"
    ],
    [
      "A",
      "p"
    ],
    [
      "E",
      "ar"
    ],
    [
      "th",
      "ose</w>"
    ],
    [
      "or",
      "ig"
    ],
    [
      "c",
      "ity</w>"
    ],
    [
      "ev",
      "er,</w>"
    ],
    [
      "id",
      "ent</w>"
    ],
    [
      "f",
      "our</w>"
    ],
    [
      "busin",
      "ess</w>"
    ],
    [
      "feat",
      "ures</w>"
    ],
    [
      "g",
      "o</w>"
    ],
    [
      "call",
      "ed</w>"
    ],
    [
      "d",
      "ent"
    ],
    [
      "A",
      "s"
    ],
    [
      "maj",
      "or</w>"
    ],
    [
      "soc",
      "i"
    ],
    [
      "incre",
      "as"
    ],
    [
      "min",
      "ut"
    ],
    [
      "s",
      "?</w>"
    ],
    [
      "w",
      "al"
    ],
    [
      "st",
      "art"
    ],
    [
      "T",
      "o</w>"
    ],
    [
      "l",
      "iv"
    ],
    [
      "imp",
      "act</w>"
    ],
    [
      "ke",
      "ep</w>"
    ],
    [
      "busin",
      "ess"
    ],
    [
      "dif",
      "fic"
    ],
    [
      "lear",
      "n"
    ],
    [
      "comp",
      "et"
    ],
    [
      "fin",
      "anc"
    ],
    [
      "ens",
      "ure</w>"
    ],
    [
      "m",
      "p"
    ],
    [
      "an",
      "ts</w>"
    ],
    [
      "clim",
      "ate</w>"
    ],
    [
      "g",
      "er</w>"
    ],
    [
      "Fin",
      "ally,</w>"
    ],
    [
      "ic",
      "es</w>"
    ],
    [
      "o",
      "s</w>"
    ],
    [
      "en",
      "n"
    ],
    [
      "provid",
      "ing</w>"
    ],
    [
      "ros",
      "s</w>"
    ],
    [
      "ib",
      "il"
    ],
    [
      "op",
      "p"
    ],
    [
      "se",
      "qu"
    ],
    [
      "us",
      "s"
    ],
    [
      "vari",
      "ety</w>"
    ],
    [
      "E",
      "u"
    ],
    [
      "cre",
      "ating</w>"
    ],
    [
      "f",
      "ur"
    ],
    [
      "enc",
      "e,</w>"
    ],
    [
      "re",
      "pres"
    ],
    [
      "a",
      "ther</w>"
    ],
    [
      "S",
      "ou"
    ],
    [
      "St",
      "ates</w>"
    ],
    [
      "ish",
      "ed</w>"
    ],
    [
      "port",
      "un"
    ],
    [
      "5",
      ",</w>"
    ],
    [
      "curr",
      "ent</w>"
    ],
    [
      "re",
      "al"
    ],
    [
      "h",
      "app"
    ],
    [
      "b",
      "ur"
    ],
    [
      "co",
      "st"
    ],
    [
      "ident",
      "ify</w>"
    ],
    [
      "ever",
      "y"
    ],
    [
      "s",
      "id"
    ],
    [
      "Wor",
      "ld</w>"
    ],
    [
      "20",
      "</w>"
    ],
    [
      "f",
      "ig"
    ],
    [
      "al",
      "ways</w>"
    ],
    [
      "c",
      "ult"
    ],
    [
      "em",
      "</w>"
    ],
    [
      "o",
      "x"
    ],
    [
      "s",
      "ever"
    ],
    [
      "in",
      "st"
    ],
    [
      ",",
      "00"
    ],
    [
      "at",
      "ely</w>"
    ],
    [
      "c",
      "am"
    ],
    [
      "prof",
      "ess"
    ],
    [
      "tran",
      "sp"
    ],
    [
      "S",
      "um"
    ],
    [
      "h",
      "er"
    ],
    [
      "s",
      "ch"
    ],
    [
      "d",
      "on"
    ],
    [
      "help",
      "s</w>"
    ],
    [
      "pla",
      "y</w>"
    ],
    [
      "L",
      "ist</w>"
    ],
    [
      "au",
      "th"
    ],
    [
      "ne",
      "ver</w>"
    ],
    [
      "n",
      "ec"
    ],
    [
      "op",
      "portun"
    ],
    [
      "allow",
      "s</w>"
    ],
    [
      "is",
      ",</w>"
    ],
    [
      "+",
      "</w>"
    ],
    [
      "econom",
      "ic</w>"
    ],
    [
      "wor",
      "d"
    ],
    [
      "iqu",
      "e</w>"
    ],
    [
      "wor",
      "ks</w>"
    ],
    [
      "worl",
      "d.</w>"
    ],
    [
      "l",
      "y.</w>"
    ],
    [
      "d",
      "og"
    ],
    [
      "fe",
      "el"
    ],
    [
      "ic",
      ",</w>"
    ],
    [
      "in",
      "te"
    ],
    [
      "in",
      "es</w>"
    ],
    [
      "al",
      "s.</w>"
    ],
    [
      "rel",
      "ation"
    ],
    [
      "vi",
      "ew"
    ],
    [
      "r",
      "ight</w>"
    ],
    [
      "w",
      "ell"
    ],
    [
      "ch",
      "all"
    ],
    [
      "od",
      "s</w>"
    ],
    [
      "ach",
      "iev"
    ],
    [
      "n",
      "ame</w>"
    ],
    [
      "oc",
      "k</w>"
    ],
    [
      "reg",
      "ul"
    ],
    [
      "end",
      "ing</w>"
    ],
    [
      "ow",
      "ever,</w>"
    ],
    [
      "or",
      ".</w>"
    ],
    [
      "i",
      ",</w>"
    ],
    [
      "a",
      "ur"
    ],
    [
      "artic",
      "le</w>"
    ],
    [
      "ch",
      "e"
    ],
    [
      "th",
      ",</w>"
    ],
    [
      "re",
      "turn</w>"
    ],
    [
      "C",
      "al"
    ],
    [
      "art",
      "ificial</w>"
    ],
    [
      "pl",
      "an</w>"
    ],
    [
      "s",
      "n"
    ],
    [
      "et",
      "s</w>"
    ],
    [
      "I",
      "dent"
    ],
    [
      "l",
      "y"
    ],
    [
      "he",
      "ad"
    ],
    [
      "sign",
      "ific"
    ],
    [
      "pl",
      "at"
    ],
    [
      "st",
      "y"
    ],
    [
      "tim",
      "e,</w>"
    ],
    [
      "po",
      "int"
    ],
    [
      "ul",
      "t</w>"
    ],
    [
      "m",
      "er</w>"
    ],
    [
      "pr",
      "iv"
    ],
    [
      "T",
      "</w>"
    ],
    [
      "b",
      "ro"
    ],
    [
      "off",
      "</w>"
    ],
    [
      "Ch",
      "in"
    ],
    [
      "f",
      "f"
    ],
    [
      "h",
      "om"
    ],
    [
      "lear",
      "n</w>"
    ],
    [
      "s",
      "ince</w>"
    ],
    [
      "ent",
      "ed</w>"
    ],
    [
      "kn",
      "owl"
    ],
    [
      "b",
      "el"
    ],
    [
      "b",
      "eli"
    ],
    [
      "incre",
      "ased</w>"
    ],
    [
      "T",
      "e"
    ],
    [
      "b",
      "er"
    ],
    [
      "l",
      "ight"
    ],
    [
      "again",
      "st</w>"
    ],
    [
      "rang",
      "e</w>"
    ],
    [
      "l",
      "it"
    ],
    [
      "re",
      "ad</w>"
    ],
    [
      "a",
      "x"
    ],
    [
      "cent",
      "ur"
    ],
    [
      "de",
      "f"
    ],
    [
      "St",
      "at"
    ],
    [
      "cont",
      "ent</w>"
    ],
    [
      "med",
      "ia</w>"
    ],
    [
      "oc",
      "i"
    ],
    [
      "rel",
      "ated</w>"
    ],
    [
      "us",
      "ually</w>"
    ],
    [
      "st",
      "ay</w>"
    ],
    [
      "re",
      "as"
    ],
    [
      "benef",
      "its</w>"
    ],
    [
      "w",
      "id"
    ],
    [
      "os",
      "ph"
    ],
    [
      "n",
      "ess</w>"
    ],
    [
      "l",
      "ab"
    ],
    [
      "b",
      "ook</w>"
    ],
    [
      "sever",
      "al</w>"
    ],
    [
      "8",
      ".</w>"
    ],
    [
      "poin",
      "ts</w>"
    ],
    [
      "ac",
      "y</w>"
    ],
    [
      "act",
      "ions</w>"
    ],
    [
      "ation",
      "s,</w>"
    ],
    [
      "ter",
      "m</w>"
    ],
    [
      "G",
      "er"
    ],
    [
      "pol",
      "it"
    ],
    [
      "r",
      "e</w>"
    ],
    [
      "sh",
      "ow"
    ],
    [
      "Ident",
      "ify</w>"
    ],
    [
      "am",
      "ount</w>"
    ],
    [
      "worl",
      "d"
    ],
    [
      "o",
      "k"
    ],
    [
      "y",
      "ear</w>"
    ],
    [
      "E",
      "l"
    ],
    [
      "al",
      "s,</w>"
    ],
    [
      "us",
      "ers</w>"
    ],
    [
      "ag",
      "ing</w>"
    ],
    [
      "custom",
      "ers</w>"
    ],
    [
      "19",
      "6"
    ],
    [
      "Q",
      "u"
    ],
    [
      "are",
      "a</w>"
    ],
    [
      "rec",
      "e"
    ],
    [
      "in",
      "put</w>"
    ],
    [
      "we",
      "e"
    ],
    [
      "cre",
      "at"
    ],
    [
      "pol",
      "l"
    ],
    [
      "on",
      "-"
    ],
    [
      "ta",
      "king</w>"
    ],
    [
      "cer",
      "tain</w>"
    ],
    [
      "activ",
      "ities</w>"
    ],
    [
      "hav",
      "ing</w>"
    ],
    [
      "19",
      "7"
    ],
    [
      "al",
      "e</w>"
    ],
    [
      "typ",
      "es</w>"
    ],
    [
      "ad",
      "i"
    ],
    [
      "develop",
      "ment</w>"
    ],
    [
      "di",
      "d</w>"
    ],
    [
      "item",
      "s</w>"
    ],
    [
      "re",
      "fer"
    ],
    [
      "3",
      ",</w>"
    ],
    [
      "chil",
      "dr"
    ],
    [
      "hist",
      "or"
    ],
    [
      "t",
      "om"
    ],
    [
      "u",
      "</w>"
    ],
    [
      "quick",
      "ly</w>"
    ],
    [
      "tur",
      "n"
    ],
    [
      "av",
      "ail"
    ],
    [
      "r",
      "y</w>"
    ],
    [
      "el",
      "e"
    ],
    [
      "b",
      "ot"
    ],
    [
      "trad",
      "ition"
    ],
    [
      "M",
      "ake</w>"
    ],
    [
      "con",
      "tain"
    ],
    [
      "par",
      "ag"
    ],
    [
      "O",
      "n</w>"
    ],
    [
      "er",
      "ful</w>"
    ],
    [
      "en",
      "s</w>"
    ],
    [
      "effici",
      "ent</w>"
    ],
    [
      "some",
      "thing</w>"
    ],
    [
      "H",
      "e"
    ],
    [
      "I'",
      "m</w>"
    ],
    [
      "sol",
      "ut"
    ],
    [
      "v",
      "e"
    ],
    [
      "ic",
      "h"
    ],
    [
      "en",
      ".</w>"
    ],
    [
      "nec",
      "ess"
    ],
    [
      "all",
      ",</w>"
    ],
    [
      "av",
      "er"
    ],
    [
      "es",
      ":</w>"
    ],
    [
      "st",
      "ore</w>"
    ],
    [
      "m",
      "ing</w>"
    ],
    [
      "b",
      "ut"
    ],
    [
      "l",
      "ast</w>"
    ],
    [
      "t",
      "ar"
    ],
    [
      ")",
      ":</w>"
    ],
    [
      "ol",
      "s</w>"
    ],
    [
      "C",
      "ar"
    ],
    [
      "f",
      "ill"
    ],
    [
      "sel",
      "f</w>"
    ],
    [
      "Pro",
      "v"
    ],
    [
      "web",
      "site</w>"
    ],
    [
      "job",
      "</w>"
    ],
    [
      "lar",
      "gest</w>"
    ],
    [
      "j",
      "our"
    ],
    [
      "vari",
      "ous</w>"
    ],
    [
      "B",
      "e"
    ],
    [
      "ail",
      "</w>"
    ],
    [
      "mill",
      "ion</w>"
    ],
    [
      "S",
      "te"
    ],
    [
      "poss",
      "ible</w>"
    ],
    [
      "health",
      "y</w>"
    ],
    [
      "cont",
      "ro"
    ],
    [
      "x",
      "im"
    ],
    [
      "orig",
      "in"
    ],
    [
      "ol",
      "ut"
    ],
    [
      "ad",
      "dition"
    ],
    [
      "qu",
      "ality</w>"
    ],
    [
      "in",
      "t</w>"
    ],
    [
      "gr",
      "ad"
    ],
    [
      "tog",
      "ether</w>"
    ],
    [
      "i",
      "k"
    ],
    [
      "R",
      "es"
    ],
    [
      "ar",
      "ds</w>"
    ],
    [
      "m",
      "o"
    ],
    [
      "g",
      "ive</w>"
    ],
    [
      "ex",
      "t</w>"
    ],
    [
      "or",
      "n"
    ],
    [
      "Wi",
      "th</w>"
    ],
    [
      "4",
      ",</w>"
    ],
    [
      "d",
      "om"
    ],
    [
      "h",
      "ar"
    ],
    [
      "underst",
      "and</w>"
    ],
    [
      "pos",
      "itive</w>"
    ],
    [
      "o",
      "d</w>"
    ],
    [
      "countr",
      "ies</w>"
    ],
    [
      "sh",
      "ort</w>"
    ],
    [
      "g",
      "e"
    ],
    [
      "Af",
      "ter</w>"
    ],
    [
      "veg",
      "et"
    ],
    [
      "y",
      "-"
    ],
    [
      "iti",
      "es.</w>"
    ],
    [
      "progr",
      "amm"
    ],
    [
      "sci",
      "ent"
    ],
    [
      "3",
      "0"
    ],
    [
      "l",
      "ay"
    ],
    [
      "d",
      "en</w>"
    ],
    [
      "D",
      "ev"
    ],
    [
      "pur",
      "ch"
    ],
    [
      "ro",
      "duc"
    ],
    [
      "with",
      "in</w>"
    ],
    [
      "it",
      "ing</w>"
    ],
    [
      "1",
      "5"
    ],
    [
      "abl",
      "es</w>"
    ],
    [
      "al",
      "ization</w>"
    ],
    [
      "in",
      "flu"
    ],
    [
      "loc",
      "al</w>"
    ],
    [
      "st",
      "ill</w>"
    ],
    [
      "ough",
      "t</w>"
    ],
    [
      "de",
      "fin"
    ],
    [
      "effect",
      "ive</w>"
    ],
    [
      "A",
      "I"
    ],
    [
      "end",
      "ed</w>"
    ],
    [
      "k",
      "s.</w>"
    ],
    [
      "yz",
      "e</w>"
    ],
    [
      "fam",
      "il"
    ],
    [
      "fr",
      "u"
    ],
    [
      "th",
      ".</w>"
    ],
    [
      "wor",
      "king</w>"
    ],
    [
      "f",
      "ast"
    ],
    [
      "th",
      "re"
    ],
    [
      "S",
      "</w>"
    ],
    [
      "fac",
      "e</w>"
    ],
    [
      "pi",
      "ec"
    ],
    [
      "in",
      "s"
    ],
    [
      "ivers",
      "ity</w>"
    ],
    [
      "mar",
      "ize</w>"
    ],
    [
      "requ",
      "ire"
    ],
    [
      "sit",
      "u"
    ],
    [
      "t",
      "ot"
    ],
    [
      "ev",
      "ent"
    ],
    [
      "peo",
      "pl"
    ],
    [
      "dig",
      "ital</w>"
    ],
    [
      "prom",
      "ot"
    ],
    [
      "bod",
      "y</w>"
    ],
    [
      ",00",
      "0</w>"
    ],
    [
      "le",
      "t</w>"
    ],
    [
      "y",
      "st"
    ],
    [
      "On",
      "ce</w>"
    ],
    [
      "underst",
      "anding</w>"
    ],
    [
      "f",
      "ood"
    ],
    [
      "cl",
      "os"
    ],
    [
      "med",
      "i"
    ],
    [
      "er",
      "n"
    ],
    [
      "provid",
      "es</w>"
    ],
    [
      "D",
      "</w>"
    ],
    [
      "at",
      "m"
    ],
    [
      "ent",
      "ion</w>"
    ],
    [
      "9",
      ".</w>"
    ],
    [
      "involv",
      "es</w>"
    ],
    [
      "S",
      "c"
    ],
    [
      "/",
      "</w>"
    ],
    [
      "anal",
      "ys"
    ],
    [
      "str",
      "ong</w>"
    ],
    [
      "ect",
      "ing</w>"
    ],
    [
      "ar",
      ",</w>"
    ],
    [
      "financ",
      "ial</w>"
    ],
    [
      "an",
      "y"
    ],
    [
      "act",
      "ive</w>"
    ],
    [
      "c",
      "ir"
    ],
    [
      "s",
      "or"
    ],
    [
      "ac",
      "ross</w>"
    ],
    [
      "ic",
      ".</w>"
    ],
    [
      "r",
      "i"
    ],
    [
      "ever",
      "y</w>"
    ],
    [
      "allow",
      "ing</w>"
    ],
    [
      "bec",
      "ame</w>"
    ],
    [
      "if",
      "ied</w>"
    ],
    [
      "servic",
      "es</w>"
    ],
    [
      "spec",
      "ific</w>"
    ],
    [
      "Fin",
      "d</w>"
    ],
    [
      "individ",
      "u"
    ],
    [
      "t",
      "un"
    ],
    [
      "pr",
      "int"
    ],
    [
      "US",
      "</w>"
    ],
    [
      "star",
      "t</w>"
    ],
    [
      "1",
      "6"
    ],
    [
      "el",
      "s</w>"
    ],
    [
      "o",
      ".</w>"
    ],
    [
      "in",
      "ation</w>"
    ],
    [
      "li",
      "k"
    ],
    [
      "sup",
      "port</w>"
    ],
    [
      "g",
      "enerate</w>"
    ],
    [
      "e",
      "an</w>"
    ],
    [
      "f",
      "ound"
    ],
    [
      "s",
      "le"
    ],
    [
      "M",
      "on"
    ],
    [
      "d",
      "ar"
    ],
    [
      "h",
      "im</w>"
    ],
    [
      "F",
      "or"
    ],
    [
      "atm",
      "osph"
    ],
    [
      "m",
      "iss"
    ],
    [
      "en",
      "ing</w>"
    ],
    [
      "p",
      "ap"
    ],
    [
      "sec",
      "ond</w>"
    ],
    [
      "w",
      "ard</w>"
    ],
    [
      "c",
      "ar</w>"
    ],
    [
      "mov",
      "ie</w>"
    ],
    [
      "pat",
      "tern"
    ],
    [
      "og",
      "raph"
    ],
    [
      "differ",
      "ence</w>"
    ],
    [
      "e",
      "i"
    ],
    [
      "•",
      "</w>"
    ],
    [
      "cre",
      "ative</w>"
    ],
    [
      "s",
      "ou"
    ],
    [
      "t",
      "able</w>"
    ],
    [
      "B",
      "l"
    ],
    [
      "T",
      "w"
    ],
    [
      "ass",
      "oci"
    ],
    [
      "l",
      "iving</w>"
    ],
    [
      "pos",
      "ed</w>"
    ],
    [
      "a",
      "i</w>"
    ],
    [
      "le",
      "ast</w>"
    ],
    [
      "cl",
      "ou"
    ],
    [
      "am",
      "s</w>"
    ],
    [
      "commun",
      "ic"
    ],
    [
      "re",
      "ach</w>"
    ],
    [
      "compl",
      "ex</w>"
    ],
    [
      "<",
      "/"
    ],
    [
      "intellig",
      "ence</w>"
    ],
    [
      "w",
      "on</w>"
    ],
    [
      "D",
      "r"
    ],
    [
      "exampl",
      "e,</w>"
    ],
    [
      "th",
      "ough</w>"
    ],
    [
      "y",
      "n"
    ],
    [
      "y",
      "oun"
    ],
    [
      "hou",
      "se</w>"
    ],
    [
      "1",
      "2"
    ],
    [
      "O",
      "r"
    ],
    [
      "er",
      "'s</w>"
    ],
    [
      "ment",
      ".</w>"
    ],
    [
      "res",
      "earch</w>"
    ],
    [
      "f",
      "oot"
    ],
    [
      "ex",
      "erc"
    ],
    [
      "S",
      "ug"
    ],
    [
      "lov",
      "e</w>"
    ],
    [
      "mat",
      "eri"
    ],
    [
      "se",
      "e</w>"
    ],
    [
      "m",
      ",</w>"
    ],
    [
      "market",
      "ing</w>"
    ],
    [
      "jo",
      "y</w>"
    ],
    [
      "ro",
      "c"
    ],
    [
      "iv",
      "er</w>"
    ],
    [
      "rec",
      "t</w>"
    ],
    [
      "v",
      "ide"
    ],
    [
      "resour",
      "ces</w>"
    ],
    [
      "\"",
      "The</w>"
    ],
    [
      "contro",
      "l</w>"
    ],
    [
      "popul",
      "ation</w>"
    ],
    [
      "om",
      "et"
    ],
    [
      "s",
      "i"
    ],
    [
      "b",
      "on</w>"
    ],
    [
      "an",
      "k</w>"
    ],
    [
      "n",
      "ow</w>"
    ],
    [
      "stud",
      "ents</w>"
    ],
    [
      "S",
      "e"
    ],
    [
      "al",
      "u"
    ],
    [
      "ear",
      "ly</w>"
    ],
    [
      "t",
      "le</w>"
    ],
    [
      "re",
      "di"
    ],
    [
      "mar",
      "ket</w>"
    ],
    [
      "ew",
      "able</w>"
    ],
    [
      "y",
      "'s</w>"
    ],
    [
      "H",
      "owever,</w>"
    ],
    [
      "s",
      "at"
    ],
    [
      "anc",
      "e,</w>"
    ],
    [
      "ex",
      "t"
    ],
    [
      "organ",
      "iz"
    ],
    [
      "re",
      "li"
    ],
    [
      "v",
      "ers"
    ],
    [
      "L",
      "</w>"
    ],
    [
      "re",
      "f"
    ],
    [
      "engine",
      "ering</w>"
    ],
    [
      "}",
      "</w>"
    ],
    [
      "P",
      "</w>"
    ],
    [
      "sh",
      "ap"
    ],
    [
      "ar",
      "ly</w>"
    ],
    [
      "n",
      "ight</w>"
    ],
    [
      "tradition",
      "al</w>"
    ],
    [
      "ing",
      "redi"
    ],
    [
      "ish",
      "ing</w>"
    ],
    [
      "multi",
      "ple</w>"
    ],
    [
      "n",
      "o"
    ],
    [
      "struct",
      "ure</w>"
    ],
    [
      "Prov",
      "ide</w>"
    ],
    [
      "cr",
      "ib"
    ],
    [
      "m",
      ".</w>"
    ],
    [
      "er",
      "-"
    ],
    [
      "val",
      "ue</w>"
    ],
    [
      "er",
      "g"
    ],
    [
      "eng",
      "th</w>"
    ],
    [
      "ap",
      "h"
    ],
    [
      "chall",
      "eng"
    ],
    [
      "em",
      "b"
    ],
    [
      "t",
      "abl"
    ],
    [
      "produc",
      "ts</w>"
    ],
    [
      "s",
      "earch</w>"
    ],
    [
      "diffic",
      "ult</w>"
    ],
    [
      "loo",
      "king</w>"
    ],
    [
      "mod",
      "ern</w>"
    ],
    [
      "inter",
      "est"
    ],
    [
      "some",
      "one</w>"
    ],
    [
      "ess",
      "ential</w>"
    ],
    [
      "oc",
      "k"
    ],
    [
      "olog",
      "y</w>"
    ],
    [
      "val",
      "id"
    ],
    [
      "d",
      "re"
    ],
    [
      "ne",
      "y</w>"
    ],
    [
      "Dev",
      "el"
    ],
    [
      "D",
      "at"
    ],
    [
      "b",
      "al"
    ],
    [
      "grou",
      "p</w>"
    ],
    [
      "n",
      "ut"
    ],
    [
      "anc",
      "es</w>"
    ],
    [
      "c",
      "it"
    ],
    [
      "d",
      "ro"
    ],
    [
      "lead",
      "ing</w>"
    ],
    [
      "r",
      "ain"
    ],
    [
      "up",
      "on</w>"
    ],
    [
      "S",
      "tr"
    ],
    [
      "de",
      "ep</w>"
    ],
    [
      "quest",
      "ions</w>"
    ],
    [
      "im",
      "m"
    ],
    [
      "th",
      "es"
    ],
    [
      "aw",
      "ay</w>"
    ],
    [
      "foc",
      "us</w>"
    ],
    [
      "t",
      "ow"
    ],
    [
      "b",
      "ig"
    ],
    [
      "b",
      "ul"
    ],
    [
      "o",
      "ther"
    ],
    [
      "sim",
      "il"
    ],
    [
      "dat",
      "a.</w>"
    ],
    [
      "el",
      "ements</w>"
    ],
    [
      "po",
      "st"
    ],
    [
      "dis",
      "eas"
    ],
    [
      "m",
      "ind"
    ],
    [
      "progr",
      "am</w>"
    ],
    [
      "electr",
      "ic</w>"
    ],
    [
      "iv",
      "ely</w>"
    ],
    [
      "net",
      "work</w>"
    ],
    [
      "”",
      "</w>"
    ],
    [
      "B",
      "o"
    ],
    [
      "i",
      "ally</w>"
    ],
    [
      "M",
      "y</w>"
    ],
    [
      "Y",
      "or"
    ],
    [
      "ob",
      "serv"
    ],
    [
      "ph",
      "r"
    ],
    [
      "k",
      "en</w>"
    ],
    [
      "th",
      "ings</w>"
    ],
    [
      "pow",
      "erful</w>"
    ],
    [
      "l",
      "aw"
    ],
    [
      "al",
      "ized</w>"
    ],
    [
      "countr",
      "y</w>"
    ],
    [
      "l",
      "e,</w>"
    ],
    [
      "w",
      "ant</w>"
    ],
    [
      "C",
      "an"
    ],
    [
      "employ",
      "e"
    ],
    [
      "t",
      "ual</w>"
    ],
    [
      "business",
      "es</w>"
    ],
    [
      "ic",
      "s,</w>"
    ],
    [
      "med",
      "ical</w>"
    ],
    [
      "rec",
      "ip"
    ],
    [
      "ass",
      "ist"
    ],
    [
      "buil",
      "d</w>"
    ],
    [
      "high",
      "er</w>"
    ],
    [
      "it",
      ",</w>"
    ],
    [
      "person",
      "al</w>"
    ],
    [
      "un",
      "ique</w>"
    ],
    [
      "s",
      "un</w>"
    ],
    [
      "beli",
      "ev"
    ],
    [
      "ib",
      "r"
    ],
    [
      "ser",
      "ies</w>"
    ],
    [
      "aud",
      "i"
    ],
    [
      "web",
      "</w>"
    ],
    [
      "chang",
      "es</w>"
    ],
    [
      "ef",
      "</w>"
    ],
    [
      "sec",
      "urity</w>"
    ],
    [
      "Sug",
      "gest</w>"
    ],
    [
      "l",
      "ook</w>"
    ],
    [
      "sour",
      "ce</w>"
    ],
    [
      "in",
      ",</w>"
    ],
    [
      "B",
      "y</w>"
    ],
    [
      "an",
      ".</w>"
    ],
    [
      "govern",
      "ment</w>"
    ],
    [
      "Ar",
      "t"
    ],
    [
      "n",
      "ext</w>"
    ],
    [
      "des",
      "crip"
    ],
    [
      "go",
      "ing</w>"
    ],
    [
      "m",
      "oun"
    ],
    [
      "pre",
      "v"
    ],
    [
      "19",
      "4"
    ],
    [
      "ment",
      "al</w>"
    ],
    [
      "O",
      "c"
    ],
    [
      "P",
      "ers"
    ],
    [
      "or",
      "s,</w>"
    ],
    [
      "Des",
      "ign</w>"
    ],
    [
      "J",
      "ap"
    ],
    [
      "c",
      "le</w>"
    ],
    [
      "im",
      "e</w>"
    ],
    [
      "h",
      "our"
    ],
    [
      "ob",
      "ject"
    ],
    [
      "ex",
      "per"
    ],
    [
      "success",
      "ful</w>"
    ],
    [
      "enc",
      "our"
    ],
    [
      "aver",
      "age</w>"
    ],
    [
      "ens",
      "ive</w>"
    ],
    [
      "mov",
      "e</w>"
    ],
    [
      "Sum",
      "marize</w>"
    ],
    [
      "allow",
      "</w>"
    ],
    [
      "ful",
      "l</w>"
    ],
    [
      "t",
      "s,</w>"
    ],
    [
      "c",
      "up</w>"
    ],
    [
      "enc",
      "es.</w>"
    ],
    [
      "f",
      "t</w>"
    ],
    [
      "t",
      "od"
    ],
    [
      "t",
      "t"
    ],
    [
      "c",
      "ause</w>"
    ],
    [
      "is",
      ".</w>"
    ],
    [
      "l",
      "e.</w>"
    ],
    [
      "su",
      "per"
    ],
    [
      "S",
      "ome</w>"
    ],
    [
      "inte",
      "gr"
    ],
    [
      "ne",
      "g"
    ],
    [
      "sour",
      "ces</w>"
    ],
    [
      "eff",
      "ects</w>"
    ],
    [
      "on",
      "es</w>"
    ],
    [
      "ans",
      "w"
    ],
    [
      "c",
      "u"
    ],
    [
      "d",
      "er</w>"
    ],
    [
      "h",
      "ic"
    ],
    [
      "re",
      "comm"
    ],
    [
      "step",
      "s</w>"
    ],
    [
      "mem",
      "b"
    ],
    [
      "In",
      "t"
    ],
    [
      "appro",
      "pri"
    ],
    [
      "environ",
      "ment</w>"
    ],
    [
      "et",
      ".</w>"
    ],
    [
      "ei",
      "ther</w>"
    ],
    [
      "em",
      "p"
    ],
    [
      "th",
      "ink</w>"
    ],
    [
      "w",
      "om"
    ],
    [
      "c",
      "oo"
    ],
    [
      "c",
      "rit"
    ],
    [
      "iv",
      "ed</w>"
    ],
    [
      "pa",
      "int"
    ],
    [
      "con",
      "sum"
    ],
    [
      "v",
      "el</w>"
    ],
    [
      "os",
      "s"
    ],
    [
      "j",
      "oy"
    ],
    [
      "l",
      "ive</w>"
    ],
    [
      "it",
      "'s</w>"
    ],
    [
      "at",
      ",</w>"
    ],
    [
      "consid",
      "ered</w>"
    ],
    [
      "lif",
      "e.</w>"
    ],
    [
      "N",
      "ational</w>"
    ],
    [
      "ar",
      "g"
    ],
    [
      "qu",
      "al"
    ],
    [
      "ris",
      "k</w>"
    ],
    [
      "v",
      "ol"
    ],
    [
      "Sou",
      "th</w>"
    ],
    [
      "w",
      "ide</w>"
    ],
    [
      "Eng",
      "l"
    ],
    [
      "anc",
      "ed</w>"
    ],
    [
      "ig",
      "r"
    ],
    [
      "iv",
      "e,</w>"
    ],
    [
      "knowl",
      "edge</w>"
    ],
    [
      "comp",
      "on"
    ],
    [
      "ic",
      "t</w>"
    ],
    [
      "Af",
      "ric"
    ],
    [
      "poin",
      "t</w>"
    ],
    [
      "m",
      "ess"
    ],
    [
      "o",
      "-"
    ],
    [
      "cor",
      "ding</w>"
    ],
    [
      "d",
      "ay,</w>"
    ],
    [
      "includ",
      "es</w>"
    ],
    [
      "kn",
      "ow</w>"
    ],
    [
      "sing",
      "le</w>"
    ],
    [
      "spec",
      "ies</w>"
    ],
    [
      "t",
      "on</w>"
    ],
    [
      "at",
      "s</w>"
    ],
    [
      "deter",
      "min"
    ],
    [
      "D",
      "e"
    ],
    [
      "fiel",
      "d</w>"
    ],
    [
      "sur",
      "v"
    ],
    [
      "D",
      "ec"
    ],
    [
      "G",
      "e"
    ],
    [
      "commun",
      "ication</w>"
    ],
    [
      "Fr",
      "om</w>"
    ],
    [
      "int",
      "roduc"
    ],
    [
      "need",
      "s</w>"
    ],
    [
      "d",
      "iv"
    ],
    [
      "ex",
      "ist"
    ],
    [
      "m",
      "ine</w>"
    ],
    [
      "st",
      "it"
    ],
    [
      "th",
      "s</w>"
    ],
    [
      "1",
      "."
    ],
    [
      "I",
      "m"
    ],
    [
      "f",
      "ree</w>"
    ],
    [
      "m",
      "ight</w>"
    ],
    [
      "n",
      "on-"
    ],
    [
      "em",
      "ber</w>"
    ],
    [
      "em",
      "ot"
    ],
    [
      "R",
      "ec"
    ],
    [
      "des",
      "crib"
    ],
    [
      "ure",
      "d</w>"
    ],
    [
      "us",
      "h"
    ],
    [
      "B",
      "rit"
    ],
    [
      "em",
      "iss"
    ],
    [
      "or",
      "d</w>"
    ],
    [
      "tot",
      "al</w>"
    ],
    [
      "car",
      "bon</w>"
    ],
    [
      "cre",
      "ated</w>"
    ],
    [
      "se",
      "en</w>"
    ],
    [
      "web",
      "sit"
    ],
    [
      "P",
      "e"
    ],
    [
      "po",
      "em</w>"
    ],
    [
      "techn",
      "iqu"
    ],
    [
      "iv",
      "e.</w>"
    ],
    [
      "necess",
      "ary</w>"
    ],
    [
      "play",
      "ed</w>"
    ],
    [
      "jec",
      "ts</w>"
    ],
    [
      "them",
      ".</w>"
    ],
    [
      "dist",
      "r"
    ],
    [
      "pro",
      "per"
    ],
    [
      "su",
      "st"
    ],
    [
      "ve",
      "hic"
    ],
    [
      "ren",
      "ewable</w>"
    ],
    [
      "*",
      "</w>"
    ],
    [
      "det",
      "ail"
    ],
    [
      "ing",
      "s,</w>"
    ],
    [
      "A",
      "ustr"
    ],
    [
      "G",
      "P"
    ],
    [
      "ec",
      "urity</w>"
    ],
    [
      "s",
      "qu"
    ],
    [
      "y",
      "?</w>"
    ],
    [
      "ent",
      "r"
    ],
    [
      "g",
      "ing</w>"
    ],
    [
      "N",
      "e"
    ],
    [
      "rap",
      "h</w>"
    ],
    [
      "skill",
      "s</w>"
    ],
    [
      "eg",
      "g"
    ],
    [
      "mon",
      "ey</w>"
    ],
    [
      "t",
      "s.</w>"
    ],
    [
      "or",
      "s.</w>"
    ],
    [
      "pol",
      "ic"
    ],
    [
      "v",
      "o"
    ],
    [
      "Wh",
      "o</w>"
    ],
    [
      "Wh",
      "y</w>"
    ],
    [
      "as",
      ",</w>"
    ],
    [
      "en",
      "ed</w>"
    ],
    [
      "sum",
      "mar"
    ],
    [
      "t",
      "al"
    ],
    [
      "for",
      "c"
    ],
    [
      "n",
      "ov"
    ],
    [
      "re",
      "ach"
    ],
    [
      "v",
      "e</w>"
    ],
    [
      "fre",
      "sh"
    ],
    [
      "rest",
      "aur"
    ],
    [
      "self",
      "-"
    ],
    [
      "d",
      "er"
    ],
    [
      "m",
      "id"
    ],
    [
      "arr",
      "y</w>"
    ],
    [
      "ro",
      "w</w>"
    ],
    [
      "thr",
      "ough"
    ],
    [
      "transp",
      "ort"
    ],
    [
      "P",
      "re"
    ],
    [
      "ement",
      ".</w>"
    ],
    [
      "lik",
      "ely</w>"
    ],
    [
      "M",
      "an"
    ],
    [
      "adv",
      "ent"
    ],
    [
      "cal",
      "cul"
    ],
    [
      "ch",
      "es</w>"
    ],
    [
      "me",
      "ans</w>"
    ],
    [
      "model",
      "s</w>"
    ],
    [
      "nam",
      "ed</w>"
    ],
    [
      "t",
      "our"
    ],
    [
      "ight",
      ",</w>"
    ],
    [
      "th",
      "ir"
    ],
    [
      "10",
      ".</w>"
    ],
    [
      "de",
      "gre"
    ],
    [
      "er",
      "e"
    ],
    [
      "s",
      "av"
    ],
    [
      "s",
      "on</w>"
    ],
    [
      "to",
      "o</w>"
    ],
    [
      "associ",
      "ated</w>"
    ],
    [
      "fri",
      "ends</w>"
    ],
    [
      "s",
      "ense</w>"
    ],
    [
      "ev",
      "alu"
    ],
    [
      "ug",
      "h"
    ],
    [
      "trac",
      "t</w>"
    ],
    [
      "An",
      "al"
    ],
    [
      "devel",
      "op</w>"
    ],
    [
      "b",
      "at"
    ],
    [
      "charact",
      "er"
    ],
    [
      "el",
      "y,</w>"
    ],
    [
      "ang",
      "e</w>"
    ],
    [
      "h",
      "or"
    ],
    [
      "n",
      "er"
    ],
    [
      "dat",
      "a,</w>"
    ],
    [
      "p",
      "ack"
    ],
    [
      "ro",
      "om"
    ],
    [
      "#",
      "</w>"
    ],
    [
      "et",
      ",</w>"
    ],
    [
      "h",
      "ard</w>"
    ],
    [
      "expl",
      "ore</w>"
    ],
    [
      "loc",
      "ated</w>"
    ],
    [
      "of",
      "fer"
    ],
    [
      "op",
      "en</w>"
    ],
    [
      "ov",
      "e</w>"
    ],
    [
      "scho",
      "ol</w>"
    ],
    [
      "beg",
      "an</w>"
    ],
    [
      "ight",
      ".</w>"
    ],
    [
      "w",
      "ind"
    ],
    [
      "O",
      "ut"
    ],
    [
      "in",
      "ed</w>"
    ],
    [
      "conv",
      "ers"
    ],
    [
      "es",
      "ter"
    ],
    [
      "y",
      "stem"
    ],
    [
      "1",
      "/"
    ],
    [
      "fam",
      "ous</w>"
    ],
    [
      "m",
      "om"
    ],
    [
      "ex",
      "press"
    ],
    [
      "import",
      "ance</w>"
    ],
    [
      "individ",
      "ual</w>"
    ],
    [
      "numb",
      "ers</w>"
    ],
    [
      "7",
      ",</w>"
    ],
    [
      "b",
      "ill"
    ],
    [
      "di",
      "rect"
    ],
    [
      "of",
      "fe"
    ],
    [
      "r",
      "ul"
    ],
    [
      "y",
      ":</w>"
    ],
    [
      "a",
      "th</w>"
    ],
    [
      "appropri",
      "ate</w>"
    ],
    [
      "form",
      "s</w>"
    ],
    [
      "sm",
      "all"
    ],
    [
      "Fr",
      "en"
    ],
    [
      "ment",
      ",</w>"
    ],
    [
      "u",
      "s,</w>"
    ],
    [
      "ob",
      "ile</w>"
    ],
    [
      "play",
      "er</w>"
    ],
    [
      "train",
      "ing</w>"
    ],
    [
      "design",
      "ed</w>"
    ],
    [
      "fe",
      "el</w>"
    ],
    [
      "tr",
      "i"
    ],
    [
      "youn",
      "g</w>"
    ],
    [
      "in",
      "ing</w>"
    ],
    [
      "bor",
      "n</w>"
    ],
    [
      "ent",
      "s.</w>"
    ],
    [
      "iti",
      "es,</w>"
    ],
    [
      "bec",
      "om"
    ],
    [
      "play",
      "ing</w>"
    ],
    [
      "h",
      "op"
    ],
    [
      "perform",
      "ance</w>"
    ],
    [
      "ch",
      "ed</w>"
    ],
    [
      "pro",
      "ject</w>"
    ],
    [
      "r",
      "ac"
    ],
    [
      "reduc",
      "ing</w>"
    ],
    [
      "{",
      "</w>"
    ],
    [
      "ab",
      "or"
    ],
    [
      "ing",
      "s.</w>"
    ],
    [
      "ur",
      "</w>"
    ],
    [
      "tr",
      "y</w>"
    ],
    [
      "great",
      "er</w>"
    ],
    [
      "in",
      "put"
    ],
    [
      "ph",
      "ot"
    ],
    [
      "algorith",
      "ms</w>"
    ],
    [
      "es",
      "ts</w>"
    ],
    [
      "is",
      "ing</w>"
    ],
    [
      "st",
      "and"
    ],
    [
      "R",
      "ob"
    ],
    [
      "e",
      "."
    ],
    [
      "problem",
      "</w>"
    ],
    [
      "respon",
      "se</w>"
    ],
    [
      "F",
      "ur"
    ],
    [
      "ca",
      "used</w>"
    ],
    [
      "hear",
      "t</w>"
    ],
    [
      "ship",
      "s</w>"
    ],
    [
      "writ",
      "ing</w>"
    ],
    [
      "al",
      "ong</w>"
    ],
    [
      "compan",
      "ies</w>"
    ],
    [
      "i",
      "ous</w>"
    ],
    [
      "It",
      "'s</w>"
    ],
    [
      "O",
      "p"
    ],
    [
      "an",
      "other</w>"
    ],
    [
      "le",
      "vel</w>"
    ],
    [
      "p",
      "ay"
    ],
    [
      "trans",
      "form"
    ],
    [
      "W",
      "e"
    ],
    [
      "sh",
      "ow</w>"
    ],
    [
      "1",
      "4"
    ],
    [
      "low",
      "er</w>"
    ],
    [
      "-",
      "based</w>"
    ],
    [
      "f",
      "el"
    ],
    [
      "improv",
      "ed</w>"
    ],
    [
      "charact",
      "er</w>"
    ],
    [
      "fur",
      "ther</w>"
    ],
    [
      "F",
      "ir"
    ],
    [
      "f",
      "u"
    ],
    [
      "A",
      "P"
    ],
    [
      "eas",
      "y</w>"
    ],
    [
      "mem",
      "ber</w>"
    ],
    [
      "or",
      "ies</w>"
    ],
    [
      "prot",
      "ect</w>"
    ],
    [
      "6",
      ",</w>"
    ],
    [
      "Cl",
      "ass"
    ],
    [
      "he",
      "at</w>"
    ],
    [
      "ip",
      "s</w>"
    ],
    [
      "W",
      "ar</w>"
    ],
    [
      "sup",
      "pl"
    ],
    [
      "te",
      "ach"
    ],
    [
      "w",
      "ast"
    ],
    [
      "S",
      "w"
    ],
    [
      "grou",
      "p"
    ],
    [
      "disc",
      "over"
    ],
    [
      "parag",
      "raph</w>"
    ],
    [
      "r",
      "ate</w>"
    ],
    [
      "des",
      "cribe</w>"
    ],
    [
      "19",
      "</w>"
    ],
    [
      "off",
      "er</w>"
    ],
    [
      "ch",
      ",</w>"
    ],
    [
      "it",
      "ions</w>"
    ],
    [
      "pro",
      "g"
    ],
    [
      "P",
      "ython</w>"
    ],
    [
      "d",
      "own"
    ],
    [
      "func",
      "tion</w>"
    ],
    [
      "re",
      "view</w>"
    ],
    [
      "advant",
      "ages</w>"
    ],
    [
      "process",
      "ing</w>"
    ],
    [
      "sp",
      "ac"
    ],
    [
      "sp",
      "or"
    ],
    [
      "E",
      "d"
    ],
    [
      "b",
      "ud"
    ],
    [
      "bo",
      "ard</w>"
    ],
    [
      "cor",
      "por"
    ],
    [
      "feel",
      "ing</w>"
    ],
    [
      "t",
      "ure</w>"
    ],
    [
      "com",
      "es</w>"
    ],
    [
      "sp",
      "ace</w>"
    ],
    [
      "t",
      "in"
    ],
    [
      "er",
      "ous</w>"
    ],
    [
      "ist",
      "ic</w>"
    ],
    [
      "datab",
      "ases</w>"
    ],
    [
      "on",
      "ic</w>"
    ],
    [
      "n",
      "'t</w>"
    ],
    [
      "v",
      "ill"
    ],
    [
      "d",
      "ay"
    ],
    [
      "It",
      "al"
    ],
    [
      "y",
      "t"
    ],
    [
      "anim",
      "als</w>"
    ],
    [
      "ad",
      "d</w>"
    ],
    [
      "pr",
      "inc"
    ],
    [
      "D",
      "is"
    ],
    [
      "es",
      "?</w>"
    ],
    [
      "og",
      "</w>"
    ],
    [
      "temperat",
      "ure</w>"
    ],
    [
      "we",
      "ather</w>"
    ],
    [
      "b",
      "all"
    ],
    [
      "cam",
      "pa"
    ],
    [
      "on",
      "e.</w>"
    ],
    [
      "ap",
      "pe"
    ],
    [
      "le",
      "av"
    ],
    [
      "pur",
      "pose</w>"
    ],
    [
      "ter",
      ",</w>"
    ],
    [
      "wh",
      "ite</w>"
    ],
    [
      "19",
      "5"
    ],
    [
      "h",
      "im"
    ],
    [
      "sc",
      "en"
    ],
    [
      "4",
      "0"
    ],
    [
      "r",
      "adi"
    ],
    [
      "mean",
      "ing</w>"
    ],
    [
      "ther",
      "n</w>"
    ],
    [
      "ag",
      "n"
    ],
    [
      "avail",
      "able</w>"
    ],
    [
      "ide",
      "a</w>"
    ],
    [
      "contr",
      "ibut"
    ],
    [
      "e",
      "\"</w>"
    ],
    [
      "ed",
      "er"
    ],
    [
      "est",
      "abl"
    ],
    [
      "in",
      "k"
    ],
    [
      "b",
      "row"
    ],
    [
      "for",
      "est"
    ],
    [
      "mus",
      "ic</w>"
    ],
    [
      "oc",
      "cur"
    ],
    [
      "per",
      "f"
    ],
    [
      "un",
      "e</w>"
    ],
    [
      "writ",
      "ten</w>"
    ],
    [
      "B",
      "</w>"
    ],
    [
      "M",
      "</w>"
    ],
    [
      "ibil",
      "ity</w>"
    ],
    [
      "F",
      "l"
    ],
    [
      "hum",
      "an"
    ],
    [
      "M",
      "ach"
    ],
    [
      "hist",
      "ory</w>"
    ],
    [
      "s",
      "pl"
    ],
    [
      "pla",
      "st"
    ],
    [
      "Ch",
      "ar"
    ],
    [
      "T",
      "ake</w>"
    ],
    [
      "h",
      "on"
    ],
    [
      "2",
      "5"
    ],
    [
      "i",
      "bl"
    ],
    [
      "t",
      "ion"
    ],
    [
      "s",
      "eri"
    ],
    [
      "childr",
      "en</w>"
    ],
    [
      "level",
      "s</w>"
    ],
    [
      "d",
      "ays</w>"
    ],
    [
      "gr",
      "ound</w>"
    ],
    [
      "signific",
      "ant</w>"
    ],
    [
      "O",
      "</w>"
    ],
    [
      "ell",
      "ing</w>"
    ],
    [
      "read",
      "y</w>"
    ],
    [
      "rele",
      "ased</w>"
    ],
    [
      "S",
      ".</w>"
    ],
    [
      "f",
      "av"
    ],
    [
      "D",
      "i"
    ],
    [
      "ar",
      "ies</w>"
    ],
    [
      "s",
      "we"
    ],
    [
      "3",
      "0</w>"
    ],
    [
      "educ",
      "ation</w>"
    ],
    [
      "g",
      "ar"
    ],
    [
      "h",
      "al"
    ],
    [
      "in",
      "ning</w>"
    ],
    [
      "T",
      "ell</w>"
    ],
    [
      "fill",
      "ed</w>"
    ],
    [
      "profess",
      "ional</w>"
    ],
    [
      "im",
      "ag"
    ],
    [
      "struc",
      "t</w>"
    ],
    [
      "or",
      "ed</w>"
    ],
    [
      "In",
      "tern"
    ],
    [
      "cont",
      "rol"
    ],
    [
      "applic",
      "ations</w>"
    ],
    [
      "con",
      "f"
    ],
    [
      "e",
      "z"
    ],
    [
      "sat",
      "is"
    ],
    [
      "trav",
      "el</w>"
    ],
    [
      "ide",
      "as</w>"
    ],
    [
      "mor",
      "e,</w>"
    ],
    [
      "p",
      "ast</w>"
    ],
    [
      "ta",
      "kes</w>"
    ],
    [
      "G",
      "u"
    ],
    [
      "N",
      "o</w>"
    ],
    [
      "requ",
      "ire</w>"
    ],
    [
      "sour",
      "c"
    ],
    [
      "Al",
      "l</w>"
    ],
    [
      "f",
      "ar"
    ],
    [
      "he",
      "ad</w>"
    ],
    [
      "ic",
      "e.</w>"
    ],
    [
      "over",
      "all</w>"
    ],
    [
      "b",
      "ers"
    ],
    [
      "meth",
      "ods</w>"
    ],
    [
      "M",
      "us"
    ],
    [
      "at",
      ".</w>"
    ],
    [
      "ch",
      "em"
    ],
    [
      "spe",
      "e"
    ],
    [
      "N",
      "am"
    ],
    [
      "Nor",
      "th</w>"
    ],
    [
      "ent",
      "s,</w>"
    ],
    [
      "ip",
      "p"
    ],
    [
      "y",
      "our"
    ],
    [
      "are",
      "as</w>"
    ],
    [
      "complet",
      "e</w>"
    ],
    [
      "m",
      "l</w>"
    ],
    [
      "Yor",
      "k</w>"
    ],
    [
      "int",
      "erv"
    ],
    [
      "sk",
      "y</w>"
    ],
    [
      "st",
      "ates</w>"
    ],
    [
      "u",
      "ary</w>"
    ],
    [
      "ag",
      "ue</w>"
    ],
    [
      "increas",
      "ing</w>"
    ],
    [
      "un",
      "ivers"
    ],
    [
      "S",
      "an</w>"
    ],
    [
      "is",
      "ed</w>"
    ],
    [
      "play",
      "ers</w>"
    ],
    [
      "ro",
      "le</w>"
    ],
    [
      "ter",
      "ms</w>"
    ],
    [
      "tes",
      "ting</w>"
    ],
    [
      "ke",
      "y"
    ],
    [
      "Comp",
      "are</w>"
    ],
    [
      "c",
      "ateg"
    ],
    [
      "ro",
      "om</w>"
    ],
    [
      "sh",
      "are</w>"
    ],
    [
      "c",
      "offe"
    ],
    [
      "Ad",
      "d</w>"
    ],
    [
      "I",
      "I"
    ],
    [
      "trac",
      "k</w>"
    ],
    [
      "dec",
      "id"
    ],
    [
      "um",
      ",</w>"
    ],
    [
      "com",
      "for"
    ],
    [
      "environment",
      ".</w>"
    ],
    [
      "seas",
      "on</w>"
    ],
    [
      "valid",
      "ation</w>"
    ],
    [
      "A",
      ".</w>"
    ],
    [
      "ev",
      "ents</w>"
    ],
    [
      "h",
      "ard"
    ],
    [
      "ic",
      "s.</w>"
    ],
    [
      "vir",
      "tual</w>"
    ],
    [
      "L",
      "ear"
    ],
    [
      "9",
      ",</w>"
    ],
    [
      "am",
      "ong</w>"
    ],
    [
      "ic",
      "ial</w>"
    ],
    [
      "po",
      "on</w>"
    ],
    [
      "y",
      "cl"
    ],
    [
      "in",
      "e,</w>"
    ],
    [
      "J",
      "an"
    ],
    [
      "Wh",
      "ich</w>"
    ],
    [
      "programm",
      "ing</w>"
    ],
    [
      "beaut",
      "if"
    ],
    [
      "if",
      "orn"
    ],
    [
      "mot",
      "iv"
    ],
    [
      "ep",
      "ar"
    ],
    [
      "Cal",
      "iforn"
    ],
    [
      "gre",
      "en</w>"
    ],
    [
      "coll",
      "abor"
    ],
    [
      "fil",
      "m</w>"
    ],
    [
      "sim",
      "ple</w>"
    ],
    [
      "V",
      "</w>"
    ],
    [
      "at",
      "tr"
    ],
    [
      "ex",
      "tr"
    ],
    [
      "health",
      "care</w>"
    ],
    [
      "lat",
      "er</w>"
    ],
    [
      "o",
      "es</w>"
    ],
    [
      "rele",
      "v"
    ],
    [
      "w",
      "ard"
    ],
    [
      "d",
      "ay.</w>"
    ],
    [
      "u",
      "bl"
    ],
    [
      "ver",
      "t"
    ],
    [
      "8",
      ",</w>"
    ],
    [
      "l",
      "os"
    ],
    [
      "nor",
      "m"
    ],
    [
      "reg",
      "ular</w>"
    ],
    [
      "set",
      "ting</w>"
    ],
    [
      "Can",
      "ad"
    ],
    [
      "d",
      "ate</w>"
    ],
    [
      "polit",
      "ical</w>"
    ],
    [
      "Fren",
      "ch</w>"
    ],
    [
      "environment",
      "al</w>"
    ],
    [
      "ful",
      "ly</w>"
    ],
    [
      "o",
      "il</w>"
    ],
    [
      "stat",
      "ement</w>"
    ],
    [
      "C",
      "oun"
    ],
    [
      "ch",
      ".</w>"
    ],
    [
      "ent",
      "ing</w>"
    ],
    [
      "10",
      "0</w>"
    ],
    [
      "ef",
      "for"
    ],
    [
      "er",
      "t</w>"
    ],
    [
      "ap",
      "p</w>"
    ],
    [
      "ar",
      "ing</w>"
    ],
    [
      "del",
      "iv"
    ],
    [
      "ect",
      "ive</w>"
    ],
    [
      "H",
      "is</w>"
    ],
    [
      "U",
      "se</w>"
    ],
    [
      "cy",
      "bers"
    ],
    [
      "Austr",
      "al"
    ],
    [
      "acc",
      "oun"
    ],
    [
      "Ch",
      "r"
    ],
    [
      "R",
      "ev"
    ],
    [
      "sp",
      "read</w>"
    ],
    [
      "Te",
      "chn"
    ],
    [
      "ap",
      "</w>"
    ],
    [
      "f",
      "er</w>"
    ],
    [
      "f",
      "requ"
    ],
    [
      "um",
      "p"
    ],
    [
      "1",
      "2</w>"
    ],
    [
      "system",
      ".</w>"
    ],
    [
      "Engl",
      "ish</w>"
    ],
    [
      "F",
      "e"
    ],
    [
      "b",
      "ound"
    ],
    [
      "charact",
      "ers</w>"
    ],
    [
      "cl",
      "us"
    ],
    [
      "em",
      "ail</w>"
    ],
    [
      "f",
      "un"
    ],
    [
      "ing",
      ":</w>"
    ],
    [
      "i",
      "a.</w>"
    ],
    [
      "w",
      "il"
    ],
    [
      "lin",
      "es</w>"
    ],
    [
      "ph",
      "one</w>"
    ],
    [
      "pro",
      "ject"
    ],
    [
      "r",
      "out"
    ],
    [
      "buil",
      "ding</w>"
    ],
    [
      "com",
      "ing</w>"
    ],
    [
      "grow",
      "th</w>"
    ],
    [
      "r",
      "u"
    ],
    [
      "tur",
      "al</w>"
    ],
    [
      "h",
      "ous"
    ],
    [
      "E",
      "m"
    ],
    [
      "Eu",
      "ro"
    ],
    [
      "boo",
      "ks</w>"
    ],
    [
      "br",
      "ing</w>"
    ],
    [
      "develop",
      "ed</w>"
    ],
    [
      "lo",
      "y"
    ],
    [
      "require",
      "s</w>"
    ],
    [
      "cons",
      "ist"
    ],
    [
      "ev",
      "ent</w>"
    ],
    [
      "high",
      "est</w>"
    ],
    [
      "im",
      "ent</w>"
    ],
    [
      "stud",
      "y</w>"
    ],
    [
      "tim",
      "es</w>"
    ],
    [
      "av",
      "o"
    ],
    [
      "en",
      "i"
    ],
    [
      "for",
      "ce</w>"
    ],
    [
      "ific",
      "ation</w>"
    ],
    [
      "iz",
      "es</w>"
    ],
    [
      "p",
      "ython</w>"
    ],
    [
      "sci",
      "ence</w>"
    ],
    [
      "are",
      ":</w>"
    ],
    [
      "cybers",
      "ecurity</w>"
    ],
    [
      "strateg",
      "ies</w>"
    ],
    [
      "m",
      "el"
    ],
    [
      "off",
      "ers</w>"
    ],
    [
      "Dat",
      "a</w>"
    ],
    [
      "R",
      "om"
    ],
    [
      "c",
      "</w>"
    ],
    [
      "c",
      "up"
    ],
    [
      "g",
      "est"
    ],
    [
      "ing",
      "ly</w>"
    ],
    [
      "olut",
      "ion"
    ],
    [
      "phr",
      "ase</w>"
    ],
    [
      "w",
      "w"
    ],
    [
      "M",
      "ed"
    ],
    [
      "am",
      "es</w>"
    ],
    [
      "feat",
      "ure</w>"
    ],
    [
      "in",
      "depend"
    ],
    [
      "p",
      "ite</w>"
    ],
    [
      "s",
      "cre"
    ],
    [
      "acc",
      "ess"
    ],
    [
      "ic",
      "ro"
    ],
    [
      "m",
      "obile</w>"
    ],
    [
      "m",
      "yst"
    ],
    [
      "pl",
      "ant"
    ],
    [
      "spe",
      "ed</w>"
    ],
    [
      "vis",
      "ion</w>"
    ],
    [
      "Indi",
      "a</w>"
    ],
    [
      "ent",
      "al</w>"
    ],
    [
      "g",
      "le</w>"
    ],
    [
      "Un",
      "iversity</w>"
    ],
    [
      "g",
      "ol"
    ],
    [
      "ta",
      "x"
    ],
    [
      "A",
      "t</w>"
    ],
    [
      "ex",
      "tre"
    ],
    [
      "rec",
      "ord"
    ],
    [
      "run",
      "ning</w>"
    ],
    [
      "att",
      "le</w>"
    ],
    [
      "it",
      "s,</w>"
    ],
    [
      "st",
      "ock</w>"
    ],
    [
      "M",
      "a"
    ],
    [
      "disc",
      "uss"
    ],
    [
      "ure",
      "s,</w>"
    ],
    [
      "s",
      "ave</w>"
    ],
    [
      "&",
      "</w>"
    ],
    [
      "Fr",
      "anc"
    ],
    [
      "M",
      "o"
    ],
    [
      "ou",
      "l"
    ],
    [
      "sup",
      "port"
    ],
    [
      "u",
      "ly</w>"
    ],
    [
      "ar",
      "s</w>"
    ],
    [
      "pos",
      "ition</w>"
    ],
    [
      "r",
      "ound"
    ],
    [
      "he",
      "av"
    ],
    [
      "j",
      "ust"
    ],
    [
      "1",
      "3"
    ],
    [
      "a",
      "ther"
    ],
    [
      "arg",
      "um"
    ],
    [
      "r",
      "yp"
    ],
    [
      "s",
      "impl"
    ],
    [
      "solv",
      "e</w>"
    ],
    [
      "re",
      "t"
    ],
    [
      "s",
      "ize</w>"
    ],
    [
      "en",
      "joy"
    ],
    [
      "prim",
      "ary</w>"
    ],
    [
      "U",
      "."
    ],
    [
      "sum",
      "mer</w>"
    ],
    [
      "R",
      "o"
    ],
    [
      "d",
      "one</w>"
    ],
    [
      "i",
      "a"
    ],
    [
      "pric",
      "e</w>"
    ],
    [
      "C",
      ".</w>"
    ],
    [
      "Indi",
      "an</w>"
    ],
    [
      "mi",
      "x"
    ],
    [
      "Brit",
      "ish</w>"
    ],
    [
      "Fur",
      "ther"
    ],
    [
      "c",
      "op"
    ],
    [
      "m",
      "it"
    ],
    [
      "B",
      "ut</w>"
    ],
    [
      "d",
      "e</w>"
    ],
    [
      "ici",
      "ous</w>"
    ],
    [
      "to",
      "ols</w>"
    ],
    [
      "Further",
      "more,</w>"
    ],
    [
      "la",
      "un"
    ],
    [
      "pattern",
      "s</w>"
    ],
    [
      "techniqu",
      "es</w>"
    ],
    [
      "a",
      "i"
    ],
    [
      "c",
      "ell"
    ],
    [
      "c",
      "ent</w>"
    ],
    [
      "me",
      "et"
    ],
    [
      "ne",
      "ural</w>"
    ],
    [
      "ap",
      "i</w>"
    ],
    [
      "set",
      "t"
    ],
    [
      "simil",
      "ar</w>"
    ],
    [
      "B",
      "u"
    ],
    [
      "e",
      "k</w>"
    ],
    [
      "gener",
      "ally</w>"
    ],
    [
      "min",
      "im"
    ],
    [
      "re",
      "s</w>"
    ],
    [
      "through",
      "out</w>"
    ],
    [
      "Con",
      "struct</w>"
    ],
    [
      "go",
      "als</w>"
    ],
    [
      "l",
      "ate</w>"
    ],
    [
      "p",
      "ep"
    ],
    [
      "r",
      "up"
    ],
    [
      "se",
      "a</w>"
    ],
    [
      "v",
      "ent"
    ],
    [
      "Eu",
      "rop"
    ],
    [
      "tre",
      "at"
    ],
    [
      "c",
      "iv"
    ],
    [
      "eng",
      "ag"
    ],
    [
      "resour",
      "c"
    ],
    [
      "s",
      "ound</w>"
    ],
    [
      "ud",
      "e</w>"
    ],
    [
      "decis",
      "ions</w>"
    ],
    [
      "et",
      "ic</w>"
    ],
    [
      "al",
      "b"
    ],
    [
      "hand",
      ",</w>"
    ],
    [
      "i",
      "o</w>"
    ],
    [
      "pro",
      "duce</w>"
    ],
    [
      "s",
      "ens"
    ],
    [
      "te",
      "as"
    ],
    [
      "well",
      "-"
    ],
    [
      "S",
      "erv"
    ],
    [
      "as",
      "p"
    ],
    [
      "origin",
      "al</w>"
    ],
    [
      "amp",
      "ion"
    ],
    [
      "and",
      ",</w>"
    ],
    [
      "ur",
      "r"
    ],
    [
      "P",
      "res"
    ],
    [
      "f",
      "ind"
    ],
    [
      "re",
      "fl"
    ],
    [
      "to",
      "-"
    ],
    [
      "analys",
      "is</w>"
    ],
    [
      "don",
      "'t</w>"
    ],
    [
      "en",
      "abl"
    ],
    [
      "i",
      "pl"
    ],
    [
      "im",
      "in"
    ],
    [
      "ous",
      "ly</w>"
    ],
    [
      "ul",
      "ner"
    ],
    [
      "an",
      "k"
    ],
    [
      "ed",
      "d"
    ],
    [
      "inn",
      "ov"
    ],
    [
      "le",
      "ft</w>"
    ],
    [
      "vide",
      "o</w>"
    ],
    [
      "z",
      "</w>"
    ],
    [
      "Th",
      "ree</w>"
    ],
    [
      "in",
      "e.</w>"
    ],
    [
      "individu",
      "als</w>"
    ],
    [
      "p",
      "and"
    ],
    [
      "ta",
      "st"
    ],
    [
      "con",
      "d"
    ],
    [
      "experi",
      "enc"
    ],
    [
      "f",
      "lo"
    ],
    [
      "Euro",
      "pe"
    ],
    [
      "bl",
      "ack</w>"
    ],
    [
      "resul",
      "ts</w>"
    ],
    [
      "5",
      "0</w>"
    ],
    [
      "consid",
      "er</w>"
    ],
    [
      "sol",
      "ar</w>"
    ],
    [
      "ure",
      "s.</w>"
    ],
    [
      "A",
      "pr"
    ],
    [
      "C",
      "o"
    ],
    [
      "en",
      "'s</w>"
    ],
    [
      "en",
      "ough</w>"
    ],
    [
      "ine",
      "-"
    ],
    [
      "l",
      "l</w>"
    ],
    [
      "n",
      "av"
    ],
    [
      "S",
      "u"
    ],
    [
      "ta",
      "ken</w>"
    ],
    [
      "/",
      "/"
    ],
    [
      "an",
      "a</w>"
    ],
    [
      "hel",
      "d</w>"
    ],
    [
      "t",
      "ook</w>"
    ],
    [
      "Art",
      "ificial</w>"
    ],
    [
      "inn",
      "er</w>"
    ],
    [
      "plan",
      "ts</w>"
    ],
    [
      "strateg",
      "y</w>"
    ],
    [
      "sy",
      "m"
    ],
    [
      "Mach",
      "ine</w>"
    ],
    [
      "ol",
      "ution</w>"
    ],
    [
      "pract",
      "ice</w>"
    ],
    [
      "mon",
      "it"
    ],
    [
      "relev",
      "ant</w>"
    ],
    [
      "w",
      "ent</w>"
    ],
    [
      "comm",
      "only</w>"
    ],
    [
      "ic",
      "e,</w>"
    ],
    [
      "qu",
      "ant"
    ],
    [
      "s",
      ")</w>"
    ],
    [
      "beaut",
      "y</w>"
    ],
    [
      "er",
      "at"
    ],
    [
      "olog",
      "ical</w>"
    ],
    [
      "1",
      "5</w>"
    ],
    [
      "ris",
      "e</w>"
    ],
    [
      "ub",
      "</w>"
    ],
    [
      "R",
      "ep"
    ],
    [
      "do",
      "or</w>"
    ],
    [
      "em",
      "ic</w>"
    ],
    [
      "g",
      "en</w>"
    ],
    [
      "w",
      "ay"
    ],
    [
      "eff",
      "ect</w>"
    ],
    [
      "friend",
      "ly</w>"
    ],
    [
      "il",
      ",</w>"
    ],
    [
      "d",
      "am"
    ],
    [
      "ste",
      "p</w>"
    ],
    [
      "Class",
      "ify</w>"
    ],
    [
      "industr",
      "y</w>"
    ],
    [
      "spec",
      "ial</w>"
    ],
    [
      "C",
      "O"
    ],
    [
      "Wh",
      "ile</w>"
    ],
    [
      "ma",
      "xim"
    ],
    [
      "pap",
      "er</w>"
    ],
    [
      "we",
      "ight</w>"
    ],
    [
      "anim",
      "al</w>"
    ],
    [
      "as",
      "h</w>"
    ],
    [
      "l",
      "ack</w>"
    ],
    [
      "differ",
      "ences</w>"
    ],
    [
      "f",
      "ire"
    ],
    [
      "t",
      "ion.</w>"
    ],
    [
      "you",
      "'"
    ],
    [
      "dis",
      "h"
    ],
    [
      "er",
      ":</w>"
    ],
    [
      "lar",
      "ger</w>"
    ],
    [
      "S",
      "al"
    ],
    [
      "ac",
      "ts</w>"
    ],
    [
      "exp",
      "ected</w>"
    ],
    [
      "iv",
      "ity</w>"
    ],
    [
      "ma",
      "z"
    ],
    [
      "sh",
      "opp"
    ],
    [
      "beautif",
      "ul</w>"
    ],
    [
      "g",
      "ain</w>"
    ],
    [
      "rec",
      "ent</w>"
    ],
    [
      "2",
      "."
    ],
    [
      "becom",
      "ing</w>"
    ],
    [
      "col",
      "or</w>"
    ],
    [
      "de",
      "f</w>"
    ],
    [
      "i",
      "Ph"
    ],
    [
      "ingredi",
      "ents</w>"
    ],
    [
      "sol",
      "ution</w>"
    ],
    [
      "us",
      ".</w>"
    ],
    [
      "provid",
      "ed</w>"
    ],
    [
      "hum",
      "ans</w>"
    ],
    [
      "manag",
      "ement</w>"
    ],
    [
      "det",
      "ect</w>"
    ],
    [
      "intern",
      "et</w>"
    ],
    [
      "od",
      "e</w>"
    ],
    [
      "C",
      "or"
    ],
    [
      "t",
      "il"
    ],
    [
      "work",
      ".</w>"
    ],
    [
      "6",
      "0"
    ],
    [
      "c",
      "ities</w>"
    ],
    [
      "lo",
      "t</w>"
    ],
    [
      "re",
      "turn"
    ],
    [
      "s",
      "cor"
    ],
    [
      "eas",
      "ily</w>"
    ],
    [
      "ing",
      "?</w>"
    ],
    [
      "s",
      "epar"
    ],
    [
      "Ap",
      "ple</w>"
    ],
    [
      "I",
      "ts</w>"
    ],
    [
      "Tw",
      "o</w>"
    ],
    [
      "get",
      "ting</w>"
    ],
    [
      "stud",
      "ent</w>"
    ],
    [
      "ut",
      "il"
    ],
    [
      "p",
      "s"
    ],
    [
      "deter",
      "mine</w>"
    ],
    [
      "ill",
      "i"
    ],
    [
      "rec",
      "over"
    ],
    [
      "sty",
      "le</w>"
    ],
    [
      "P",
      "ol"
    ],
    [
      "S",
      "ec"
    ],
    [
      "app",
      "ear"
    ],
    [
      "perf",
      "ect</w>"
    ],
    [
      "su",
      "m</w>"
    ],
    [
      "succ",
      "ess</w>"
    ],
    [
      "Gre",
      "at</w>"
    ],
    [
      "need",
      "ed</w>"
    ],
    [
      "out",
      "put</w>"
    ],
    [
      "plan",
      "ning</w>"
    ],
    [
      "t",
      "on"
    ],
    [
      "appl",
      "ication</w>"
    ],
    [
      "A",
      "ut"
    ],
    [
      "cre",
      "d"
    ],
    [
      "develop",
      "ing</w>"
    ],
    [
      "hab",
      "it"
    ],
    [
      "poll",
      "ut"
    ],
    [
      "s",
      "ong</w>"
    ],
    [
      "w",
      "ood"
    ],
    [
      "ant",
      "ed</w>"
    ],
    [
      "conn",
      "ected</w>"
    ],
    [
      "man",
      "u"
    ],
    [
      "arr",
      "ay</w>"
    ],
    [
      "id",
      "ence</w>"
    ],
    [
      "Com",
      "pose</w>"
    ],
    [
      "oun",
      "ds</w>"
    ],
    [
      "p",
      "et"
    ],
    [
      "pres",
      "s</w>"
    ],
    [
      "tas",
      "k</w>"
    ],
    [
      "th",
      "ough"
    ],
    [
      "um",
      "b"
    ],
    [
      "Th",
      "r"
    ],
    [
      "activ",
      "ity</w>"
    ],
    [
      "ad",
      "ap"
    ],
    [
      "as",
      "k</w>"
    ],
    [
      "care",
      "er</w>"
    ],
    [
      "p",
      "age</w>"
    ],
    [
      "pre",
      "p"
    ],
    [
      "2",
      "4"
    ],
    [
      "P",
      "ot"
    ],
    [
      "ant",
      "ly</w>"
    ],
    [
      "as",
      ".</w>"
    ],
    [
      "decis",
      "ion</w>"
    ],
    [
      "m",
      "igr"
    ],
    [
      "saf",
      "ety</w>"
    ],
    [
      "start",
      "ed</w>"
    ],
    [
      "Anal",
      "yze</w>"
    ],
    [
      "addition",
      "al</w>"
    ],
    [
      "p",
      "rec"
    ],
    [
      "a",
      "im"
    ],
    [
      "col",
      "ors</w>"
    ],
    [
      "con",
      "dition"
    ],
    [
      "expl",
      "or"
    ],
    [
      "ph",
      "as"
    ],
    [
      "spor",
      "ts</w>"
    ],
    [
      "att",
      "ention</w>"
    ],
    [
      "descrip",
      "tion</w>"
    ],
    [
      "es",
      "p"
    ],
    [
      "rec",
      "ord</w>"
    ],
    [
      "1",
      ","
    ],
    [
      "A",
      "maz"
    ],
    [
      "C",
      "ome</w>"
    ],
    [
      "Th",
      "e"
    ],
    [
      "c",
      "ast"
    ],
    [
      "el",
      ",</w>"
    ],
    [
      "G",
      "oo"
    ],
    [
      "H",
      "ere</w>"
    ],
    [
      "abl",
      "e,</w>"
    ],
    [
      "ag",
      "u"
    ],
    [
      "atmosph",
      "er"
    ],
    [
      "ed",
      "g"
    ],
    [
      "em",
      "erg"
    ],
    [
      "enc",
      "ryp"
    ],
    [
      "0",
      "."
    ],
    [
      "19",
      "3"
    ],
    [
      "decid",
      "ed</w>"
    ],
    [
      "electr",
      "ic"
    ],
    [
      "am",
      "oun"
    ],
    [
      "d",
      "le</w>"
    ],
    [
      "thir",
      "d</w>"
    ],
    [
      "U.",
      "S.</w>"
    ],
    [
      "b",
      "ar"
    ],
    [
      "minut",
      "es</w>"
    ],
    [
      "ter",
      ".</w>"
    ],
    [
      "Y",
      "our</w>"
    ],
    [
      "year",
      "s.</w>"
    ],
    [
      "A",
      "m"
    ],
    [
      "at",
      "ic</w>"
    ],
    [
      "memb",
      "ers</w>"
    ],
    [
      "res",
      "ear"
    ],
    [
      "worl",
      "d,</w>"
    ],
    [
      "R",
      "E"
    ],
    [
      "d",
      "ail"
    ],
    [
      "it",
      "able</w>"
    ],
    [
      "mag",
      "ical</w>"
    ],
    [
      "st",
      ",</w>"
    ],
    [
      "b",
      "ot</w>"
    ],
    [
      "ec",
      "ut"
    ],
    [
      "iz",
      "z"
    ],
    [
      "n",
      "ational</w>"
    ],
    [
      "s",
      ";</w>"
    ],
    [
      "t",
      "ion,</w>"
    ],
    [
      "w",
      "av"
    ],
    [
      "S",
      "up"
    ],
    [
      "es",
      "tim"
    ],
    [
      "g",
      "ir"
    ],
    [
      "gam",
      "es</w>"
    ],
    [
      "l",
      "a</w>"
    ],
    [
      "new",
      "s</w>"
    ],
    [
      "solut",
      "ions</w>"
    ],
    [
      "cl",
      "ass</w>"
    ],
    [
      "in",
      "struc"
    ],
    [
      "W",
      "at"
    ],
    [
      "r",
      "id"
    ],
    [
      "Pers",
      "on</w>"
    ],
    [
      "fact",
      "ors</w>"
    ],
    [
      "t",
      "ell</w>"
    ],
    [
      "ant",
      ".</w>"
    ],
    [
      "le",
      "ge</w>"
    ],
    [
      "ne",
      "ar</w>"
    ],
    [
      "vis",
      "ed</w>"
    ],
    [
      "I",
      "s</w>"
    ],
    [
      "go",
      "al</w>"
    ],
    [
      "h",
      "tt"
    ],
    [
      "in",
      "king</w>"
    ],
    [
      "pro",
      "te"
    ],
    [
      "1",
      "1</w>"
    ],
    [
      "abl",
      "e.</w>"
    ],
    [
      "h",
      "a"
    ],
    [
      "el",
      "y.</w>"
    ],
    [
      "k",
      "ind</w>"
    ],
    [
      ":",
      "//"
    ],
    [
      "B",
      ".</w>"
    ],
    [
      "fel",
      "t</w>"
    ],
    [
      "sec",
      "ure</w>"
    ],
    [
      "G",
      "ol"
    ],
    [
      "as",
      "c"
    ],
    [
      "f",
      "all"
    ],
    [
      "qu",
      "ery</w>"
    ],
    [
      "re",
      "lat"
    ],
    [
      "intern",
      "ational</w>"
    ],
    [
      "ist",
      "ics</w>"
    ],
    [
      "bas",
      "ic</w>"
    ],
    [
      "sel",
      "v"
    ],
    [
      "t",
      "own</w>"
    ],
    [
      "N",
      "at"
    ],
    [
      "la",
      "w</w>"
    ],
    [
      "soci",
      "et"
    ],
    [
      "thes",
      "is</w>"
    ],
    [
      "L",
      "ond"
    ],
    [
      "c",
      "ase</w>"
    ],
    [
      "en",
      "joy</w>"
    ],
    [
      "re",
      "pl"
    ],
    [
      "Devel",
      "op</w>"
    ],
    [
      "bl",
      "ue</w>"
    ],
    [
      "ent",
      "er"
    ],
    [
      "i",
      "-"
    ],
    [
      "id",
      "s</w>"
    ],
    [
      "im",
      "es</w>"
    ],
    [
      "it",
      "ch"
    ],
    [
      "man",
      "age</w>"
    ],
    [
      "tar",
      "get</w>"
    ],
    [
      "g",
      "ard"
    ],
    [
      "in",
      "iti"
    ],
    [
      "sch",
      "em"
    ],
    [
      "u",
      "de"
    ],
    [
      "v",
      "ot"
    ],
    [
      "w",
      "ind</w>"
    ],
    [
      "con",
      "duc"
    ],
    [
      "contain",
      "s</w>"
    ],
    [
      "cor",
      "rect</w>"
    ],
    [
      "re",
      "view"
    ],
    [
      "addition",
      ",</w>"
    ],
    [
      "bre",
      "ak</w>"
    ],
    [
      "di",
      "rec"
    ],
    [
      "maint",
      "ain</w>"
    ],
    [
      "p",
      "ast"
    ],
    [
      "E",
      "</w>"
    ],
    [
      "ain",
      "ing</w>"
    ],
    [
      "con",
      "serv"
    ],
    [
      "experi",
      "ence.</w>"
    ],
    [
      "min",
      "ist"
    ],
    [
      "net",
      "works</w>"
    ],
    [
      "op",
      "in"
    ],
    [
      "problem",
      "s</w>"
    ],
    [
      "r",
      "iv"
    ],
    [
      "sent",
      "ence.</w>"
    ],
    [
      "teas",
      "poon</w>"
    ],
    [
      "H",
      "ar"
    ],
    [
      "bre",
      "ak"
    ],
    [
      "J",
      "av"
    ],
    [
      "long",
      "-"
    ],
    [
      "spee",
      "ch</w>"
    ],
    [
      "D",
      "uring</w>"
    ],
    [
      "ag",
      "on"
    ],
    [
      "hour",
      "s</w>"
    ],
    [
      "if",
      "t</w>"
    ],
    [
      "neg",
      "ative</w>"
    ],
    [
      "ob",
      "jects</w>"
    ],
    [
      "ow",
      ",</w>"
    ],
    [
      "scient",
      "ific</w>"
    ],
    [
      "v",
      "ulner"
    ],
    [
      "issu",
      "es</w>"
    ],
    [
      "l",
      "es,</w>"
    ],
    [
      "n",
      "er</w>"
    ],
    [
      "d",
      "ang"
    ],
    [
      "dec",
      "re"
    ],
    [
      "por",
      "ts</w>"
    ],
    [
      "M",
      "od"
    ],
    [
      "ash",
      "ing</w>"
    ],
    [
      "coffe",
      "e</w>"
    ],
    [
      "jour",
      "ney</w>"
    ],
    [
      "oth",
      "ers</w>"
    ],
    [
      "pro",
      "b"
    ],
    [
      "Europe",
      "an</w>"
    ],
    [
      "P",
      "o"
    ],
    [
      "event",
      "ually</w>"
    ],
    [
      "partic",
      "ip"
    ],
    [
      "prev",
      "ent</w>"
    ],
    [
      "res",
      "t</w>"
    ],
    [
      "te",
      "d.</w>"
    ],
    [
      "tow",
      "ards</w>"
    ],
    [
      "transport",
      "ation</w>"
    ],
    [
      "a",
      "-"
    ],
    [
      "comput",
      "ing</w>"
    ],
    [
      "h",
      "ot</w>"
    ],
    [
      "pre",
      "vi"
    ],
    [
      "anal",
      "yze</w>"
    ],
    [
      "ester",
      "n</w>"
    ],
    [
      "fast",
      "er</w>"
    ],
    [
      "htt",
      "ps"
    ],
    [
      "if",
      "ying</w>"
    ],
    [
      "r",
      "ing</w>"
    ],
    [
      "s",
      "il"
    ],
    [
      "nat",
      "ure</w>"
    ],
    [
      "opportun",
      "ities</w>"
    ],
    [
      "reg",
      "ard"
    ],
    [
      "s",
      "ong"
    ],
    [
      "sal",
      "es</w>"
    ],
    [
      "them",
      "at"
    ],
    [
      "In",
      "cre"
    ],
    [
      "compon",
      "ents</w>"
    ],
    [
      "d",
      "en"
    ],
    [
      "ement",
      ",</w>"
    ],
    [
      "f",
      "und"
    ],
    [
      "ic",
      "ed</w>"
    ],
    [
      "dail",
      "y</w>"
    ],
    [
      "fl",
      "av"
    ],
    [
      "https",
      "://"
    ],
    [
      "respons",
      "ible</w>"
    ],
    [
      "stre",
      "am"
    ],
    [
      "buil",
      "t</w>"
    ],
    [
      "2",
      ")</w>"
    ],
    [
      "20",
      "18"
    ],
    [
      "An",
      "d</w>"
    ],
    [
      "fav",
      "or"
    ],
    [
      "fig",
      "ur"
    ],
    [
      "land",
      ",</w>"
    ],
    [
      "long",
      "er</w>"
    ],
    [
      "on",
      "e,</w>"
    ],
    [
      "tre",
      "es</w>"
    ],
    [
      "vis",
      "u"
    ],
    [
      "AP",
      "I</w>"
    ],
    [
      "bo",
      "ard"
    ],
    [
      "exist",
      "ing</w>"
    ],
    [
      "ow",
      "s</w>"
    ],
    [
      "1",
      "1"
    ],
    [
      "ang",
      "</w>"
    ],
    [
      "at",
      "e,</w>"
    ],
    [
      "ch",
      "an"
    ],
    [
      "involv",
      "e</w>"
    ],
    [
      "issu",
      "e</w>"
    ],
    [
      "v",
      "ac"
    ],
    [
      "Apr",
      "il</w>"
    ],
    [
      "ic",
      "ated</w>"
    ],
    [
      "peri",
      "od</w>"
    ],
    [
      "S",
      "oc"
    ],
    [
      "dev",
      "ice</w>"
    ],
    [
      "lif",
      "e,</w>"
    ],
    [
      "ob",
      "ject</w>"
    ],
    [
      "on",
      "t</w>"
    ],
    [
      "r",
      "om"
    ],
    [
      "B",
      "ar"
    ],
    [
      "Oc",
      "t"
    ],
    [
      "S",
      "ep"
    ],
    [
      "c",
      "over"
    ],
    [
      "help",
      "ing</w>"
    ],
    [
      "pre",
      "fer"
    ],
    [
      "challeng",
      "es</w>"
    ],
    [
      "chang",
      "ed</w>"
    ],
    [
      "continu",
      "ous</w>"
    ],
    [
      "contr",
      "ast</w>"
    ],
    [
      "en",
      "ess</w>"
    ],
    [
      "r",
      "al</w>"
    ],
    [
      "'",
      ",</w>"
    ],
    [
      "----",
      "----"
    ],
    [
      "P",
      "le"
    ],
    [
      "clou",
      "d</w>"
    ],
    [
      "ine-",
      "tun"
    ],
    [
      "N",
      "ov"
    ],
    [
      "anal",
      "yt"
    ],
    [
      "car",
      "s</w>"
    ],
    [
      "cont",
      "act</w>"
    ],
    [
      "m",
      "al"
    ],
    [
      "par",
      "ts</w>"
    ],
    [
      "str",
      "ong"
    ],
    [
      "work",
      "ers</w>"
    ],
    [
      "R",
      "uss"
    ],
    [
      "con",
      "sump"
    ],
    [
      "f",
      "ar</w>"
    ],
    [
      "m",
      "is"
    ],
    [
      "sch",
      "ed"
    ],
    [
      "st",
      "ress</w>"
    ],
    [
      "tabl",
      "es"
    ],
    [
      "am",
      ",</w>"
    ],
    [
      "gu",
      "it"
    ],
    [
      "oun",
      "c"
    ],
    [
      "d",
      "ivers"
    ],
    [
      "emiss",
      "ions</w>"
    ],
    [
      "stit",
      "ut"
    ],
    [
      "t",
      "ree</w>"
    ],
    [
      "An",
      "g"
    ],
    [
      "C",
      "ity</w>"
    ],
    [
      "iz",
      "ation,</w>"
    ],
    [
      "produc",
      "ed</w>"
    ],
    [
      "J",
      "une</w>"
    ],
    [
      "e",
      "("
    ],
    [
      "ers",
      "e</w>"
    ],
    [
      "fr",
      "a"
    ],
    [
      "manu",
      "fact"
    ],
    [
      "oun",
      "d.</w>"
    ],
    [
      "solv",
      "ing</w>"
    ],
    [
      "ta",
      "il"
    ],
    [
      "Pe",
      "o"
    ],
    [
      "c",
      "and"
    ],
    [
      "mat",
      "ter</w>"
    ],
    [
      "plast",
      "ic</w>"
    ],
    [
      "tog",
      "eth"
    ],
    [
      "O",
      "ther</w>"
    ],
    [
      "b",
      "le</w>"
    ],
    [
      "cit",
      "iz"
    ],
    [
      "conn",
      "ect"
    ],
    [
      "dar",
      "k</w>"
    ],
    [
      "fl",
      "ex"
    ],
    [
      "high",
      "ly</w>"
    ],
    [
      "peopl",
      "e.</w>"
    ],
    [
      "pl",
      "eas"
    ],
    [
      "sust",
      "ainable</w>"
    ],
    [
      "your",
      "self</w>"
    ],
    [
      "GP",
      "T</w>"
    ],
    [
      "appro",
      "ach</w>"
    ],
    [
      "bas",
      "ket"
    ],
    [
      "con",
      "sequ"
    ],
    [
      "con",
      "tain</w>"
    ],
    [
      "lar",
      "g"
    ],
    [
      "spec",
      "i"
    ],
    [
      "R",
      "eg"
    ],
    [
      "f",
      "ast</w>"
    ],
    [
      "ol",
      "e</w>"
    ],
    [
      "sof",
      "t</w>"
    ],
    [
      "un",
      "it</w>"
    ],
    [
      "a",
      "w</w>"
    ],
    [
      "ch",
      "ain</w>"
    ],
    [
      "cost",
      "s</w>"
    ],
    [
      "d",
      "ivid"
    ],
    [
      "l",
      "ap"
    ],
    [
      "technolog",
      "ies</w>"
    ],
    [
      "c",
      "ele"
    ],
    [
      "2",
      "7"
    ],
    [
      "i",
      "el"
    ],
    [
      "i",
      "et"
    ],
    [
      "uc",
      "le"
    ],
    [
      "in",
      "come</w>"
    ],
    [
      "nav",
      "ig"
    ],
    [
      "out",
      "side</w>"
    ],
    [
      "sa",
      "w</w>"
    ],
    [
      "sh",
      "or"
    ],
    [
      "0",
      ",</w>"
    ],
    [
      "dr",
      "aw"
    ],
    [
      "inter",
      "est</w>"
    ],
    [
      "n",
      "it"
    ],
    [
      "Oct",
      "ob"
    ],
    [
      "process",
      "es</w>"
    ],
    [
      "M",
      "ay</w>"
    ],
    [
      "iPh",
      "one</w>"
    ],
    [
      "incl",
      "ude"
    ],
    [
      "it",
      "ch</w>"
    ],
    [
      "l",
      "ength</w>"
    ],
    [
      "n",
      ",</w>"
    ],
    [
      "s",
      "crip"
    ],
    [
      "t",
      "ro"
    ],
    [
      "auth",
      "or"
    ],
    [
      "relation",
      "ship</w>"
    ],
    [
      "c",
      "ame</w>"
    ],
    [
      "on",
      "ce</w>"
    ],
    [
      "sc",
      "al"
    ],
    [
      "tex",
      "t"
    ],
    [
      "S",
      "D"
    ],
    [
      "b",
      "err"
    ],
    [
      "er",
      "ial</w>"
    ],
    [
      "est",
      "y"
    ],
    [
      "in",
      "f"
    ],
    [
      "ma",
      "themat"
    ],
    [
      "w",
      "a"
    ],
    [
      "Mar",
      "ch</w>"
    ],
    [
      "Sep",
      "tem"
    ],
    [
      "ad",
      "vert"
    ],
    [
      "b",
      "ag"
    ],
    [
      "br",
      "an"
    ],
    [
      "centur",
      "y</w>"
    ],
    [
      "ex",
      "ic"
    ],
    [
      "ros",
      "s"
    ],
    [
      "war",
      "m"
    ],
    [
      ")",
      ";</w>"
    ],
    [
      "W",
      "al"
    ],
    [
      "cons",
      "ists</w>"
    ],
    [
      "di",
      "agn"
    ],
    [
      "ex",
      "ecut"
    ],
    [
      "le",
      "y</w>"
    ],
    [
      "Int",
      "ellig"
    ],
    [
      "Sc",
      "i"
    ],
    [
      "campa",
      "ign"
    ],
    [
      "con",
      "fl"
    ],
    [
      "materi",
      "als</w>"
    ],
    [
      "sur",
      "round"
    ],
    [
      "K",
      "ing"
    ],
    [
      "at",
      "e.</w>"
    ],
    [
      "bl",
      "u"
    ],
    [
      "g",
      "ent"
    ],
    [
      "oth",
      "er.</w>"
    ],
    [
      "t",
      "ou"
    ],
    [
      "b",
      "it</w>"
    ],
    [
      "e",
      ")</w>"
    ],
    [
      "e",
      "at</w>"
    ],
    [
      "ig",
      "</w>"
    ],
    [
      "r",
      "an"
    ],
    [
      "M",
      "al"
    ],
    [
      "ar",
      ".</w>"
    ],
    [
      "c",
      ".</w>"
    ],
    [
      "e",
      "an"
    ],
    [
      "lim",
      "ited</w>"
    ],
    [
      "trav",
      "el"
    ],
    [
      "H",
      "er"
    ],
    [
      "]",
      ",</w>"
    ],
    [
      "ation",
      ":</w>"
    ],
    [
      "ca",
      "uses</w>"
    ],
    [
      "ic",
      "ations</w>"
    ],
    [
      "it",
      "ary</w>"
    ],
    [
      "nov",
      "el</w>"
    ],
    [
      "small",
      "er</w>"
    ],
    [
      "em",
      "phas"
    ],
    [
      "exerc",
      "ise</w>"
    ],
    [
      "ind",
      "ex"
    ],
    [
      "y",
      "el"
    ],
    [
      "M",
      "or"
    ],
    [
      "accur",
      "ate</w>"
    ],
    [
      "end",
      "er</w>"
    ],
    [
      "flow",
      "</w>"
    ],
    [
      "A",
      "T"
    ],
    [
      "Tr",
      "ans"
    ],
    [
      "cap",
      "ital</w>"
    ],
    [
      "chang",
      "ing</w>"
    ],
    [
      "2",
      "8"
    ],
    [
      "fin",
      "al</w>"
    ],
    [
      "s",
      "ect"
    ],
    [
      "af",
      "t</w>"
    ],
    [
      "ant",
      "ic</w>"
    ],
    [
      "fresh",
      "</w>"
    ],
    [
      "ition",
      ",</w>"
    ],
    [
      "sym",
      "b"
    ],
    [
      "train",
      "ed</w>"
    ],
    [
      "ST",
      "</w>"
    ],
    [
      "i",
      "um</w>"
    ],
    [
      "piec",
      "e</w>"
    ],
    [
      "plat",
      "form</w>"
    ],
    [
      "Ear",
      "th</w>"
    ],
    [
      "be",
      "h"
    ],
    [
      "c",
      "o</w>"
    ],
    [
      "l",
      "ives</w>"
    ],
    [
      "priv",
      "il"
    ],
    [
      "us",
      "h</w>"
    ],
    [
      "D",
      "on"
    ],
    [
      "Ple",
      "ase</w>"
    ],
    [
      "acc",
      "ount</w>"
    ],
    [
      "d",
      "om</w>"
    ],
    [
      "l",
      "ess"
    ],
    [
      "t",
      "ele"
    ],
    [
      "tit",
      "le</w>"
    ],
    [
      "top",
      "ic</w>"
    ],
    [
      "exc",
      "ell"
    ],
    [
      "le",
      "-"
    ],
    [
      "print",
      "("
    ],
    [
      "purch",
      "ase</w>"
    ],
    [
      "T",
      "ur"
    ],
    [
      "atmosph",
      "ere</w>"
    ],
    [
      "ay",
      "ing</w>"
    ],
    [
      "chec",
      "k</w>"
    ],
    [
      "high",
      "-"
    ],
    [
      "person",
      "alized</w>"
    ],
    [
      "pres",
      "ent</w>"
    ],
    [
      "ro",
      "bot"
    ],
    [
      "t",
      "ips</w>"
    ],
    [
      "world",
      "'s</w>"
    ],
    [
      "Ste",
      "p</w>"
    ],
    [
      "ang",
      "le</w>"
    ],
    [
      "are",
      ",</w>"
    ],
    [
      "bre",
      "a"
    ],
    [
      "dr",
      "iven</w>"
    ],
    [
      "inform",
      "ation.</w>"
    ],
    [
      "k",
      "ing"
    ],
    [
      "l",
      "ost</w>"
    ],
    [
      "t",
      "u"
    ],
    [
      "am",
      ".</w>"
    ],
    [
      "i",
      "ke</w>"
    ],
    [
      "increas",
      "ingly</w>"
    ],
    [
      "per",
      "form</w>"
    ],
    [
      "str",
      "um"
    ],
    [
      "A",
      "t"
    ],
    [
      "Stat",
      "es.</w>"
    ],
    [
      "__",
      "__"
    ],
    [
      "a",
      "'s</w>"
    ],
    [
      "m",
      "ol"
    ],
    [
      "Com",
      "put"
    ],
    [
      "D",
      "av"
    ],
    [
      "include",
      ":</w>"
    ],
    [
      "poll",
      "ution</w>"
    ],
    [
      "promot",
      "e</w>"
    ],
    [
      "saf",
      "e</w>"
    ],
    [
      "Com",
      "m"
    ],
    [
      "D",
      "el"
    ],
    [
      "Ear",
      "th"
    ],
    [
      "answ",
      "er</w>"
    ],
    [
      "bat",
      "ter"
    ],
    [
      "bu",
      "y</w>"
    ],
    [
      "em",
      "ail"
    ],
    [
      "in",
      "ary</w>"
    ],
    [
      "o",
      "ts</w>"
    ],
    [
      "=",
      "\""
    ],
    [
      "Ge",
      "or"
    ],
    [
      "M",
      "in"
    ],
    [
      "amoun",
      "ts</w>"
    ],
    [
      "dr",
      "iving</w>"
    ],
    [
      "it",
      "s.</w>"
    ],
    [
      "satis",
      "fact"
    ],
    [
      "star",
      "s</w>"
    ],
    [
      "str",
      "ug"
    ],
    [
      "C",
      "ap"
    ],
    [
      "I",
      "s"
    ],
    [
      "dog",
      "</w>"
    ],
    [
      "ep",
      "ing</w>"
    ],
    [
      "poss",
      "ibl"
    ],
    [
      "3",
      "."
    ],
    [
      "Bo",
      "th</w>"
    ],
    [
      "M",
      "c"
    ],
    [
      "am",
      "az"
    ],
    [
      "et",
      "er"
    ],
    [
      "gre",
      "en"
    ],
    [
      "plac",
      "es</w>"
    ],
    [
      "E",
      "ver"
    ],
    [
      "H",
      "ol"
    ],
    [
      "cl",
      "ose</w>"
    ],
    [
      "eng",
      "aging</w>"
    ],
    [
      "equ",
      "al</w>"
    ],
    [
      "foot",
      "ball</w>"
    ],
    [
      "i",
      "ef</w>"
    ],
    [
      "i",
      "ew</w>"
    ],
    [
      "oc",
      "t"
    ],
    [
      "s",
      "em"
    ],
    [
      "se",
      "em"
    ],
    [
      "appro",
      "xim"
    ],
    [
      "distr",
      "ibut"
    ],
    [
      "lit",
      "tle</w>"
    ],
    [
      "liv",
      "ed</w>"
    ],
    [
      "P",
      "a"
    ],
    [
      "cult",
      "ure</w>"
    ],
    [
      "part",
      "y</w>"
    ],
    [
      "3",
      "5"
    ],
    [
      "E",
      "g"
    ],
    [
      "achiev",
      "e</w>"
    ],
    [
      "br",
      "ight</w>"
    ],
    [
      "can",
      "not</w>"
    ],
    [
      "en",
      "h"
    ],
    [
      "i",
      "et</w>"
    ],
    [
      "ion",
      "-"
    ],
    [
      "ir",
      "ing</w>"
    ],
    [
      "si",
      "x</w>"
    ],
    [
      "A",
      "b"
    ],
    [
      "H",
      "um"
    ],
    [
      "I",
      "D"
    ],
    [
      "am",
      "b"
    ],
    [
      "ant",
      ",</w>"
    ],
    [
      "ar",
      "ily</w>"
    ],
    [
      "rec",
      "i"
    ],
    [
      "str",
      "ing</w>"
    ],
    [
      "to",
      "k"
    ],
    [
      "D",
      "ep"
    ],
    [
      "M",
      "exic"
    ],
    [
      "benef",
      "it</w>"
    ],
    [
      "moun",
      "tain</w>"
    ],
    [
      "oc",
      "ol"
    ],
    [
      "ou",
      "se</w>"
    ],
    [
      "sent",
      "ences</w>"
    ],
    [
      "serv",
      "ed</w>"
    ],
    [
      "shopp",
      "ing</w>"
    ],
    [
      "situ",
      "ation</w>"
    ],
    [
      "war",
      "m</w>"
    ],
    [
      "G",
      "ener"
    ],
    [
      "Techn",
      "ology</w>"
    ],
    [
      "pe",
      "ac"
    ],
    [
      "0",
      "0</w>"
    ],
    [
      "ag",
      "re"
    ],
    [
      "at",
      "'s</w>"
    ],
    [
      "p",
      "ost</w>"
    ],
    [
      "pass",
      "word</w>"
    ],
    [
      "y",
      "nam"
    ],
    [
      "R",
      "</w>"
    ],
    [
      "employe",
      "es</w>"
    ],
    [
      "f",
      "our"
    ],
    [
      "B",
      "as"
    ],
    [
      "E",
      "ach</w>"
    ],
    [
      "ch",
      "ick"
    ],
    [
      "cour",
      "se</w>"
    ],
    [
      "gar",
      "l"
    ],
    [
      "ma",
      "k"
    ],
    [
      "organ",
      "is"
    ],
    [
      "quest",
      "ion</w>"
    ],
    [
      "sc",
      "ap"
    ],
    [
      "valu",
      "es</w>"
    ],
    [
      "wast",
      "e</w>"
    ],
    [
      "con",
      "ver"
    ],
    [
      "di",
      "al"
    ],
    [
      "follow",
      "ed</w>"
    ],
    [
      "h",
      "ost"
    ],
    [
      "partic",
      "ular</w>"
    ],
    [
      "ul",
      "tim"
    ],
    [
      "w",
      "ay.</w>"
    ],
    [
      "Le",
      "ague</w>"
    ],
    [
      "every",
      "one</w>"
    ],
    [
      "exerc",
      "is"
    ],
    [
      "me",
      "chan"
    ],
    [
      "w",
      "in</w>"
    ],
    [
      "word",
      "s.</w>"
    ],
    [
      "Ger",
      "man"
    ],
    [
      "Lear",
      "ning</w>"
    ],
    [
      "ac",
      "cording</w>"
    ],
    [
      "lif",
      "esty"
    ],
    [
      "produc",
      "t.</w>"
    ],
    [
      "so",
      "on</w>"
    ],
    [
      "tas",
      "ks.</w>"
    ],
    [
      "Franc",
      "is"
    ],
    [
      "S",
      "cho"
    ],
    [
      "hy",
      "po"
    ],
    [
      "im",
      "age</w>"
    ],
    [
      "s",
      "ear"
    ],
    [
      "am",
      "et"
    ],
    [
      "ou",
      "d</w>"
    ],
    [
      "ac",
      "compl"
    ],
    [
      "behavi",
      "or</w>"
    ],
    [
      "believ",
      "e</w>"
    ],
    [
      "datab",
      "ase</w>"
    ],
    [
      "gu",
      "e</w>"
    ],
    [
      "integr",
      "ation</w>"
    ],
    [
      "meth",
      "od</w>"
    ],
    [
      "requ",
      "est</w>"
    ],
    [
      "t",
      "ive</w>"
    ],
    [
      "2",
      "9"
    ],
    [
      "J",
      "uly</w>"
    ],
    [
      "b",
      "aking</w>"
    ],
    [
      "g",
      "iving</w>"
    ],
    [
      "i",
      "an"
    ],
    [
      "me",
      "et</w>"
    ],
    [
      "op",
      "tions</w>"
    ],
    [
      "s",
      "low"
    ],
    [
      "im",
      "ate</w>"
    ],
    [
      "recogn",
      "ition</w>"
    ],
    [
      "c",
      "at</w>"
    ],
    [
      "chang",
      "e.</w>"
    ],
    [
      "e",
      "ating</w>"
    ],
    [
      "interest",
      "ing</w>"
    ],
    [
      "l",
      "es.</w>"
    ],
    [
      "thre",
      "at</w>"
    ],
    [
      "ul",
      "ate</w>"
    ],
    [
      "vi",
      "ol"
    ],
    [
      "A",
      "ug"
    ],
    [
      "M",
      "any</w>"
    ],
    [
      "big",
      "</w>"
    ],
    [
      "g",
      "ed</w>"
    ],
    [
      "gr",
      "av"
    ],
    [
      "j",
      "u"
    ],
    [
      "ma",
      "in"
    ],
    [
      "opportun",
      "ity</w>"
    ],
    [
      "p",
      "ac"
    ],
    [
      "refer",
      "ence</w>"
    ],
    [
      "sec",
      "re"
    ],
    [
      "sp",
      "ect"
    ],
    [
      "tex",
      "t.</w>"
    ],
    [
      "M",
      "at"
    ],
    [
      "Re",
      "write</w>"
    ],
    [
      "di",
      "ox"
    ],
    [
      "par",
      "k</w>"
    ],
    [
      "se",
      "e"
    ],
    [
      "1",
      ")</w>"
    ],
    [
      "3",
      "7"
    ],
    [
      "Geor",
      "ge</w>"
    ],
    [
      "ast",
      "ern</w>"
    ],
    [
      "sa",
      "id</w>"
    ],
    [
      "Goo",
      "gle</w>"
    ],
    [
      "W",
      "ash"
    ],
    [
      "rema",
      "in</w>"
    ],
    [
      "to",
      "ol</w>"
    ],
    [
      "tr",
      "u"
    ],
    [
      "year",
      "s,</w>"
    ],
    [
      "found",
      "ed</w>"
    ],
    [
      "h",
      "ere</w>"
    ],
    [
      "ind",
      "ic"
    ],
    [
      "ment",
      "s.</w>"
    ],
    [
      "wat",
      "er,</w>"
    ],
    [
      "A",
      "g"
    ],
    [
      "abil",
      "ity,</w>"
    ],
    [
      "op",
      "h"
    ],
    [
      "reas",
      "on"
    ],
    [
      "rev",
      "olution"
    ],
    [
      "z",
      "er"
    ],
    [
      "anc",
      "ient</w>"
    ],
    [
      "f",
      "all</w>"
    ],
    [
      "favor",
      "ite</w>"
    ],
    [
      "purch",
      "as"
    ],
    [
      "relation",
      "ships</w>"
    ],
    [
      "scho",
      "ol"
    ],
    [
      "str",
      "eng"
    ],
    [
      "Nam",
      "e"
    ],
    [
      "V",
      "ir"
    ],
    [
      "rece",
      "ived</w>"
    ],
    [
      "requ",
      "ired</w>"
    ],
    [
      "sur",
      "face</w>"
    ],
    [
      "tr",
      "ue</w>"
    ],
    [
      "war",
      "ming</w>"
    ],
    [
      "2",
      "6"
    ],
    [
      "20",
      "19"
    ],
    [
      "Octob",
      "er</w>"
    ],
    [
      "S",
      "ystem"
    ],
    [
      "bl",
      "og</w>"
    ],
    [
      "them",
      "selv"
    ],
    [
      "M",
      "ich"
    ],
    [
      "gener",
      "al</w>"
    ],
    [
      "n",
      "ed</w>"
    ],
    [
      "oss",
      "il</w>"
    ],
    [
      "t",
      "-"
    ],
    [
      "20",
      "20"
    ],
    [
      "bound",
      "aries</w>"
    ],
    [
      "in",
      "strum"
    ],
    [
      "resul",
      "ting</w>"
    ],
    [
      "wid",
      "ely</w>"
    ],
    [
      "Wash",
      "ing"
    ],
    [
      "dr",
      "iv"
    ],
    [
      "ec",
      "ially</w>"
    ],
    [
      "in",
      "ject"
    ],
    [
      "l",
      "ine"
    ],
    [
      "myst",
      "eri"
    ],
    [
      "tas",
      "ks,</w>"
    ],
    [
      "tr",
      "a"
    ],
    [
      "wor",
      "k,</w>"
    ],
    [
      "4",
      "5"
    ],
    [
      "W",
      "illi"
    ],
    [
      "app",
      "reci"
    ],
    [
      "esp",
      "ecially</w>"
    ],
    [
      "paint",
      "ing</w>"
    ],
    [
      "Chr",
      "ist"
    ],
    [
      "att",
      "emp"
    ],
    [
      "f",
      "un</w>"
    ],
    [
      "h",
      "ot"
    ],
    [
      "inter",
      "pre"
    ],
    [
      "oc",
      "ean</w>"
    ],
    [
      "Jap",
      "an"
    ],
    [
      "su",
      "itable</w>"
    ],
    [
      "w",
      "ar</w>"
    ],
    [
      "Ap",
      "pl"
    ],
    [
      "Dec",
      "ember</w>"
    ],
    [
      "S",
      "et</w>"
    ],
    [
      "conc",
      "ep"
    ],
    [
      "cy",
      "cl"
    ],
    [
      "form",
      "er</w>"
    ],
    [
      "metric",
      "s</w>"
    ],
    [
      "n",
      "ucle"
    ],
    [
      "piec",
      "es</w>"
    ],
    [
      "sle",
      "ep</w>"
    ],
    [
      "Ac",
      "cording</w>"
    ],
    [
      "omet",
      "imes</w>"
    ],
    [
      "pass",
      "age</w>"
    ],
    [
      "sh",
      "ort"
    ],
    [
      "y",
      "r"
    ],
    [
      "V",
      "al"
    ],
    [
      "cle",
      "an"
    ],
    [
      "def",
      "ense</w>"
    ],
    [
      "great",
      "est</w>"
    ],
    [
      "p",
      "an"
    ],
    [
      "RE",
      "ST</w>"
    ],
    [
      "act",
      "ing</w>"
    ],
    [
      "advant",
      "age</w>"
    ],
    [
      "ag",
      "es,</w>"
    ],
    [
      "determin",
      "ed</w>"
    ],
    [
      "it",
      "ation</w>"
    ],
    [
      "po",
      "ons</w>"
    ],
    [
      "sp",
      "ort</w>"
    ],
    [
      "C",
      "ustom"
    ],
    [
      "H",
      "T"
    ],
    [
      "N",
      "B"
    ],
    [
      "Pro",
      "duc"
    ],
    [
      "H",
      "arry</w>"
    ],
    [
      "b",
      "owl"
    ],
    [
      "comp",
      "ared</w>"
    ],
    [
      "dev",
      "ices</w>"
    ],
    [
      "econom",
      "y</w>"
    ],
    [
      "effici",
      "ency</w>"
    ],
    [
      "for",
      "ward</w>"
    ],
    [
      "hy",
      "dro"
    ],
    [
      "met",
      "aph"
    ],
    [
      "N",
      "et"
    ],
    [
      "Sp",
      "an"
    ],
    [
      "s",
      "iz"
    ],
    [
      "y",
      "og"
    ],
    [
      "ar",
      "m"
    ],
    [
      "c",
      "arr"
    ],
    [
      "we",
      "al"
    ],
    [
      "Peo",
      "ple</w>"
    ],
    [
      "are",
      ".</w>"
    ],
    [
      "lat",
      "est</w>"
    ],
    [
      "on",
      "str"
    ],
    [
      "Devel",
      "op"
    ],
    [
      "F",
      "</w>"
    ],
    [
      "es",
      "h"
    ],
    [
      "h",
      "un"
    ],
    [
      "health",
      ".</w>"
    ],
    [
      "1/",
      "2</w>"
    ],
    [
      "L",
      "if"
    ],
    [
      "che",
      "ese</w>"
    ],
    [
      "d",
      "ou"
    ],
    [
      "ed",
      "s</w>"
    ],
    [
      "j",
      "ud"
    ],
    [
      "l",
      "ast"
    ],
    [
      "pa",
      "th"
    ],
    [
      "partic",
      "ul"
    ],
    [
      "ro",
      "ad</w>"
    ],
    [
      "w",
      "ond"
    ],
    [
      "S",
      "ing"
    ],
    [
      "c",
      "ut"
    ],
    [
      "hand",
      "ling</w>"
    ],
    [
      "l",
      "un"
    ],
    [
      "prom",
      "p"
    ],
    [
      "recip",
      "e</w>"
    ],
    [
      "s",
      "and"
    ],
    [
      "tr",
      "ying</w>"
    ],
    [
      "3",
      "-"
    ],
    [
      "B",
      "en"
    ],
    [
      "Fr",
      "i"
    ],
    [
      "bo",
      "ts</w>"
    ],
    [
      "br",
      "id"
    ],
    [
      "ra",
      "ther</w>"
    ],
    [
      "refer",
      "red</w>"
    ],
    [
      "v",
      "ibr"
    ],
    [
      "In",
      "ter"
    ],
    [
      "Septem",
      "ber</w>"
    ],
    [
      "ch",
      "at"
    ],
    [
      "di",
      "rect</w>"
    ],
    [
      "ent",
      "i"
    ],
    [
      "f",
      "it"
    ],
    [
      "plac",
      "ed</w>"
    ],
    [
      "re",
      "mot"
    ],
    [
      "2",
      "2"
    ],
    [
      "Des",
      "pite</w>"
    ],
    [
      "O",
      "b"
    ],
    [
      "Us",
      "ing</w>"
    ],
    [
      "hop",
      "e</w>"
    ],
    [
      "meas",
      "ures</w>"
    ],
    [
      "squ",
      "are</w>"
    ],
    [
      "w",
      "all"
    ],
    [
      ".",
      "com"
    ],
    [
      "Par",
      "k</w>"
    ],
    [
      "beh",
      "ind</w>"
    ],
    [
      "c",
      "amp"
    ],
    [
      "cr",
      "is"
    ],
    [
      "f",
      "ish"
    ],
    [
      "is",
      "ion</w>"
    ],
    [
      "stor",
      "age</w>"
    ],
    [
      "Chin",
      "ese</w>"
    ],
    [
      "E",
      "v"
    ],
    [
      "ab",
      "ly</w>"
    ],
    [
      "cele",
      "br"
    ],
    [
      "dr",
      "ive</w>"
    ],
    [
      "tok",
      "en"
    ],
    [
      "w",
      "ay,</w>"
    ],
    [
      "appro",
      "ach"
    ],
    [
      "at",
      "or</w>"
    ],
    [
      "for",
      "est</w>"
    ],
    [
      "lay",
      "er</w>"
    ],
    [
      "miss",
      "ion</w>"
    ],
    [
      "re",
      "port"
    ],
    [
      "reg",
      "ion</w>"
    ],
    [
      "50",
      "0</w>"
    ],
    [
      "ain",
      "ed</w>"
    ],
    [
      "bill",
      "ion</w>"
    ],
    [
      "commun",
      "ity</w>"
    ],
    [
      "ra",
      "z"
    ],
    [
      "4",
      "8"
    ],
    [
      "Ang",
      "el"
    ],
    [
      "oper",
      "ating</w>"
    ],
    [
      "tex",
      "t,</w>"
    ],
    [
      "trans",
      "actions</w>"
    ],
    [
      "wh",
      "ere"
    ],
    [
      "M",
      "ost</w>"
    ],
    [
      "a",
      "?</w>"
    ],
    [
      "anal",
      "yz"
    ],
    [
      "bel",
      "ow</w>"
    ],
    [
      "ess",
      "ay</w>"
    ],
    [
      "evalu",
      "ation</w>"
    ],
    [
      "gr",
      "aph"
    ],
    [
      "n",
      "e</w>"
    ],
    [
      "n",
      "ing,</w>"
    ],
    [
      "oun",
      "d,</w>"
    ],
    [
      "publ",
      "ished</w>"
    ],
    [
      "r",
      "and"
    ],
    [
      "s",
      "us"
    ],
    [
      "ter",
      "ed</w>"
    ],
    [
      "ain",
      ",</w>"
    ],
    [
      "eng",
      "ine</w>"
    ],
    [
      "in",
      "a</w>"
    ],
    [
      "mov",
      "ed</w>"
    ],
    [
      "tom",
      "at"
    ],
    [
      "S",
      "ol"
    ],
    [
      "accur",
      "acy</w>"
    ],
    [
      "allow",
      "ed</w>"
    ],
    [
      "but",
      "ter</w>"
    ],
    [
      "loy",
      "al"
    ],
    [
      "tr",
      "ends</w>"
    ],
    [
      "year",
      ".</w>"
    ],
    [
      "7",
      "0"
    ],
    [
      "M",
      "icro"
    ],
    [
      "diffic",
      "ult"
    ],
    [
      "pl",
      "ant</w>"
    ],
    [
      "rec",
      "ycl"
    ],
    [
      "start",
      "ing</w>"
    ],
    [
      "P",
      "er"
    ],
    [
      "cl",
      "ient</w>"
    ],
    [
      "n",
      "y</w>"
    ],
    [
      "pat",
      "i"
    ],
    [
      "pri",
      "or"
    ],
    [
      "rev",
      "en"
    ],
    [
      "str",
      "ength</w>"
    ],
    [
      "super",
      "vised</w>"
    ],
    [
      "d",
      "ed"
    ],
    [
      "dist",
      "inc"
    ],
    [
      "f",
      "ossil</w>"
    ],
    [
      "h",
      "and</w>"
    ],
    [
      "meth",
      "od"
    ],
    [
      "num",
      "erous</w>"
    ],
    [
      "re",
      "ally</w>"
    ],
    [
      "spe",
      "ak"
    ],
    [
      "w",
      "are</w>"
    ],
    [
      "ac",
      "qu"
    ],
    [
      "com",
      "posed</w>"
    ],
    [
      "do",
      "ing</w>"
    ],
    [
      "fig",
      "ure</w>"
    ],
    [
      "pr",
      "is"
    ],
    [
      "w",
      "anted</w>"
    ],
    [
      "wal",
      "king</w>"
    ],
    [
      "In",
      "v"
    ],
    [
      "acc",
      "ep"
    ],
    [
      "ell",
      "s</w>"
    ],
    [
      "energ",
      "y.</w>"
    ],
    [
      "includ",
      "ed</w>"
    ],
    [
      "ine-tun",
      "ing</w>"
    ],
    [
      "o",
      "s,</w>"
    ],
    [
      "pred",
      "ict</w>"
    ],
    [
      "’",
      "t</w>"
    ],
    [
      "Chin",
      "a</w>"
    ],
    [
      "cho",
      "ice</w>"
    ],
    [
      "ed",
      "?</w>"
    ],
    [
      "id",
      ",</w>"
    ],
    [
      "prog",
      "ress</w>"
    ],
    [
      "summar",
      "y</w>"
    ],
    [
      "us",
      "e.</w>"
    ],
    [
      "D",
      "ay</w>"
    ],
    [
      "comb",
      "ination</w>"
    ],
    [
      "er",
      "a</w>"
    ],
    [
      "in",
      "ess</w>"
    ],
    [
      "recover",
      "y</w>"
    ],
    [
      "sp",
      "ir"
    ],
    [
      "t",
      "ers</w>"
    ],
    [
      "temperat",
      "ures</w>"
    ],
    [
      "w",
      "r"
    ],
    [
      "3",
      ")</w>"
    ],
    [
      "Joh",
      "n"
    ],
    [
      "St",
      "ate</w>"
    ],
    [
      "cour",
      "age</w>"
    ],
    [
      "in",
      "-"
    ],
    [
      "mean",
      "ing"
    ],
    [
      "recomm",
      "end"
    ],
    [
      "ric",
      "</w>"
    ],
    [
      "ro",
      "ad"
    ],
    [
      "servic",
      "es.</w>"
    ],
    [
      "sh",
      "e"
    ],
    [
      "2",
      "1"
    ],
    [
      "g",
      "as</w>"
    ],
    [
      "O",
      "ur</w>"
    ],
    [
      "avo",
      "id</w>"
    ],
    [
      "bud",
      "get</w>"
    ],
    [
      "c",
      "ou"
    ],
    [
      "cr",
      "yp"
    ],
    [
      "el",
      "ect"
    ],
    [
      "er",
      "t"
    ],
    [
      "inter",
      "act</w>"
    ],
    [
      "l",
      "igh"
    ],
    [
      "real",
      "-"
    ],
    [
      "servic",
      "e.</w>"
    ],
    [
      "sh",
      "ar"
    ],
    [
      "3",
      "8"
    ],
    [
      "D",
      ".</w>"
    ],
    [
      "D",
      "o</w>"
    ],
    [
      "a",
      "h</w>"
    ],
    [
      "depend",
      "ing</w>"
    ],
    [
      "el",
      "ement</w>"
    ],
    [
      "instruc",
      "tions</w>"
    ],
    [
      "Aug",
      "ust</w>"
    ],
    [
      "SD",
      "K"
    ],
    [
      "W",
      "est</w>"
    ],
    [
      "langu",
      "ages</w>"
    ],
    [
      "model",
      "ing</w>"
    ],
    [
      "S",
      "of"
    ],
    [
      "con",
      "struc"
    ],
    [
      "des",
      "ired</w>"
    ],
    [
      "dist",
      "ance</w>"
    ],
    [
      "electr",
      "ical</w>"
    ],
    [
      "in",
      "s,</w>"
    ],
    [
      "th",
      "-"
    ],
    [
      "mat",
      "erial</w>"
    ],
    [
      "plac",
      "e.</w>"
    ],
    [
      "rul",
      "es</w>"
    ],
    [
      "sec",
      "ur"
    ],
    [
      "sy",
      "ch"
    ],
    [
      "19",
      "0"
    ],
    [
      "buil",
      "d"
    ],
    [
      "di",
      "et</w>"
    ],
    [
      "establ",
      "ished</w>"
    ],
    [
      "follow",
      "s</w>"
    ],
    [
      "int",
      "er</w>"
    ],
    [
      "mysteri",
      "ous</w>"
    ],
    [
      "r",
      "ights</w>"
    ],
    [
      "res",
      "s.</w>"
    ],
    [
      "tim",
      "el"
    ],
    [
      "Amaz",
      "on</w>"
    ],
    [
      "C",
      "am"
    ],
    [
      "O",
      "ff"
    ],
    [
      "ab",
      "ove</w>"
    ],
    [
      "add",
      "ress</w>"
    ],
    [
      "argum",
      "ent</w>"
    ],
    [
      "fri",
      "end</w>"
    ],
    [
      "h",
      "old</w>"
    ],
    [
      "item",
      "</w>"
    ],
    [
      "ou",
      "s,</w>"
    ],
    [
      "plan",
      "et</w>"
    ],
    [
      "rel",
      "ig"
    ],
    [
      "F",
      "eder"
    ],
    [
      "con",
      "st"
    ],
    [
      "dem",
      "onstr"
    ],
    [
      "fut",
      "ure.</w>"
    ],
    [
      "land",
      ".</w>"
    ],
    [
      "mon",
      "ths</w>"
    ],
    [
      "oo",
      "th"
    ],
    [
      "set",
      "s</w>"
    ],
    [
      "add",
      "ed</w>"
    ],
    [
      "ag",
      "ed</w>"
    ],
    [
      "comm",
      "erc"
    ],
    [
      "enter",
      "tain"
    ],
    [
      "ition",
      "ing</w>"
    ],
    [
      "let",
      "ter</w>"
    ],
    [
      "rel",
      "ax"
    ],
    [
      "roc",
      "k</w>"
    ],
    [
      "N",
      "</w>"
    ],
    [
      "abil",
      "ities</w>"
    ],
    [
      "ann",
      "ounc"
    ],
    [
      "bir",
      "ds</w>"
    ],
    [
      "cho",
      "ose</w>"
    ],
    [
      "con",
      "clus"
    ],
    [
      "consid",
      "er"
    ],
    [
      "d",
      "ol"
    ],
    [
      "influ",
      "ence</w>"
    ],
    [
      "ther",
      "e"
    ],
    [
      "3",
      "4"
    ],
    [
      "Wh",
      "ere</w>"
    ],
    [
      "communic",
      "ate</w>"
    ],
    [
      "equ",
      "ation</w>"
    ],
    [
      "estim",
      "ated</w>"
    ],
    [
      "hou",
      "se"
    ],
    [
      "mil",
      "itary</w>"
    ],
    [
      "parag",
      "raph"
    ],
    [
      "rece",
      "ive</w>"
    ],
    [
      "system",
      ",</w>"
    ],
    [
      "20",
      "20</w>"
    ],
    [
      "C",
      "an</w>"
    ],
    [
      "mil",
      "es</w>"
    ],
    [
      "restaur",
      "ant</w>"
    ],
    [
      "E",
      "st"
    ],
    [
      "M",
      "id"
    ],
    [
      "St",
      "ud"
    ],
    [
      "X",
      "</w>"
    ],
    [
      "w",
      "est</w>"
    ],
    [
      "al",
      "ready</w>"
    ],
    [
      "excell",
      "ent</w>"
    ],
    [
      "for",
      "e"
    ],
    [
      "g",
      "ot</w>"
    ],
    [
      "h",
      "u"
    ],
    [
      "id",
      "ing</w>"
    ],
    [
      "k",
      "m"
    ],
    [
      "mov",
      "ing</w>"
    ],
    [
      "pur",
      "pos"
    ],
    [
      "sal",
      "t</w>"
    ],
    [
      "sc",
      "ale</w>"
    ],
    [
      "mess",
      "age</w>"
    ],
    [
      "reli",
      "able</w>"
    ],
    [
      "tar",
      "get"
    ],
    [
      "up",
      "dat"
    ],
    [
      "us",
      "s</w>"
    ],
    [
      "(",
      "N"
    ],
    [
      "Res",
      "earch</w>"
    ],
    [
      "extre",
      "me</w>"
    ],
    [
      "peri",
      "od"
    ],
    [
      "2",
      "5</w>"
    ],
    [
      "J",
      "ames</w>"
    ],
    [
      "ag",
      "es.</w>"
    ],
    [
      "an",
      "e</w>"
    ],
    [
      "and",
      ".</w>"
    ],
    [
      "autom",
      "ate</w>"
    ],
    [
      "c",
      "ard</w>"
    ],
    [
      "continu",
      "e</w>"
    ],
    [
      "emb",
      "edd"
    ],
    [
      "y",
      "m"
    ],
    [
      "R",
      "et"
    ],
    [
      "at",
      "e"
    ],
    [
      "cat",
      "s</w>"
    ],
    [
      "comput",
      "ers</w>"
    ],
    [
      "e",
      "al"
    ],
    [
      "hal",
      "f</w>"
    ],
    [
      "hom",
      "e.</w>"
    ],
    [
      "min",
      "d</w>"
    ],
    [
      "mor",
      "e.</w>"
    ],
    [
      "ov",
      "ers</w>"
    ],
    [
      "ow",
      "er</w>"
    ],
    [
      "polic",
      "y</w>"
    ],
    [
      "’",
      "</w>"
    ],
    [
      "G",
      "</w>"
    ],
    [
      "P",
      "ac"
    ],
    [
      "S",
      "el"
    ],
    [
      "con",
      "figur"
    ],
    [
      "exp",
      "ens"
    ],
    [
      "ic",
      "es.</w>"
    ],
    [
      "langu",
      "age.</w>"
    ],
    [
      "mon",
      "th"
    ],
    [
      "pat",
      "ient</w>"
    ],
    [
      "v",
      "an"
    ],
    [
      "3",
      "6"
    ],
    [
      "7",
      "5"
    ],
    [
      "Fe",
      "br"
    ],
    [
      "Nov",
      "ember</w>"
    ],
    [
      "Rep",
      "ubl"
    ],
    [
      "approxim",
      "ately</w>"
    ],
    [
      "c",
      "ook</w>"
    ],
    [
      "fru",
      "its</w>"
    ],
    [
      "improv",
      "ing</w>"
    ],
    [
      "l",
      "er</w>"
    ],
    [
      "log",
      "o</w>"
    ],
    [
      "pow",
      "ered</w>"
    ],
    [
      "servic",
      "es,</w>"
    ],
    [
      "10",
      ",</w>"
    ],
    [
      "=",
      "=</w>"
    ],
    [
      "A",
      "u"
    ],
    [
      "He",
      "al"
    ],
    [
      "S",
      "k"
    ],
    [
      "des",
      "cent</w>"
    ],
    [
      "pur",
      "su"
    ],
    [
      "show",
      "s</w>"
    ],
    [
      "wil",
      "d"
    ],
    [
      "C",
      "r"
    ],
    [
      "H",
      "ave</w>"
    ],
    [
      "V",
      "is"
    ],
    [
      "autom",
      "ated</w>"
    ],
    [
      "degre",
      "es</w>"
    ],
    [
      "h",
      "i"
    ],
    [
      "os",
      "ystem"
    ],
    [
      "ow",
      ".</w>"
    ],
    [
      "s",
      "ometimes</w>"
    ],
    [
      "top",
      "ics</w>"
    ],
    [
      "z",
      "z"
    ],
    [
      "a",
      ":</w>"
    ],
    [
      "cand",
      "id"
    ],
    [
      "influ",
      "enc"
    ],
    [
      "om",
      "in"
    ],
    [
      "t",
      "we"
    ],
    [
      "wee",
      "k"
    ],
    [
      "A",
      "ir"
    ],
    [
      "O",
      "ver"
    ],
    [
      "T",
      "V</w>"
    ],
    [
      "al",
      "-"
    ],
    [
      "c",
      "lear"
    ],
    [
      "comm",
      "it"
    ],
    [
      "ill",
      "ing</w>"
    ],
    [
      "ph",
      "en"
    ],
    [
      "s",
      "\"</w>"
    ],
    [
      "s",
      "'</w>"
    ],
    [
      "sug",
      "gest"
    ],
    [
      "th",
      "ought</w>"
    ],
    [
      "CO",
      "V"
    ],
    [
      "L",
      "at"
    ],
    [
      "en",
      "-"
    ],
    [
      "find",
      "ing</w>"
    ],
    [
      "g",
      "an"
    ],
    [
      "go",
      "od"
    ],
    [
      "in",
      "corpor"
    ],
    [
      "is",
      "m,</w>"
    ],
    [
      "pot",
      "at"
    ],
    [
      "press",
      "ure</w>"
    ],
    [
      "schem",
      "a</w>"
    ],
    [
      "sent",
      "enc"
    ],
    [
      "4",
      "."
    ],
    [
      "Pl",
      "ay"
    ],
    [
      "at",
      "ory</w>"
    ],
    [
      "back",
      "up</w>"
    ],
    [
      "grow",
      "ing</w>"
    ],
    [
      "ne",
      "ar"
    ],
    [
      "war",
      "ds</w>"
    ],
    [
      "a",
      "kes</w>"
    ],
    [
      "dem",
      "and</w>"
    ],
    [
      "gr",
      "ap"
    ],
    [
      "op",
      "t"
    ],
    [
      "pr",
      "int</w>"
    ],
    [
      "t",
      "end</w>"
    ],
    [
      "tes",
      "t"
    ],
    [
      "L",
      "os</w>"
    ],
    [
      "am",
      "a</w>"
    ],
    [
      "b",
      "s</w>"
    ],
    [
      "cul",
      "tural</w>"
    ],
    [
      "f",
      "ish</w>"
    ],
    [
      "fre",
      "ed"
    ],
    [
      "nut",
      "rit"
    ],
    [
      "own",
      ".</w>"
    ],
    [
      "pack",
      "ages</w>"
    ],
    [
      "2",
      ","
    ],
    [
      "ass",
      "ign"
    ],
    [
      "col",
      "d</w>"
    ],
    [
      "go",
      "als.</w>"
    ],
    [
      "mi",
      "x</w>"
    ],
    [
      "ox",
      "y"
    ],
    [
      "p",
      "ed</w>"
    ],
    [
      "repres",
      "ent</w>"
    ],
    [
      "tr",
      "uc"
    ],
    [
      "vers",
      "ion</w>"
    ],
    [
      "en",
      "ge</w>"
    ],
    [
      "ill",
      "ed</w>"
    ],
    [
      "los",
      "s</w>"
    ],
    [
      "ne",
      "igh"
    ],
    [
      "E",
      "mp"
    ],
    [
      "Ph",
      "il"
    ],
    [
      "act",
      "ed</w>"
    ],
    [
      "nam",
      "e"
    ],
    [
      "oul",
      "d"
    ],
    [
      "stor",
      "m</w>"
    ],
    [
      "sus",
      "p"
    ],
    [
      "S",
      "mi"
    ],
    [
      "benef",
      "icial</w>"
    ],
    [
      "bot",
      "t"
    ],
    [
      "educ",
      "ational</w>"
    ],
    [
      "lead",
      "er</w>"
    ],
    [
      "meet",
      "ing</w>"
    ],
    [
      "particul",
      "arly</w>"
    ],
    [
      "4",
      "9"
    ],
    [
      "W",
      "il"
    ],
    [
      "ain",
      "s</w>"
    ],
    [
      "or",
      "ds</w>"
    ],
    [
      "re",
      "pe"
    ],
    [
      "wom",
      "an</w>"
    ],
    [
      "al",
      "most</w>"
    ],
    [
      "dis",
      "coun"
    ],
    [
      "inc",
      "ident</w>"
    ],
    [
      "law",
      "s</w>"
    ],
    [
      "m",
      "s,</w>"
    ],
    [
      "proper",
      "t"
    ],
    [
      "the",
      "ory</w>"
    ],
    [
      "you",
      ".</w>"
    ],
    [
      "Fr",
      "ance</w>"
    ],
    [
      "ion",
      ":</w>"
    ],
    [
      "oc",
      "ks</w>"
    ],
    [
      "progr",
      "ams</w>"
    ],
    [
      "vi",
      "a</w>"
    ],
    [
      "P",
      "at"
    ],
    [
      "T",
      "re"
    ],
    [
      "a",
      "j"
    ],
    [
      "adv",
      "anced</w>"
    ],
    [
      "assist",
      "ant</w>"
    ],
    [
      "b",
      "on"
    ],
    [
      "bo",
      "x</w>"
    ],
    [
      "c",
      "ell</w>"
    ],
    [
      "ec",
      "osystem"
    ],
    [
      "it",
      "y"
    ],
    [
      "jour",
      "ne"
    ],
    [
      "organiz",
      "ations</w>"
    ],
    [
      "p",
      "al"
    ],
    [
      "read",
      "ing</w>"
    ],
    [
      "sh",
      "ad"
    ],
    [
      "Soc",
      "ial</w>"
    ],
    [
      "i",
      "x"
    ],
    [
      "m",
      "s.</w>"
    ],
    [
      "on",
      "to</w>"
    ],
    [
      "vis",
      "ual</w>"
    ],
    [
      "wat",
      "er.</w>"
    ],
    [
      "work",
      "ed</w>"
    ],
    [
      "2",
      "3"
    ],
    [
      "B",
      "er"
    ],
    [
      "Jan",
      "uary</w>"
    ],
    [
      "ag",
      "r"
    ],
    [
      "ast",
      "er</w>"
    ],
    [
      "cap",
      "t"
    ],
    [
      "character",
      "istics</w>"
    ],
    [
      "cle",
      "an</w>"
    ],
    [
      "col",
      "lege</w>"
    ],
    [
      "ins",
      "ights</w>"
    ],
    [
      "l",
      "ands</w>"
    ],
    [
      "ot",
      "e</w>"
    ],
    [
      "re",
      "mind"
    ],
    [
      "sp",
      "ending</w>"
    ],
    [
      "st",
      "anding</w>"
    ],
    [
      "y",
      "et</w>"
    ],
    [
      "/",
      "/</w>"
    ],
    [
      "5",
      "7"
    ],
    [
      "N",
      "ew"
    ],
    [
      "at",
      "om"
    ],
    [
      "fr",
      "ont</w>"
    ],
    [
      "grad",
      "ient</w>"
    ],
    [
      "l",
      "ibr"
    ],
    [
      "shap",
      "e</w>"
    ],
    [
      "B",
      "ased</w>"
    ],
    [
      "al",
      "i"
    ],
    [
      "compl",
      "ex"
    ],
    [
      "foc",
      "uses</w>"
    ],
    [
      "leg",
      "al</w>"
    ],
    [
      "mp",
      "tom"
    ],
    [
      "on",
      "s,</w>"
    ],
    [
      "stand",
      "ard</w>"
    ],
    [
      "wat",
      "ch</w>"
    ],
    [
      "6",
      "6"
    ],
    [
      "P",
      "art"
    ],
    [
      "cap",
      "it"
    ],
    [
      "cl",
      "aim"
    ],
    [
      "ent",
      "s:</w>"
    ],
    [
      "il",
      ".</w>"
    ],
    [
      "meaning",
      "ful</w>"
    ],
    [
      "offer",
      "ing</w>"
    ],
    [
      "ris",
      "ing</w>"
    ],
    [
      "sp",
      "ent</w>"
    ],
    [
      "-",
      "19</w>"
    ],
    [
      "0",
      ".</w>"
    ],
    [
      "A",
      "v"
    ],
    [
      "Aut",
      "om"
    ],
    [
      "D",
      "em"
    ],
    [
      "an",
      "x"
    ],
    [
      "egg",
      "s</w>"
    ],
    [
      "id",
      "den</w>"
    ],
    [
      "mach",
      "ines</w>"
    ],
    [
      "mat",
      "ch</w>"
    ],
    [
      "mov",
      "ies</w>"
    ],
    [
      "p",
      "ing</w>"
    ],
    [
      "p",
      "ul"
    ],
    [
      "sec",
      "ond"
    ],
    [
      "spl",
      "its</w>"
    ],
    [
      "tables",
      "poons</w>"
    ],
    [
      "vulner",
      "ability</w>"
    ],
    [
      "18",
      "8"
    ],
    [
      "COV",
      "ID"
    ],
    [
      "E",
      "duc"
    ],
    [
      "Or",
      "gan"
    ],
    [
      "c",
      "anc"
    ],
    [
      "describ",
      "ed</w>"
    ],
    [
      "e",
      "ge</w>"
    ],
    [
      "form",
      "ed</w>"
    ],
    [
      "gir",
      "l</w>"
    ],
    [
      "B",
      "re"
    ],
    [
      "Intellig",
      "ence</w>"
    ],
    [
      "ast",
      ",</w>"
    ],
    [
      "conc",
      "ern"
    ],
    [
      "ep",
      "h"
    ],
    [
      "et",
      "t"
    ],
    [
      "g",
      "row</w>"
    ],
    [
      "m",
      "ost"
    ],
    [
      "possibl",
      "e.</w>"
    ],
    [
      "ur",
      "b"
    ],
    [
      "veget",
      "ables</w>"
    ],
    [
      "Al",
      "though</w>"
    ],
    [
      "D",
      "ear</w>"
    ],
    [
      "e",
      ";</w>"
    ],
    [
      "eth",
      "ical</w>"
    ],
    [
      "g",
      "i"
    ],
    [
      "vo",
      "ice</w>"
    ],
    [
      "experi",
      "ences</w>"
    ],
    [
      "inc",
      "ent"
    ],
    [
      "incre",
      "d"
    ],
    [
      "mem",
      "or"
    ],
    [
      "play",
      "s</w>"
    ],
    [
      "res",
      "s,</w>"
    ],
    [
      "sug",
      "ar</w>"
    ],
    [
      "1",
      "4</w>"
    ],
    [
      "1",
      "6</w>"
    ],
    [
      "ch",
      "r"
    ],
    [
      "curr",
      "ently</w>"
    ],
    [
      "el",
      "ement"
    ],
    [
      "ev",
      "idence</w>"
    ],
    [
      "loc",
      "ation</w>"
    ],
    [
      "ol",
      "ive</w>"
    ],
    [
      "sent",
      "iment</w>"
    ],
    [
      "tele",
      "vision</w>"
    ],
    [
      "them",
      "e</w>"
    ],
    [
      "where",
      "as</w>"
    ],
    [
      "(",
      "C"
    ],
    [
      "6",
      "5"
    ],
    [
      "c",
      "all</w>"
    ],
    [
      "learn",
      "ing.</w>"
    ],
    [
      "p",
      "et</w>"
    ],
    [
      "sent",
      "ences.</w>"
    ],
    [
      "3",
      "2"
    ],
    [
      "B",
      "raz"
    ],
    [
      "K",
      "ing</w>"
    ],
    [
      "R",
      "ed</w>"
    ],
    [
      "Stat",
      "es,</w>"
    ],
    [
      "aw",
      "ar"
    ],
    [
      "b",
      "and</w>"
    ],
    [
      "bl",
      "ock"
    ],
    [
      "che",
      "es"
    ],
    [
      "er",
      "ies</w>"
    ],
    [
      "expl",
      "oring</w>"
    ],
    [
      "i",
      "ew"
    ],
    [
      "p",
      "ay</w>"
    ],
    [
      "sp",
      "r"
    ],
    [
      "\"",
      ")</w>"
    ],
    [
      "3",
      "9"
    ],
    [
      "AI",
      "-"
    ],
    [
      "B",
      "el"
    ],
    [
      "as",
      "k"
    ],
    [
      "effect",
      "iv"
    ],
    [
      "ev",
      "en"
    ],
    [
      "fir",
      "e</w>"
    ],
    [
      "green",
      "house</w>"
    ],
    [
      "inform",
      "ation,</w>"
    ],
    [
      "log",
      "ging</w>"
    ],
    [
      "out",
      ".</w>"
    ],
    [
      "repres",
      "ent"
    ],
    [
      "6",
      "4"
    ],
    [
      "B",
      "ig</w>"
    ],
    [
      "S",
      "E"
    ],
    [
      "c",
      "el"
    ],
    [
      "exper",
      "im"
    ],
    [
      "hear",
      "d</w>"
    ],
    [
      "op",
      "tion</w>"
    ],
    [
      "rec",
      "ently</w>"
    ],
    [
      "sp",
      "ar"
    ],
    [
      "tr",
      "aff"
    ],
    [
      "w",
      "ood</w>"
    ],
    [
      "wal",
      "k</w>"
    ],
    [
      "cent",
      "ral</w>"
    ],
    [
      "for",
      "ces</w>"
    ],
    [
      "ref",
      "ers</w>"
    ],
    [
      "technolog",
      "y.</w>"
    ],
    [
      "P",
      "ort"
    ],
    [
      "aw",
      "ard"
    ],
    [
      "be",
      "ach"
    ],
    [
      "de",
      "fe"
    ],
    [
      "equ",
      "ip"
    ],
    [
      "ex",
      "pla"
    ],
    [
      "f",
      "it</w>"
    ],
    [
      "o",
      "es,</w>"
    ],
    [
      "par",
      "amet"
    ],
    [
      "ric",
      "h</w>"
    ],
    [
      "s",
      "ay</w>"
    ],
    [
      "serv",
      "e</w>"
    ],
    [
      "sug",
      "gest</w>"
    ],
    [
      "Ar",
      "e</w>"
    ],
    [
      "M",
      "ad"
    ],
    [
      "appl",
      "i"
    ],
    [
      "c",
      "ard"
    ],
    [
      "depend",
      "ency</w>"
    ],
    [
      "fin",
      "ally</w>"
    ],
    [
      "sh",
      "ared</w>"
    ],
    [
      "sp",
      "end</w>"
    ],
    [
      "stor",
      "ed</w>"
    ],
    [
      "'",
      ".</w>"
    ],
    [
      ".",
      "."
    ],
    [
      "Nat",
      "ural</w>"
    ],
    [
      "ac",
      "e"
    ],
    [
      "ar",
      "y.</w>"
    ],
    [
      "ch",
      "ampion"
    ],
    [
      "cl",
      "ust"
    ],
    [
      "crit",
      "ical</w>"
    ],
    [
      "divers",
      "e</w>"
    ],
    [
      "electric",
      "ity</w>"
    ],
    [
      "f",
      "eder"
    ],
    [
      "jo",
      "in</w>"
    ],
    [
      "le",
      ":</w>"
    ],
    [
      "li",
      "qu"
    ],
    [
      "ph",
      "il"
    ],
    [
      "up",
      ",</w>"
    ],
    [
      "Americ",
      "a</w>"
    ],
    [
      "are",
      "s</w>"
    ],
    [
      "b",
      "all,</w>"
    ],
    [
      "br",
      "and</w>"
    ],
    [
      "en",
      "ables</w>"
    ],
    [
      "land",
      "scap"
    ],
    [
      "peopl",
      "e,</w>"
    ],
    [
      "priv",
      "ate</w>"
    ],
    [
      "privil",
      "ege</w>"
    ],
    [
      "Cal",
      "cul"
    ],
    [
      "cl",
      "o"
    ],
    [
      "dial",
      "o"
    ],
    [
      "ent",
      "ire</w>"
    ],
    [
      "histor",
      "ical</w>"
    ],
    [
      "mol",
      "ec"
    ],
    [
      "n",
      "a</w>"
    ],
    [
      "organ",
      "ized</w>"
    ],
    [
      "(",
      "200"
    ],
    [
      "E",
      "r"
    ],
    [
      "Febr",
      "uary</w>"
    ],
    [
      "M",
      "oun"
    ],
    [
      "O",
      "ly"
    ],
    [
      "a",
      "el</w>"
    ],
    [
      "ac",
      "ks</w>"
    ],
    [
      "ad",
      "minist"
    ],
    [
      "f",
      "ro"
    ],
    [
      "inject",
      "ion</w>"
    ],
    [
      "l",
      "en"
    ],
    [
      "pay",
      "ment</w>"
    ],
    [
      "sid",
      "es</w>"
    ],
    [
      "sn",
      "ow"
    ],
    [
      "swe",
      "et</w>"
    ],
    [
      "wh",
      "ole</w>"
    ],
    [
      "ad",
      "ing</w>"
    ],
    [
      "bal",
      "ance</w>"
    ],
    [
      "cond",
      "itions</w>"
    ],
    [
      "ment",
      "s,</w>"
    ],
    [
      "om",
      "en"
    ],
    [
      "ph",
      "ishing</w>"
    ],
    [
      "pre",
      "h"
    ],
    [
      "M",
      "il"
    ],
    [
      "b",
      "ase</w>"
    ],
    [
      "beg",
      "inning</w>"
    ],
    [
      "er",
      "?</w>"
    ],
    [
      "fac",
      "il"
    ],
    [
      "moun",
      "tain"
    ],
    [
      "re",
      "port</w>"
    ],
    [
      "system",
      "s.</w>"
    ],
    [
      "w",
      "ise</w>"
    ],
    [
      "El",
      "ectr"
    ],
    [
      "Pres",
      "ident</w>"
    ],
    [
      "basket",
      "ball</w>"
    ],
    [
      "chem",
      "ical</w>"
    ],
    [
      "cour",
      "s"
    ],
    [
      "ear",
      "li"
    ],
    [
      "inter",
      "active</w>"
    ],
    [
      "maxim",
      "um</w>"
    ],
    [
      "resp",
      "ect"
    ],
    [
      "u",
      "le</w>"
    ],
    [
      "ag",
      "ric"
    ],
    [
      "an",
      "s,</w>"
    ],
    [
      "as",
      "yn"
    ],
    [
      "aud",
      "it</w>"
    ],
    [
      "e.",
      "g"
    ],
    [
      "fe",
      "et</w>"
    ],
    [
      "k",
      "new</w>"
    ],
    [
      "lin",
      "e.</w>"
    ],
    [
      "on",
      "'s</w>"
    ],
    [
      "sm",
      "art"
    ],
    [
      "6",
      "8"
    ],
    [
      "D",
      "ef"
    ],
    [
      "abil",
      "ity.</w>"
    ],
    [
      "c",
      "over</w>"
    ],
    [
      "enabl",
      "ed</w>"
    ],
    [
      "interfac",
      "e</w>"
    ],
    [
      "long-",
      "term</w>"
    ],
    [
      "n",
      "ar"
    ],
    [
      "op",
      "ened</w>"
    ],
    [
      "profess",
      "ion"
    ],
    [
      "re",
      "fact"
    ],
    [
      "tour",
      "nam"
    ],
    [
      "H",
      "y"
    ],
    [
      "S",
      "ub"
    ],
    [
      "e",
      "!</w>"
    ],
    [
      "el",
      ".</w>"
    ],
    [
      "impl",
      "ications</w>"
    ],
    [
      "in",
      "fra"
    ],
    [
      "minut",
      "es.</w>"
    ],
    [
      "pro",
      "per</w>"
    ],
    [
      "ro",
      "t"
    ],
    [
      "valu",
      "able</w>"
    ],
    [
      "19",
      "2"
    ],
    [
      "Eg",
      "yp"
    ],
    [
      "ag",
      "o</w>"
    ],
    [
      "ap",
      "point"
    ],
    [
      "calcul",
      "ate</w>"
    ],
    [
      "conv",
      "eni"
    ],
    [
      "d",
      "s,</w>"
    ],
    [
      "diox",
      "ide</w>"
    ],
    [
      "fr",
      "am"
    ],
    [
      "ist",
      "er</w>"
    ],
    [
      "ot",
      "t"
    ],
    [
      "reas",
      "ons</w>"
    ],
    [
      "ric",
      "t</w>"
    ],
    [
      "traff",
      "ic</w>"
    ],
    [
      "At",
      "l"
    ],
    [
      "Intern",
      "ational</w>"
    ],
    [
      "M",
      "ac"
    ],
    [
      "N",
      "o"
    ],
    [
      "Oly",
      "mp"
    ],
    [
      "S",
      "un"
    ],
    [
      "hol",
      "id"
    ],
    [
      "id",
      "ential</w>"
    ],
    [
      "pep",
      "per"
    ],
    [
      "princ",
      "ipl"
    ],
    [
      "r",
      "iver</w>"
    ],
    [
      "suppl",
      "y</w>"
    ],
    [
      "tr",
      "ip</w>"
    ],
    [
      "all",
      "y.</w>"
    ],
    [
      "c",
      "ity.</w>"
    ],
    [
      "custom",
      "ers.</w>"
    ],
    [
      "g",
      "ather"
    ],
    [
      "pand",
      "emic</w>"
    ],
    [
      "pric",
      "es</w>"
    ],
    [
      "w",
      "."
    ],
    [
      "Ch",
      "ic"
    ],
    [
      "Fir",
      "st</w>"
    ],
    [
      "S",
      "ar"
    ],
    [
      "St",
      "re"
    ],
    [
      "ad",
      ",</w>"
    ],
    [
      "all",
      "-"
    ],
    [
      "follow",
      "</w>"
    ],
    [
      "low",
      "-"
    ],
    [
      "o",
      "on</w>"
    ],
    [
      "Fir",
      "st,</w>"
    ],
    [
      "auth",
      "ent"
    ],
    [
      "bl",
      "ed</w>"
    ],
    [
      "d",
      "oct"
    ],
    [
      "eri",
      "a</w>"
    ],
    [
      "fi",
      "x"
    ],
    [
      "k",
      "il"
    ],
    [
      "M",
      "art"
    ],
    [
      "Willi",
      "am</w>"
    ],
    [
      "a",
      "str"
    ],
    [
      "bre",
      "ath"
    ],
    [
      "h",
      "ashing</w>"
    ],
    [
      "introduc",
      "ed</w>"
    ],
    [
      "k",
      "er</w>"
    ],
    [
      "Californ",
      "ia</w>"
    ],
    [
      "Ger",
      "many</w>"
    ],
    [
      "In",
      "d"
    ],
    [
      "L",
      "u"
    ],
    [
      "T",
      "u"
    ],
    [
      "continu",
      "ed</w>"
    ],
    [
      "en",
      "able</w>"
    ],
    [
      "hor",
      "iz"
    ],
    [
      "or",
      "ang"
    ],
    [
      "pat",
      "ching</w>"
    ],
    [
      "pos",
      "it"
    ],
    [
      "scen",
      "ari"
    ],
    [
      "tw",
      "o-"
    ],
    [
      "ww",
      "w."
    ],
    [
      "3",
      "3"
    ],
    [
      "As",
      "s"
    ],
    [
      "G",
      "al"
    ],
    [
      "I",
      "sl"
    ],
    [
      "adv",
      "anc"
    ],
    [
      "bo",
      "x"
    ],
    [
      "enc",
      "y.</w>"
    ],
    [
      "s",
      "even</w>"
    ],
    [
      "sur",
      "fac"
    ],
    [
      "tr",
      "ain</w>"
    ],
    [
      "B",
      "ec"
    ],
    [
      "Earth",
      "'s</w>"
    ],
    [
      "R",
      "ed"
    ],
    [
      "T",
      "o"
    ],
    [
      "bl",
      "ood</w>"
    ],
    [
      "independ",
      "ent</w>"
    ],
    [
      "invest",
      "ment</w>"
    ],
    [
      "iv",
      "al</w>"
    ],
    [
      "out",
      "com"
    ],
    [
      "ro",
      "bot</w>"
    ],
    [
      "st",
      "and</w>"
    ],
    [
      "sub",
      "ject</w>"
    ],
    [
      "\"",
      ":</w>"
    ],
    [
      "S",
      "ch"
    ],
    [
      "h",
      "ib"
    ],
    [
      "im",
      "ages</w>"
    ],
    [
      "migr",
      "ations</w>"
    ],
    [
      "other",
      "s.</w>"
    ],
    [
      "st",
      "op</w>"
    ],
    [
      "5",
      "5"
    ],
    [
      "Ger",
      "man</w>"
    ],
    [
      "Ital",
      "ian</w>"
    ],
    [
      "Japan",
      "ese</w>"
    ],
    [
      "L",
      "it"
    ],
    [
      "at",
      "ed.</w>"
    ],
    [
      "aw",
      "are</w>"
    ],
    [
      "c",
      "ross"
    ],
    [
      "cup",
      "s</w>"
    ],
    [
      "encryp",
      "tion</w>"
    ],
    [
      "ers",
      ":</w>"
    ],
    [
      "inst",
      "it"
    ],
    [
      "ion",
      "s:</w>"
    ],
    [
      "on",
      "e's</w>"
    ],
    [
      "organ",
      "ization</w>"
    ],
    [
      "ov",
      "en</w>"
    ],
    [
      "vibr",
      "ant</w>"
    ],
    [
      "wh",
      "e"
    ],
    [
      "A",
      "B"
    ],
    [
      "C",
      "entr"
    ],
    [
      "Im",
      "prov"
    ],
    [
      "alb",
      "um</w>"
    ],
    [
      "audi",
      "ence</w>"
    ],
    [
      "b",
      "ed</w>"
    ],
    [
      "c",
      "um"
    ],
    [
      "cent",
      "er</w>"
    ],
    [
      "dr",
      "ag"
    ],
    [
      "ent",
      "y</w>"
    ],
    [
      "health",
      "care"
    ],
    [
      "opp",
      "ed</w>"
    ],
    [
      "pres",
      "ident</w>"
    ],
    [
      "reach",
      "ed</w>"
    ],
    [
      "reduc",
      "ed</w>"
    ],
    [
      "1",
      "-"
    ],
    [
      "col",
      "or"
    ],
    [
      "de",
      "ath</w>"
    ],
    [
      "energ",
      "y,</w>"
    ],
    [
      "ent",
      "er</w>"
    ],
    [
      "experienc",
      "ed</w>"
    ],
    [
      "h",
      "idden</w>"
    ],
    [
      "leav",
      "es</w>"
    ],
    [
      "p",
      "sych"
    ],
    [
      "plat",
      "form"
    ],
    [
      "prim",
      "arily</w>"
    ],
    [
      "qu",
      "ar"
    ],
    [
      "r",
      "ace</w>"
    ],
    [
      "y",
      "l"
    ],
    [
      "Al",
      "l"
    ],
    [
      "F",
      "ol"
    ],
    [
      "S",
      "o</w>"
    ],
    [
      "a",
      "x</w>"
    ],
    [
      "al",
      "ing</w>"
    ],
    [
      "consump",
      "tion</w>"
    ],
    [
      "defin",
      "ed</w>"
    ],
    [
      "eas",
      "t</w>"
    ],
    [
      "in",
      "struct"
    ],
    [
      "mor",
      "ning</w>"
    ],
    [
      "p",
      "en"
    ],
    [
      ".",
      ",</w>"
    ],
    [
      "F",
      "re"
    ],
    [
      "Intern",
      "et</w>"
    ],
    [
      "an",
      "ch"
    ],
    [
      "ar",
      "ity</w>"
    ],
    [
      "f",
      "ict"
    ],
    [
      "fe",
      "w"
    ],
    [
      "inst",
      "all"
    ],
    [
      "involv",
      "ed</w>"
    ],
    [
      "l",
      "eng"
    ],
    [
      "mus",
      "ical</w>"
    ],
    [
      "proc",
      "ess.</w>"
    ],
    [
      "18",
      "</w>"
    ],
    [
      "SDK",
      "s</w>"
    ],
    [
      "d",
      "ynam"
    ],
    [
      "end",
      "points</w>"
    ],
    [
      "go",
      "ods</w>"
    ],
    [
      "mom",
      "ent</w>"
    ],
    [
      "p",
      "ict"
    ],
    [
      "vill",
      "age</w>"
    ],
    [
      "Bu",
      "il"
    ],
    [
      "NB",
      "A</w>"
    ],
    [
      "alternat",
      "ive</w>"
    ],
    [
      "asyn",
      "c</w>"
    ],
    [
      "dec",
      "ad"
    ],
    [
      "g",
      "ives</w>"
    ],
    [
      "nam",
      "es</w>"
    ],
    [
      "ro",
      "cer"
    ],
    [
      "t",
      "el"
    ],
    [
      "E",
      "ast</w>"
    ],
    [
      "K",
      "</w>"
    ],
    [
      "St",
      "art</w>"
    ],
    [
      "W",
      "ar"
    ],
    [
      "ari",
      "an</w>"
    ],
    [
      "c",
      "row"
    ],
    [
      "comp",
      "are</w>"
    ],
    [
      "fru",
      "it</w>"
    ],
    [
      "n",
      "ess"
    ],
    [
      "or",
      "ity</w>"
    ],
    [
      "phen",
      "omen"
    ],
    [
      "st",
      "er</w>"
    ],
    [
      "Lif",
      "e</w>"
    ],
    [
      "P",
      "an"
    ],
    [
      "activ",
      "ities.</w>"
    ],
    [
      "as",
      "ked</w>"
    ],
    [
      "chall",
      "enge</w>"
    ],
    [
      "des",
      "tin"
    ],
    [
      "ef",
      "ul"
    ],
    [
      "exp",
      "ect"
    ],
    [
      "f",
      "t"
    ],
    [
      "in",
      "j"
    ],
    [
      "mem",
      "ory</w>"
    ],
    [
      "mid",
      "dle</w>"
    ],
    [
      "nat",
      "ive</w>"
    ],
    [
      "sh",
      "el"
    ],
    [
      "themselv",
      "es</w>"
    ],
    [
      "vehic",
      "les</w>"
    ],
    [
      "C",
      "at"
    ],
    [
      "C",
      "our"
    ],
    [
      "H",
      "aw"
    ],
    [
      "Lond",
      "on</w>"
    ],
    [
      "N",
      "ot</w>"
    ],
    [
      "add",
      "ress"
    ],
    [
      "ar",
      "y,</w>"
    ],
    [
      "im",
      "medi"
    ],
    [
      "out",
      "door</w>"
    ],
    [
      "pe",
      "ace</w>"
    ],
    [
      "um",
      ".</w>"
    ],
    [
      "ad",
      "em"
    ],
    [
      "be",
      "ach</w>"
    ],
    [
      "off",
      "ice</w>"
    ],
    [
      "on",
      "y</w>"
    ],
    [
      "s",
      "cr"
    ],
    [
      "th",
      "us</w>"
    ],
    [
      "up",
      ".</w>"
    ],
    [
      "P",
      "et"
    ],
    [
      "ban",
      "k</w>"
    ],
    [
      "conn",
      "ection</w>"
    ],
    [
      "cred",
      "it</w>"
    ],
    [
      "el",
      "s,</w>"
    ],
    [
      "nucle",
      "ar</w>"
    ],
    [
      "recogn",
      "ize</w>"
    ],
    [
      "sy",
      "mptom"
    ],
    [
      "H",
      "el"
    ],
    [
      "M",
      "ari"
    ],
    [
      "T",
      "es"
    ],
    [
      "Thr",
      "ough</w>"
    ],
    [
      "Un",
      "ivers"
    ],
    [
      "ampl",
      "es</w>"
    ],
    [
      "ch",
      "ocol"
    ],
    [
      "complet",
      "ed</w>"
    ],
    [
      "ex",
      "am"
    ],
    [
      "i",
      ".</w>"
    ],
    [
      "pa",
      "th</w>"
    ],
    [
      "togeth",
      "er.</w>"
    ],
    [
      "veget",
      "abl"
    ],
    [
      "6",
      "7"
    ],
    [
      "Cl",
      "imate</w>"
    ],
    [
      "I",
      "I</w>"
    ],
    [
      "P",
      "al"
    ],
    [
      "W",
      "estern</w>"
    ],
    [
      "c",
      "ore</w>"
    ],
    [
      "ch",
      "ance</w>"
    ],
    [
      "des",
      "t</w>"
    ],
    [
      "ent",
      "ially</w>"
    ],
    [
      "f",
      "at"
    ],
    [
      "fer",
      "ence</w>"
    ],
    [
      "p",
      "izz"
    ],
    [
      "perform",
      "ance.</w>"
    ],
    [
      "w",
      "inning</w>"
    ],
    [
      "18",
      "9"
    ],
    [
      "20",
      "0</w>"
    ],
    [
      "Ed",
      "it</w>"
    ],
    [
      "S",
      "im"
    ],
    [
      "af",
      "for"
    ],
    [
      "al",
      "ize</w>"
    ],
    [
      "chil",
      "d</w>"
    ],
    [
      "degre",
      "e</w>"
    ],
    [
      "recomm",
      "end</w>"
    ],
    [
      "H",
      "ist"
    ],
    [
      "en",
      "su"
    ],
    [
      "ide",
      "al</w>"
    ],
    [
      "il",
      "i"
    ],
    [
      "op",
      "pos"
    ],
    [
      "own",
      "ed</w>"
    ],
    [
      "rele",
      "ase</w>"
    ],
    [
      "remot",
      "e</w>"
    ],
    [
      "sp",
      "ort"
    ],
    [
      "y",
      "\"</w>"
    ],
    [
      "C",
      "iv"
    ],
    [
      "D",
      "o"
    ],
    [
      "H",
      "er</w>"
    ],
    [
      "I",
      ".</w>"
    ],
    [
      "R",
      "en"
    ],
    [
      "al",
      "though</w>"
    ],
    [
      "encour",
      "ages</w>"
    ],
    [
      "pres",
      "ence</w>"
    ],
    [
      "sc",
      "ore</w>"
    ],
    [
      "-",
      "to-"
    ],
    [
      "G",
      "o"
    ],
    [
      "M",
      "et"
    ],
    [
      "ar",
      "is"
    ],
    [
      "b",
      "ic"
    ],
    [
      "enc",
      "oun"
    ],
    [
      "m",
      "ass"
    ],
    [
      "ric",
      "e</w>"
    ],
    [
      "U",
      "l"
    ],
    [
      "ag",
      "ain</w>"
    ],
    [
      "aut",
      "onom"
    ],
    [
      "ca",
      "using</w>"
    ],
    [
      "categ",
      "or"
    ],
    [
      "decre",
      "ase</w>"
    ],
    [
      "detail",
      "s</w>"
    ],
    [
      "group",
      "s</w>"
    ],
    [
      "m",
      "amm"
    ],
    [
      "p",
      "over"
    ],
    [
      "pass",
      "ed</w>"
    ],
    [
      "vis",
      "it"
    ],
    [
      "G",
      "en"
    ],
    [
      "act",
      "ion.</w>"
    ],
    [
      "ad",
      "ding</w>"
    ],
    [
      "aff",
      "ect</w>"
    ],
    [
      "as",
      "s,</w>"
    ],
    [
      "brow",
      "n</w>"
    ],
    [
      "dis",
      "rup"
    ],
    [
      "food",
      "s</w>"
    ],
    [
      "organ",
      "ic</w>"
    ],
    [
      "os",
      "p"
    ],
    [
      "out",
      "put"
    ],
    [
      "p",
      "ic"
    ],
    [
      "pract",
      "ices</w>"
    ],
    [
      "resourc",
      "es.</w>"
    ],
    [
      "sched",
      "ul"
    ],
    [
      "5",
      "8"
    ],
    [
      "K",
      "n"
    ],
    [
      "at",
      "ely,</w>"
    ],
    [
      "bud",
      "get"
    ],
    [
      "defin",
      "ition</w>"
    ],
    [
      "ow",
      "l</w>"
    ],
    [
      "r",
      "ain</w>"
    ],
    [
      "4",
      "7"
    ],
    [
      "Calcul",
      "ate</w>"
    ],
    [
      "Centr",
      "al</w>"
    ],
    [
      "M",
      "L</w>"
    ],
    [
      "be",
      "y"
    ],
    [
      "consequ",
      "ences</w>"
    ],
    [
      "deliv",
      "ery</w>"
    ],
    [
      "happ",
      "y</w>"
    ],
    [
      "i",
      "or</w>"
    ],
    [
      "in",
      "fl"
    ],
    [
      "ing",
      "u"
    ],
    [
      "l",
      "ying</w>"
    ],
    [
      "sle",
      "ep"
    ],
    [
      "team",
      ".</w>"
    ],
    [
      "th",
      "inking</w>"
    ],
    [
      "5",
      "9"
    ],
    [
      "Th",
      "om"
    ],
    [
      "co",
      "ast"
    ],
    [
      "diagn",
      "os"
    ],
    [
      "stor",
      "ies</w>"
    ],
    [
      "t",
      "ag"
    ],
    [
      "you'",
      "re</w>"
    ],
    [
      "4",
      "6"
    ],
    [
      "E",
      "valu"
    ],
    [
      "S",
      "am"
    ],
    [
      "T",
      "im"
    ],
    [
      "accur",
      "ately</w>"
    ],
    [
      "announc",
      "ed</w>"
    ],
    [
      "b",
      "ab"
    ],
    [
      "con",
      "text</w>"
    ],
    [
      "lab",
      "el"
    ],
    [
      "mil",
      "k</w>"
    ],
    [
      "par",
      "ents</w>"
    ],
    [
      "w",
      "inter</w>"
    ],
    [
      "Rob",
      "ert</w>"
    ],
    [
      "ain",
      ".</w>"
    ],
    [
      "civ",
      "il</w>"
    ],
    [
      "dre",
      "am"
    ],
    [
      "encour",
      "age</w>"
    ],
    [
      "exp",
      "ensive</w>"
    ],
    [
      "food",
      ",</w>"
    ],
    [
      "func",
      "tion"
    ],
    [
      "imp",
      "acts</w>"
    ],
    [
      "inte",
      "g"
    ],
    [
      "n",
      "ight.</w>"
    ],
    [
      "previ",
      "ous</w>"
    ],
    [
      "technolog",
      "y,</w>"
    ],
    [
      "to",
      "ol"
    ],
    [
      "v",
      "ict"
    ],
    [
      "5",
      "6"
    ],
    [
      "`",
      "</w>"
    ],
    [
      "cl",
      "ub</w>"
    ],
    [
      "d",
      "h"
    ],
    [
      "for",
      "e</w>"
    ],
    [
      "l",
      "s</w>"
    ],
    [
      "lit",
      "er"
    ],
    [
      "m",
      "a</w>"
    ],
    [
      "mo",
      "on</w>"
    ],
    [
      "o",
      "ke</w>"
    ],
    [
      "polic",
      "ies</w>"
    ],
    [
      "wee",
      "k</w>"
    ],
    [
      "1",
      "3</w>"
    ],
    [
      "4",
      ")</w>"
    ],
    [
      "analyz",
      "ing</w>"
    ],
    [
      "cap",
      "ac"
    ],
    [
      "co",
      "ol</w>"
    ],
    [
      "de",
      "ep"
    ],
    [
      "dog",
      "s</w>"
    ],
    [
      "environment",
      ",</w>"
    ],
    [
      "fac",
      "ts</w>"
    ],
    [
      "grad",
      "u"
    ],
    [
      "monit",
      "or</w>"
    ],
    [
      "stor",
      "y.</w>"
    ],
    [
      "su",
      "re"
    ],
    [
      "the",
      "or"
    ],
    [
      "ation",
      "?</w>"
    ],
    [
      "av",
      "ing</w>"
    ],
    [
      "class",
      "ic</w>"
    ],
    [
      "cr",
      "imin"
    ],
    [
      "decis",
      "ion-"
    ],
    [
      "f",
      "al"
    ],
    [
      "ic",
      "es,</w>"
    ],
    [
      "ight",
      "ly</w>"
    ],
    [
      "learn",
      "ing,</w>"
    ],
    [
      "m",
      "ass</w>"
    ],
    [
      "m",
      "en"
    ],
    [
      "n",
      "ess.</w>"
    ],
    [
      "prot",
      "agon"
    ],
    [
      "str",
      "ange</w>"
    ],
    [
      "ta",
      "il</w>"
    ],
    [
      "te",
      "d"
    ],
    [
      "top",
      "ic.</w>"
    ],
    [
      "y",
      "an"
    ],
    [
      "C",
[...]
