{
  "end_marker": "</w>",
  "merges": [
    [
      "s",
      "</w>"
    ],
    [
      "i",
      "n"
    ],
    [
      "r",
      "e"
    ],
    [
      "o",
      "n"
    ],
    [
      ".",
      "</w>"
    ],
    [
      "e",
      "r"
    ],
    [
      "t",
      "i"
    ],
    [
      "a",
      "n"
    ],
    [
      "e",
      "</w>"
    ],
    [
      "e",
      "n"
    ],
    [
      "d",
      "</w>"
    ],
    [
      "e",
      "s</w>"
    ],
    [
      ",",
      "</w>"
    ],
    [
      "o",
      "r"
    ],
    [
      "s",
      ".</w>"
    ],
    [
      "ti",
      "on"
    ],
    [
      "in",
      "g"
    ],
    [
      "s",
      "t"
    ],
    [
      "s",
      ",</w>"
    ],
    [
      "a",
      "r"
    ],
    [
      "r",
      "o"
    ],
    [
      "a",
      "l"
    ],
    [
      "a",
      "t"
    ],
    [
      "d",
      "e"
    ],
    [
      "an",
      "d</w>"
    ],
    [
      "a",
      "tion"
    ],
    [
      "ing",
      "</w>"
    ],
    [
      "a",
      "c"
    ],
    [
      "l",
      "e"
    ],
    [
      "i",
      "t"
    ],
    [
      "v",
      "er"
    ],
    [
      "c",
      "h"
    ],
    [
      "p",
      "l"
    ],
    [
      "a",
      "b"
    ],
    [
      "i",
      "c"
    ],
    [
      "t",
      "o"
    ],
    [
      "s",
      "i"
    ],
    [
      "en",
      "t"
    ],
    [
      "c",
      "o"
    ],
    [
      "u",
      "c"
    ],
    [
      "re",
      "</w>"
    ],
    [
      "ation",
      "</w>"
    ],
    [
      "y",
      "</w>"
    ],
    [
      "or",
      "</w>"
    ],
    [
      "p",
      "ro"
    ],
    [
      "on",
      "</w>"
    ],
    [
      "t",
      "u"
    ],
    [
      "e",
      "x"
    ],
    [
      "e",
      "m"
    ],
    [
      "le",
      "ar"
    ],
    [
      "u",
      "t"
    ],
    [
      "al",
      "</w>"
    ],
    [
      "a",
      "s"
    ],
    [
      "a",
      "p"
    ],
    [
      "t",
      "r"
    ],
    [
      "n",
      "e"
    ],
    [
      "h",
      "</w>"
    ],
    [
      "lear",
      "n"
    ],
    [
      "e",
      "d</w>"
    ],
    [
      "m",
      "o"
    ],
    [
      "p",
      "er"
    ],
    [
      "m",
      "ent"
    ],
    [
      "c",
      "e"
    ],
    [
      "k",
      "s</w>"
    ],
    [
      "l",
      "e</w>"
    ],
    [
      "st",
      "r"
    ],
    [
      "i",
      "z"
    ],
    [
      "q",
      "u"
    ],
    [
      "v",
      "i"
    ],
    [
      "l",
      "</w>"
    ],
    [
      "R",
      "e"
    ],
    [
      "to",
      "</w>"
    ],
    [
      ";",
      "</w>"
    ],
    [
      "w",
      "it"
    ],
    [
      "e",
      "s.</w>"
    ],
    [
      "d",
      "uc"
    ],
    [
      "a",
      "g"
    ],
    [
      "er",
      "s</w>"
    ],
    [
      "u",
      "r"
    ],
    [
      "u",
      "s"
    ],
    [
      "l",
      "o"
    ],
    [
      "u",
      "l"
    ],
    [
      "s",
      "u"
    ],
    [
      "learn",
      "ing</w>"
    ],
    [
      "i",
      "m"
    ],
    [
      "t",
      "s</w>"
    ],
    [
      "i",
      "g"
    ],
    [
      "mo",
      "de"
    ],
    [
      "o",
      "ver"
    ],
    [
      "wit",
      "h</w>"
    ],
    [
      "co",
      "m"
    ],
    [
      "str",
      "uc"
    ],
    [
      "struc",
      "tu"
    ],
    [
      "s",
      "e"
    ],
    [
      "a",
      "in"
    ],
    [
      "t",
      "</w>"
    ],
    [
      "t",
      "w"
    ],
    [
      "i",
      "es</w>"
    ],
    [
      "d",
      "at"
    ],
    [
      "p",
      "o"
    ],
    [
      "on",
      "t"
    ],
    [
      "s",
      "y"
    ],
    [
      "sy",
      "st"
    ],
    [
      "syst",
      "em"
    ],
    [
      "en",
      "c"
    ],
    [
      "t",
      "ab"
    ],
    [
      "a",
      "</w>"
    ],
    [
      "si",
      "on</w>"
    ],
    [
      "e",
      "l"
    ],
    [
      "s",
      ";</w>"
    ],
    [
      "or",
      "m"
    ],
    [
      "u",
      "n"
    ],
    [
      "an",
      "g"
    ],
    [
      "a",
      "y"
    ],
    [
      "i",
      "l"
    ],
    [
      "in",
      "e"
    ],
    [
      "t",
      "h"
    ],
    [
      "en",
      "d"
    ],
    [
      "o",
      "re</w>"
    ],
    [
      "l",
      "u"
    ],
    [
      "ing",
      ".</w>"
    ],
    [
      "b",
      "u"
    ],
    [
      "ne",
      "tw"
    ],
    [
      "netw",
      "or"
    ],
    [
      "networ",
      "ks</w>"
    ],
    [
      "f",
      "or</w>"
    ],
    [
      "s",
      "er"
    ],
    [
      "S",
      "Q"
    ],
    [
      "SQ",
      "L"
    ],
    [
      "c",
      "an"
    ],
    [
      "de",
      "x"
    ],
    [
      "er",
      "s,</w>"
    ],
    [
      "re",
      "g"
    ],
    [
      "e",
      "c"
    ],
    [
      "ti",
      "m"
    ],
    [
      "ab",
      "le</w>"
    ],
    [
      "structu",
      "re"
    ],
    [
      "re",
      "n"
    ],
    [
      "a",
      "d"
    ],
    [
      "en",
      "ti"
    ],
    [
      "ch",
      "ang"
    ],
    [
      "tion",
      "</w>"
    ],
    [
      "ut",
      "</w>"
    ],
    [
      "i",
      "s"
    ],
    [
      "re",
      "s"
    ],
    [
      "mode",
      "l"
    ],
    [
      "over",
      "</w>"
    ],
    [
      "t",
      "e"
    ],
    [
      "im",
      "pro"
    ],
    [
      "impro",
      "v"
    ],
    [
      "ment",
      "s</w>"
    ],
    [
      "to",
      "k"
    ],
    [
      "tok",
      "en"
    ],
    [
      "tr",
      "ain"
    ],
    [
      "ation",
      "s</w>"
    ],
    [
      "u",
      "p"
    ],
    [
      "s",
      "e</w>"
    ],
    [
      "si",
      "g"
    ],
    [
      "ac",
      "t"
    ],
    [
      "at",
      "</w>"
    ],
    [
      "at",
      "e</w>"
    ],
    [
      "pl",
      "ic"
    ],
    [
      "re",
      "duc"
    ],
    [
      "a",
      "d</w>"
    ],
    [
      "ac",
      "h"
    ],
    [
      "pro",
      "duc"
    ],
    [
      "ar",
      "ch"
    ],
    [
      "c",
      "ont"
    ],
    [
      "g",
      "e</w>"
    ],
    [
      "de",
      "p"
    ],
    [
      "dep",
      "end"
    ],
    [
      "ing",
      ",</w>"
    ],
    [
      "ser",
      "v"
    ],
    [
      "ce",
      "s"
    ],
    [
      "d",
      "e</w>"
    ],
    [
      "a",
      "f"
    ],
    [
      "si",
      "on"
    ],
    [
      "system",
      "s</w>"
    ],
    [
      "p",
      "ac"
    ],
    [
      "in",
      "</w>"
    ],
    [
      "in",
      "es</w>"
    ],
    [
      "f",
      "ic"
    ],
    [
      "ag",
      "e</w>"
    ],
    [
      "k",
      "e"
    ],
    [
      "ke",
      "y"
    ],
    [
      "key",
      "s</w>"
    ],
    [
      "s",
      "can"
    ],
    [
      "tab",
      "le"
    ],
    [
      "ro",
      "w"
    ],
    [
      "SQL",
      "</w>"
    ],
    [
      "in",
      "dex"
    ],
    [
      "ver",
      "sion</w>"
    ],
    [
      "y",
      ".</w>"
    ],
    [
      "t",
      "s,</w>"
    ],
    [
      "i",
      "d"
    ],
    [
      "m",
      "ap"
    ],
    [
      "j",
      "ec"
    ],
    [
      "ab",
      "as"
    ],
    [
      "dat",
      "a</w>"
    ],
    [
      "us",
      "e</w>"
    ],
    [
      "orm",
      "al"
    ],
    [
      "ormal",
      "iz"
    ],
    [
      "ormaliz",
      "ation</w>"
    ],
    [
      "w",
      "r"
    ],
    [
      "wr",
      "it"
    ],
    [
      "ro",
      "s"
    ],
    [
      "ach",
      "in"
    ],
    [
      "c",
      "or"
    ],
    [
      "n",
      "</w>"
    ],
    [
      "produc",
      "tion</w>"
    ],
    [
      "b",
      "ut</w>"
    ],
    [
      "com",
      "p"
    ],
    [
      "re",
      "p"
    ],
    [
      "w",
      "</w>"
    ],
    [
      "l",
      "ic"
    ],
    [
      "A",
      "P"
    ],
    [
      "AP",
      "I"
    ],
    [
      "A",
      "ut"
    ],
    [
      "a",
      "m"
    ],
    [
      "per",
      "vi"
    ],
    [
      "pervi",
      "s"
    ],
    [
      "pervis",
      "ed</w>"
    ],
    [
      "ent",
      "</w>"
    ],
    [
      "o",
      "p"
    ],
    [
      "op",
      "tim"
    ],
    [
      "optim",
      "iz"
    ],
    [
      "structure",
      "d</w>"
    ],
    [
      "ren",
      "t</w>"
    ],
    [
      "t",
      "er"
    ],
    [
      "ter",
      "n"
    ],
    [
      "an",
      "s"
    ],
    [
      "c",
      "ur"
    ],
    [
      "re",
      "d"
    ],
    [
      "f",
      "orm"
    ],
    [
      "s",
      "h"
    ],
    [
      "sh",
      "ar"
    ],
    [
      "se",
      "le"
    ],
    [
      "sele",
      "c"
    ],
    [
      "an",
      "n"
    ],
    [
      "s",
      "af"
    ],
    [
      "o",
      "b"
    ],
    [
      "o",
      "f"
    ],
    [
      "en",
      "g"
    ],
    [
      "eng",
      "ine"
    ],
    [
      "engine",
      "er"
    ],
    [
      "o",
      "c"
    ],
    [
      "oc",
      "u"
    ],
    [
      "f",
      "act"
    ],
    [
      "fact",
      "or"
    ],
    [
      "l",
      "ay"
    ],
    [
      "t",
      "en"
    ],
    [
      "st",
      "ore</w>"
    ],
    [
      "ti",
      "c"
    ],
    [
      "l",
      "ation"
    ],
    [
      "ac",
      "tion"
    ],
    [
      "action",
      "s</w>"
    ],
    [
      "m",
      "ul"
    ],
    [
      "mul",
      "ti"
    ],
    [
      "un",
      "d"
    ],
    [
      "tu",
      "re</w>"
    ],
    [
      "tr",
      "ac"
    ],
    [
      "improv",
      "es</w>"
    ],
    [
      "it",
      "y</w>"
    ],
    [
      "b",
      "e"
    ],
    [
      "mode",
      "l</w>"
    ],
    [
      "ex",
      "t</w>"
    ],
    [
      "re",
      "train"
    ],
    [
      "mo",
      "d"
    ],
    [
      "t",
      ".</w>"
    ],
    [
      "ex",
      "pl"
    ],
    [
      "w",
      "ar"
    ],
    [
      "war",
      "d</w>"
    ],
    [
      "v",
      "al"
    ],
    [
      "u",
      "re</w>"
    ],
    [
      "an",
      "d"
    ],
    [
      "at",
      "es</w>"
    ],
    [
      "s",
      "ch"
    ],
    [
      "r",
      "a"
    ],
    [
      "bu",
      "il"
    ],
    [
      "cont",
      "ro"
    ],
    [
      "n",
      "o"
    ],
    [
      "no",
      "w"
    ],
    [
      "now",
      "le"
    ],
    [
      "nowle",
      "d"
    ],
    [
      "nowled",
      "ge</w>"
    ],
    [
      "g",
      "r"
    ],
    [
      "com",
      "b"
    ],
    [
      "comb",
      "ines</w>"
    ],
    [
      "m",
      "e"
    ],
    [
      "m",
      "s</w>"
    ],
    [
      "ap",
      "plic"
    ],
    [
      "applic",
      "ations</w>"
    ],
    [
      "I",
      "n"
    ],
    [
      "d",
      "i"
    ],
    [
      "an",
      "c"
    ],
    [
      "ex",
      "po"
    ],
    [
      "expo",
      "se</w>"
    ],
    [
      "pac",
      "k"
    ],
    [
      "depend",
      "enc"
    ],
    [
      "dependenc",
      "ies</w>"
    ],
    [
      "u",
      "b"
    ],
    [
      "c",
      "lu"
    ],
    [
      "clu",
      "st"
    ],
    [
      "a",
      "s</w>"
    ],
    [
      "ver",
      "s</w>"
    ],
    [
      "reduc",
      "e</w>"
    ],
    [
      "l",
      "at"
    ],
    [
      "per",
      "ce"
    ],
    [
      "re",
      "as"
    ],
    [
      "reas",
      "on"
    ],
    [
      "pro",
      "ces"
    ],
    [
      "system",
      "s.</w>"
    ],
    [
      "de",
      "f"
    ],
    [
      "e",
      "d"
    ],
    [
      "co",
      "de</w>"
    ],
    [
      "C",
      "ont"
    ],
    [
      "de",
      "pl"
    ],
    [
      "depl",
      "o"
    ],
    [
      "deplo",
      "y"
    ],
    [
      "deploy",
      "ment"
    ],
    [
      "deployment",
      ".</w>"
    ],
    [
      "structu",
      "re</w>"
    ],
    [
      "h",
      "o"
    ],
    [
      "a",
      ".</w>"
    ],
    [
      "i",
      "b"
    ],
    [
      "selec",
      "ts,</w>"
    ],
    [
      "f",
      "il"
    ],
    [
      "fil",
      "t"
    ],
    [
      "filt",
      "ers,</w>"
    ],
    [
      "j",
      "o"
    ],
    [
      "jo",
      "in"
    ],
    [
      "join",
      "s,</w>"
    ],
    [
      "g",
      "ro"
    ],
    [
      "gro",
      "up"
    ],
    [
      "group",
      "s,</w>"
    ],
    [
      "ag",
      "g"
    ],
    [
      "agg",
      "reg"
    ],
    [
      "aggreg",
      "ates</w>"
    ],
    [
      "re",
      "cor"
    ],
    [
      "recor",
      "d"
    ],
    [
      "record",
      "s.</w>"
    ],
    [
      "P",
      "r"
    ],
    [
      "Pr",
      "im"
    ],
    [
      "Prim",
      "ar"
    ],
    [
      "Primar",
      "y</w>"
    ],
    [
      "un",
      "i"
    ],
    [
      "uni",
      "qu"
    ],
    [
      "uniqu",
      "el"
    ],
    [
      "uniquel",
      "y</w>"
    ],
    [
      "id",
      "enti"
    ],
    [
      "identi",
      "f"
    ],
    [
      "identif",
      "y</w>"
    ],
    [
      "row",
      "s;</w>"
    ],
    [
      "f",
      "o"
    ],
    [
      "fo",
      "re"
    ],
    [
      "fore",
      "ig"
    ],
    [
      "foreig",
      "n</w>"
    ],
    [
      "l",
      "in"
    ],
    [
      "lin",
      "k"
    ],
    [
      "link",
      "</w>"
    ],
    [
      "table",
      "s.</w>"
    ],
    [
      "Q",
      "u"
    ],
    [
      "Qu",
      "er"
    ],
    [
      "Quer",
      "y</w>"
    ],
    [
      "pl",
      "ann"
    ],
    [
      "plann",
      "ers</w>"
    ],
    [
      "ch",
      "o"
    ],
    [
      "cho",
      "o"
    ],
    [
      "choo",
      "se</w>"
    ],
    [
      "index",
      "</w>"
    ],
    [
      "scan",
      "s</w>"
    ],
    [
      "ver",
      "su"
    ],
    [
      "versu",
      "s</w>"
    ],
    [
      "f",
      "ul"
    ],
    [
      "ful",
      "l</w>"
    ],
    [
      "tab",
      "le</w>"
    ],
    [
      "scan",
      "s.</w>"
    ],
    [
      "M",
      "ig"
    ],
    [
      "Mig",
      "r"
    ],
    [
      "Migr",
      "ations</w>"
    ],
    [
      "sch",
      "em"
    ],
    [
      "schem",
      "a</w>"
    ],
    [
      "chang",
      "es</w>"
    ],
    [
      "saf",
      "el"
    ],
    [
      "safel",
      "y.</w>"
    ],
    [
      "O",
      "R"
    ],
    [
      "OR",
      "M"
    ],
    [
      "ORM",
      "s</w>"
    ],
    [
      "map",
      "</w>"
    ],
    [
      "ob",
      "jec"
    ],
    [
      "objec",
      "ts</w>"
    ],
    [
      "tab",
      "l"
    ],
    [
      "tabl",
      "es</w>"
    ],
    [
      "comp",
      "le"
    ],
    [
      "comple",
      "x"
    ],
    [
      "complex",
      "</w>"
    ],
    [
      "rep",
      "or"
    ],
    [
      "repor",
      "ts</w>"
    ],
    [
      "s",
      "ti"
    ],
    [
      "sti",
      "l"
    ],
    [
      "stil",
      "l</w>"
    ],
    [
      "ne",
      "ed</w>"
    ],
    [
      "ra",
      "w</w>"
    ],
    [
      "SQL",
      ".</w>"
    ],
    [
      "D",
      "at"
    ],
    [
      "Dat",
      "abas"
    ],
    [
      "Databas",
      "e</w>"
    ],
    [
      "d",
      "ur"
    ],
    [
      "dur",
      "able</w>"
    ],
    [
      "an",
      "al"
    ],
    [
      "anal",
      "y"
    ],
    [
      "analy",
      "tic"
    ],
    [
      "analytic",
      "s.</w>"
    ],
    [
      "Re",
      "lation"
    ],
    [
      "Relation",
      "al</w>"
    ],
    [
      "dat",
      "abas"
    ],
    [
      "databas",
      "es</w>"
    ],
    [
      "table",
      "s,</w>"
    ],
    [
      "row",
      "s,</w>"
    ],
    [
      "co",
      "lu"
    ],
    [
      "colu",
      "m"
    ],
    [
      "colum",
      "n"
    ],
    [
      "column",
      "s,</w>"
    ],
    [
      "qu",
      "er"
    ],
    [
      "quer",
      "i"
    ],
    [
      "queri",
      "es.</w>"
    ],
    [
      "In",
      "dex"
    ],
    [
      "Index",
      "es</w>"
    ],
    [
      "s",
      "p"
    ],
    [
      "sp",
      "e"
    ],
    [
      "spe",
      "ed</w>"
    ],
    [
      "lo",
      "o"
    ],
    [
      "loo",
      "k"
    ],
    [
      "look",
      "up"
    ],
    [
      "lookup",
      "s;</w>"
    ],
    [
      "B",
      "-"
    ],
    [
      "B-",
      "t"
    ],
    [
      "B-t",
      "re"
    ],
    [
      "B-tre",
      "e</w>"
    ],
    [
      "h",
      "as"
    ],
    [
      "has",
      "h</w>"
    ],
    [
      "index",
      "es</w>"
    ],
    [
      "serv",
      "e</w>"
    ],
    [
      "di",
      "f"
    ],
    [
      "dif",
      "f"
    ],
    [
      "diff",
      "e"
    ],
    [
      "diffe",
      "rent</w>"
    ],
    [
      "ac",
      "ces"
    ],
    [
      "acces",
      "s</w>"
    ],
    [
      "p",
      "at"
    ],
    [
      "pat",
      "tern"
    ],
    [
      "pattern",
      "s.</w>"
    ],
    [
      "T",
      "r"
    ],
    [
      "Tr",
      "ans"
    ],
    [
      "Trans",
      "actions</w>"
    ],
    [
      "pro",
      "vi"
    ],
    [
      "provi",
      "de</w>"
    ],
    [
      "A",
      "C"
    ],
    [
      "AC",
      "I"
    ],
    [
      "ACI",
      "D"
    ],
    [
      "ACID",
      "</w>"
    ],
    [
      "g",
      "u"
    ],
    [
      "gu",
      "ar"
    ],
    [
      "guar",
      "an"
    ],
    [
      "guaran",
      "te"
    ],
    [
      "guarante",
      "es</w>"
    ],
    [
      "lo",
      "c"
    ],
    [
      "loc",
      "k"
    ],
    [
      "lock",
      "ing</w>"
    ],
    [
      "multi",
      "-"
    ],
    [
      "multi-",
      "version</w>"
    ],
    [
      "c",
      "on"
    ],
    [
      "con",
      "cur"
    ],
    [
      "concur",
      "ren"
    ],
    [
      "concurren",
      "c"
    ],
    [
      "concurrenc",
      "y.</w>"
    ],
    [
      "N",
      "ormalization</w>"
    ],
    [
      "reduc",
      "es</w>"
    ],
    [
      "red",
      "und"
    ],
    [
      "redund",
      "anc"
    ],
    [
      "redundanc",
      "y"
    ],
    [
      "redundancy",
      ";</w>"
    ],
    [
      "d",
      "en"
    ],
    [
      "den",
      "ormalization</w>"
    ],
    [
      "can",
      "</w>"
    ],
    [
      "improv",
      "e</w>"
    ],
    [
      "re",
      "ad</w>"
    ],
    [
      "per",
      "form"
    ],
    [
      "perform",
      "an"
    ],
    [
      "performan",
      "ce"
    ],
    [
      "performance",
      ".</w>"
    ],
    [
      "Re",
      "plic"
    ],
    [
      "Replic",
      "ation</w>"
    ],
    [
      "shar",
      "d"
    ],
    [
      "shard",
      "ing</w>"
    ],
    [
      "s",
      "c"
    ],
    [
      "sc",
      "al"
    ],
    [
      "scal",
      "e</w>"
    ],
    [
      "re",
      "ad"
    ],
    [
      "read",
      "s</w>"
    ],
    [
      "writ",
      "es</w>"
    ],
    [
      "ac",
      "ros"
    ],
    [
      "acros",
      "s</w>"
    ],
    [
      "m",
      "achin"
    ],
    [
      "machin",
      "es.</w>"
    ],
    [
      "P",
      "y"
    ],
    [
      "Py",
      "th"
    ],
    [
      "Pyth",
      "on</w>"
    ],
    [
      "pack",
      "ag"
    ],
    [
      "packag",
      "es</w>"
    ],
    [
      "or",
      "g"
    ],
    [
      "org",
      "an"
    ],
    [
      "organ",
      "iz"
    ],
    [
      "organiz",
      "e</w>"
    ],
    [
      "re",
      "us"
    ],
    [
      "reus",
      "able</w>"
    ],
    [
      "mod",
      "ul"
    ],
    [
      "modul",
      "es</w>"
    ],
    [
      "c",
      "lear"
    ],
    [
      "clear",
      "</w>"
    ],
    [
      "p",
      "ub"
    ],
    [
      "pub",
      "lic"
    ],
    [
      "public",
      "</w>"
    ],
    [
      "API",
      "s.</w>"
    ],
    [
      "V",
      "i"
    ],
    [
      "Vi",
      "r"
    ],
    [
      "Vir",
      "tu"
    ],
    [
      "Virtu",
      "al</w>"
    ],
    [
      "en",
      "vi"
    ],
    [
      "envi",
      "r"
    ],
    [
      "envir",
      "on"
    ],
    [
      "environ",
      "ments</w>"
    ],
    [
      "is",
      "o"
    ],
    [
      "iso",
      "l"
    ],
    [
      "isol",
      "ate</w>"
    ],
    [
      "per",
      "</w>"
    ],
    [
      "pro",
      "jec"
    ],
    [
      "projec",
      "t.</w>"
    ],
    [
      "R",
      "E"
    ],
    [
      "RE",
      "S"
    ],
    [
      "RES",
      "T"
    ],
    [
      "REST",
      "</w>"
    ],
    [
      "API",
      "s</w>"
    ],
    [
      "res",
      "o"
    ],
    [
      "reso",
      "ur"
    ],
    [
      "resour",
      "c"
    ],
    [
      "resourc",
      "es</w>"
    ],
    [
      "H",
      "T"
    ],
    [
      "HT",
      "T"
    ],
    [
      "HTT",
      "P"
    ],
    [
      "HTTP",
      "</w>"
    ],
    [
      "J",
      "S"
    ],
    [
      "JS",
      "O"
    ],
    [
      "JSO",
      "N"
    ],
    [
      "JSON",
      "</w>"
    ],
    [
      "p",
      "ay"
    ],
    [
      "pay",
      "lo"
    ],
    [
      "paylo",
      "ad"
    ],
    [
      "payload",
      "s.</w>"
    ],
    [
      "Aut",
      "h"
    ],
    [
      "Auth",
      "enti"
    ],
    [
      "Authenti",
      "c"
    ],
    [
      "Authentic",
      "ation</w>"
    ],
    [
      "us",
      "es</w>"
    ],
    [
      "token",
      "s,</w>"
    ],
    [
      "se",
      "s"
    ],
    [
      "ses",
      "sion"
    ],
    [
      "session",
      "s,</w>"
    ],
    [
      "O",
      "Aut"
    ],
    [
      "OAut",
      "h</w>"
    ],
    [
      "depend",
      "ing</w>"
    ],
    [
      "th",
      "re"
    ],
    [
      "thre",
      "at</w>"
    ],
    [
      "model",
      "s.</w>"
    ],
    [
      "D",
      "ocu"
    ],
    [
      "Docu",
      "ment"
    ],
    [
      "Document",
      "ation</w>"
    ],
    [
      "expl",
      "ain"
    ],
    [
      "explain",
      "s</w>"
    ],
    [
      "end",
      "po"
    ],
    [
      "endpo",
      "in"
    ],
    [
      "endpoin",
      "ts,</w>"
    ],
    [
      "er",
      "r"
    ],
    [
      "err",
      "or</w>"
    ],
    [
      "co",
      "de"
    ],
    [
      "code",
      "s,</w>"
    ],
    [
      "ex",
      "am"
    ],
    [
      "exam",
      "pl"
    ],
    [
      "exampl",
      "e</w>"
    ],
    [
      "re",
      "qu"
    ],
    [
      "requ",
      "e"
    ],
    [
      "reque",
      "st"
    ],
    [
      "request",
      "s.</w>"
    ],
    [
      "M",
      "achin"
    ],
    [
      "Machin",
      "e</w>"
    ],
    [
      "train",
      "s</w>"
    ],
    [
      "model",
      "s</w>"
    ],
    [
      "in",
      "st"
    ],
    [
      "inst",
      "e"
    ],
    [
      "inste",
      "ad</w>"
    ],
    [
      "of",
      "</w>"
    ],
    [
      "h",
      "and"
    ],
    [
      "hand",
      "-"
    ],
    [
      "hand-",
      "writ"
    ],
    [
      "hand-writ",
      "ten"
    ],
    [
      "hand-written",
      "</w>"
    ],
    [
      "r",
      "u"
    ],
    [
      "ru",
      "le"
    ],
    [
      "rule",
      "s.</w>"
    ],
    [
      "S",
      "u"
    ],
    [
      "Su",
      "pervised</w>"
    ],
    [
      "map",
      "s</w>"
    ],
    [
      "in",
      "p"
    ],
    [
      "inp",
      "ut"
    ],
    [
      "input",
      "s</w>"
    ],
    [
      "l",
      "ab"
    ],
    [
      "lab",
      "el"
    ],
    [
      "label",
      "s</w>"
    ],
    [
      "c",
      "ros"
    ],
    [
      "cros",
      "s"
    ],
    [
      "cross",
      "-"
    ],
    [
      "cross-",
      "ent"
    ],
    [
      "cross-ent",
      "ro"
    ],
    [
      "cross-entro",
      "p"
    ],
    [
      "cross-entrop",
      "y</w>"
    ],
    [
      "reg",
      "res"
    ],
    [
      "regres",
      "sion</w>"
    ],
    [
      "lo",
      "s"
    ],
    [
      "los",
      "s.</w>"
    ],
    [
      "U",
      "n"
    ],
    [
      "Un",
      "su"
    ],
    [
      "Unsu",
      "pervised</w>"
    ],
    [
      "d",
      "is"
    ],
    [
      "dis",
      "co"
    ],
    [
      "disco",
      "vers</w>"
    ],
    [
      "clust",
      "ers,</w>"
    ],
    [
      "factor",
      "s,</w>"
    ],
    [
      "lat",
      "ent</w>"
    ],
    [
      "structure",
      ".</w>"
    ],
    [
      "Re",
      "in"
    ],
    [
      "Rein",
      "f"
    ],
    [
      "Reinf",
      "or"
    ],
    [
      "Reinfor",
      "c"
    ],
    [
      "Reinforc",
      "em"
    ],
    [
      "Reinforcem",
      "ent</w>"
    ],
    [
      "optimiz",
      "es</w>"
    ],
    [
      "po",
      "lic"
    ],
    [
      "polic",
      "ies</w>"
    ],
    [
      "f",
      "ro"
    ],
    [
      "fro",
      "m"
    ],
    [
      "from",
      "</w>"
    ],
    [
      "re",
      "ward</w>"
    ],
    [
      "sig",
      "n"
    ],
    [
      "sign",
      "al"
    ],
    [
      "signal",
      "s</w>"
    ],
    [
      "tim",
      "e"
    ],
    [
      "time",
      ".</w>"
    ],
    [
      "F",
      "e"
    ],
    [
      "Fe",
      "at"
    ],
    [
      "Feat",
      "ure</w>"
    ],
    [
      "engineer",
      "ing,</w>"
    ],
    [
      "reg",
      "ul"
    ],
    [
      "regul",
      "ar"
    ],
    [
      "regular",
      "iz"
    ],
    [
      "regulariz",
      "ation"
    ],
    [
      "regularization",
      ",</w>"
    ],
    [
      "val",
      "id"
    ],
    [
      "valid",
      "ation</w>"
    ],
    [
      "s",
      "pl"
    ],
    [
      "spl",
      "it"
    ],
    [
      "split",
      "s</w>"
    ],
    [
      "over",
      "f"
    ],
    [
      "overf",
      "it"
    ],
    [
      "overfit",
      "t"
    ],
    [
      "overfitt",
      "ing.</w>"
    ],
    [
      "N",
      "e"
    ],
    [
      "Ne",
      "ur"
    ],
    [
      "Neur",
      "al</w>"
    ],
    [
      "lay",
      "ers,</w>"
    ],
    [
      "ac",
      "ti"
    ],
    [
      "acti",
      "v"
    ],
    [
      "activ",
      "ation"
    ],
    [
      "activation",
      "s,</w>"
    ],
    [
      "optimiz",
      "ers</w>"
    ],
    [
      "su",
      "ch"
    ],
    [
      "such",
      "</w>"
    ],
    [
      "A",
      "d"
    ],
    [
      "Ad",
      "am"
    ],
    [
      "Adam",
      "W"
    ],
    [
      "AdamW",
      ".</w>"
    ],
    [
      "S",
      "of"
    ],
    [
      "Sof",
      "tw"
    ],
    [
      "Softw",
      "a"
    ],
    [
      "Softwa",
      "re</w>"
    ],
    [
      "engineer",
      "ing</w>"
    ],
    [
      "ap",
      "pl"
    ],
    [
      "appl",
      "ies</w>"
    ],
    [
      "proces",
      "s"
    ],
    [
      "process",
      "es</w>"
    ],
    [
      "buil",
      "d</w>"
    ],
    [
      "re",
      "l"
    ],
    [
      "rel",
      "i"
    ],
    [
      "reli",
      "able</w>"
    ],
    [
      "Re",
      "qu"
    ],
    [
      "Requ",
      "i"
    ],
    [
      "Requi",
      "re"
    ],
    [
      "Require",
      "ments</w>"
    ],
    [
      "def",
      "in"
    ],
    [
      "defin",
      "e</w>"
    ],
    [
      "us",
      "er"
    ],
    [
      "user",
      "</w>"
    ],
    [
      "ne",
      "ed"
    ],
    [
      "need",
      "s;</w>"
    ],
    [
      "de",
      "sig"
    ],
    [
      "desig",
      "n</w>"
    ],
    [
      "d",
      "ocu"
    ],
    [
      "docu",
      "ments</w>"
    ],
    [
      "c",
      "ap"
    ],
    [
      "cap",
      "ture</w>"
    ],
    [
      "arch",
      "it"
    ],
    [
      "archit",
      "ec"
    ],
    [
      "architec",
      "ture</w>"
    ],
    [
      "de",
      "c"
    ],
    [
      "dec",
      "i"
    ],
    [
      "deci",
      "sion"
    ],
    [
      "decision",
      "s.</w>"
    ],
    [
      "V",
      "er"
    ],
    [
      "Ver",
      "sion</w>"
    ],
    [
      "contro",
      "l</w>"
    ],
    [
      "trac",
      "ks</w>"
    ],
    [
      "chang",
      "e"
    ],
    [
      "change",
      "s;</w>"
    ],
    [
      "re",
      "vi"
    ],
    [
      "revi",
      "e"
    ],
    [
      "revie",
      "w</w>"
    ],
    [
      "qu",
      "al"
    ],
    [
      "qual",
      "ity</w>"
    ],
    [
      "k",
      "nowledge</w>"
    ],
    [
      "shar",
      "ing.</w>"
    ],
    [
      "Cont",
      "in"
    ],
    [
      "Contin",
      "u"
    ],
    [
      "Continu",
      "o"
    ],
    [
      "Continuo",
      "u"
    ],
    [
      "Continuou",
      "s</w>"
    ],
    [
      "in",
      "te"
    ],
    [
      "inte",
      "gr"
    ],
    [
      "integr",
      "ation</w>"
    ],
    [
      "r",
      "un"
    ],
    [
      "run",
      "s</w>"
    ],
    [
      "te",
      "st"
    ],
    [
      "test",
      "s</w>"
    ],
    [
      "e",
      "ver"
    ],
    [
      "ever",
      "y</w>"
    ],
    [
      "com",
      "m"
    ],
    [
      "comm",
      "it"
    ],
    [
      "commit",
      "</w>"
    ],
    [
      "be",
      "f"
    ],
    [
      "bef",
      "ore</w>"
    ],
    [
      "O",
      "b"
    ],
    [
      "Ob",
      "serv"
    ],
    [
      "Observ",
      "ab"
    ],
    [
      "Observab",
      "il"
    ],
    [
      "Observabil",
      "ity</w>"
    ],
    [
      "lo",
      "g"
    ],
    [
      "log",
      "s,</w>"
    ],
    [
      "me",
      "tr"
    ],
    [
      "metr",
      "ic"
    ],
    [
      "metric",
      "s,</w>"
    ],
    [
      "trac",
      "es</w>"
    ],
    [
      "de",
      "bu"
    ],
    [
      "debu",
      "g"
    ],
    [
      "debug",
      "</w>"
    ],
    [
      "is",
      "su"
    ],
    [
      "issu",
      "es.</w>"
    ],
    [
      "Re",
      "factor"
    ],
    [
      "Refactor",
      "ing</w>"
    ],
    [
      "wit",
      "ho"
    ],
    [
      "witho",
      "ut</w>"
    ],
    [
      "chang",
      "ing</w>"
    ],
    [
      "ex",
      "tern"
    ],
    [
      "extern",
      "al</w>"
    ],
    [
      "be",
      "h"
    ],
    [
      "beh",
      "a"
    ],
    [
      "beha",
      "vi"
    ],
    [
      "behavi",
      "or"
    ],
    [
      "behavior",
      ".</w>"
    ],
    [
      "D",
      "e"
    ],
    [
      "De",
      "e"
    ],
    [
      "Dee",
      "p"
    ],
    [
      "Deep",
      "</w>"
    ],
    [
      "st",
      "ac"
    ],
    [
      "stac",
      "ks</w>"
    ],
    [
      "n",
      "on"
    ],
    [
      "non",
      "l"
    ],
    [
      "nonl",
      "ine"
    ],
    [
      "nonline",
      "ar"
    ],
    [
      "nonlinear",
      "</w>"
    ],
    [
      "lay",
      "ers</w>"
    ],
    [
      "learn",
      "</w>"
    ],
    [
      "h",
      "i"
    ],
    [
      "hi",
      "er"
    ],
    [
      "hier",
      "arch"
    ],
    [
      "hierarch",
      "ic"
    ],
    [
      "hierarchic",
      "al</w>"
    ],
    [
      "rep",
      "res"
    ],
    [
      "repres",
      "ent"
    ],
    [
      "represent",
      "ation"
    ],
    [
      "representation",
      "s.</w>"
    ],
    [
      "C",
      "on"
    ],
    [
      "Con",
      "v"
    ],
    [
      "Conv",
      "o"
    ],
    [
      "Convo",
      "lu"
    ],
    [
      "Convolu",
      "tion"
    ],
    [
      "Convolution",
      "al</w>"
    ],
    [
      "ex",
      "ce"
    ],
    [
      "exce",
      "l</w>"
    ],
    [
      "im",
      "ag"
    ],
    [
      "imag",
      "es.</w>"
    ],
    [
      "Re",
      "cur"
    ],
    [
      "Recur",
      "rent</w>"
    ],
    [
      "se",
      "qu"
    ],
    [
      "sequ",
      "enc"
    ],
    [
      "sequenc",
      "es</w>"
    ],
    [
      "tr",
      "ans"
    ],
    [
      "trans",
      "form"
    ],
    [
      "transform",
      "ers</w>"
    ],
    [
      "d",
      "o"
    ],
    [
      "do",
      "m"
    ],
    [
      "dom",
      "in"
    ],
    [
      "domin",
      "ate</w>"
    ],
    [
      "l",
      "ang"
    ],
    [
      "lang",
      "u"
    ],
    [
      "langu",
      "age</w>"
    ],
    [
      "model",
      "ing</w>"
    ],
    [
      "to",
      "d"
    ],
    [
      "tod",
      "ay"
    ],
    [
      "today",
      ".</w>"
    ],
    [
      "A",
      "t"
    ],
    [
      "At",
      "ten"
    ],
    [
      "Atten",
      "tion</w>"
    ],
    [
      "comp",
      "ut"
    ],
    [
      "comput",
      "es</w>"
    ],
    [
      "w",
      "e"
    ],
    [
      "we",
      "ig"
    ],
    [
      "weig",
      "h"
    ],
    [
      "weigh",
      "t"
    ],
    [
      "weight",
      "ed</w>"
    ],
    [
      "su",
      "ms</w>"
    ],
    [
      "cont",
      "ext</w>"
    ],
    [
      "token",
      "s.</w>"
    ],
    [
      "P",
      "retrain"
    ],
    [
      "Pretrain",
      "ing</w>"
    ],
    [
      "p",
      "red"
    ],
    [
      "pred",
      "ic"
    ],
    [
      "predic",
      "ts</w>"
    ],
    [
      "th",
      "e</w>"
    ],
    [
      "n",
      "ext</w>"
    ],
    [
      "token",
      "</w>"
    ],
    [
      "l",
      "ar"
    ],
    [
      "lar",
      "ge</w>"
    ],
    [
      "cor",
      "p"
    ],
    [
      "corp",
      "or"
    ],
    [
      "corpor",
      "a.</w>"
    ],
    [
      "F",
      "ine"
    ],
    [
      "Fine",
      "-"
    ],
    [
      "Fine-",
      "tu"
    ],
    [
      "Fine-tu",
      "n"
    ],
    [
      "Fine-tun",
      "ing</w>"
    ],
    [
      "ad",
      "ap"
    ],
    [
      "adap",
      "ts</w>"
    ],
    [
      "p",
      "retrain"
    ],
    [
      "pretrain",
      "ed</w>"
    ],
    [
      "c",
      "l"
    ],
    [
      "cl",
      "as"
    ],
    [
      "clas",
      "si"
    ],
    [
      "classi",
      "fic"
    ],
    [
      "classific",
      "ation</w>"
    ],
    [
      "g",
      "en"
    ],
    [
      "gen",
      "er"
    ],
    [
      "gener",
      "ation</w>"
    ],
    [
      "t",
      "as"
    ],
    [
      "tas",
      "k"
    ],
    [
      "task",
      "s.</w>"
    ],
    [
      "A",
      "r"
    ],
    [
      "Ar",
      "ti"
    ],
    [
      "Arti",
      "fic"
    ],
    [
      "Artific",
      "i"
    ],
    [
      "Artifici",
      "al</w>"
    ],
    [
      "in",
      "t"
    ],
    [
      "int",
      "el"
    ],
    [
      "intel",
      "l"
    ],
    [
      "intell",
      "ig"
    ],
    [
      "intellig",
      "enc"
    ],
    [
      "intelligenc",
      "e</w>"
    ],
    [
      "buil",
      "d"
    ],
    [
      "build",
      "s</w>"
    ],
    [
      "th",
      "at</w>"
    ],
    [
      "perce",
      "i"
    ],
    [
      "percei",
      "v"
    ],
    [
      "perceiv",
      "e"
    ],
    [
      "perceive",
      ",</w>"
    ],
    [
      "reason",
      ",</w>"
    ],
    [
      "act",
      ".</w>"
    ],
    [
      "S",
      "e"
    ],
    [
      "Se",
      "arch"
    ],
    [
      "Search",
      "</w>"
    ],
    [
      "al",
      "g"
    ],
    [
      "alg",
      "or"
    ],
    [
      "algor",
      "it"
    ],
    [
      "algorit",
      "h"
    ],
    [
      "algorith",
      "ms</w>"
    ],
    [
      "expl",
      "ore</w>"
    ],
    [
      "st",
      "ate</w>"
    ],
    [
      "s",
      "pac"
    ],
    [
      "spac",
      "es.</w>"
    ],
    [
      "K",
      "nowledge</w>"
    ],
    [
      "gr",
      "ap"
    ],
    [
      "grap",
      "h"
    ],
    [
      "graph",
      "s</w>"
    ],
    [
      "enti",
      "ti"
    ],
    [
      "entiti",
      "es</w>"
    ],
    [
      "re",
      "lation"
    ],
    [
      "relation",
      "s.</w>"
    ],
    [
      "P",
      "l"
    ],
    [
      "Pl",
      "ann"
    ],
    [
      "Plann",
      "ing</w>"
    ],
    [
      "selec",
      "ts</w>"
    ],
    [
      "to",
      "ward</w>"
    ],
    [
      "g",
      "o"
    ],
    [
      "go",
      "al"
    ],
    [
      "goal",
      "s.</w>"
    ],
    [
      "R",
      "ob"
    ],
    [
      "Rob",
      "o"
    ],
    [
      "Robo",
      "tic"
    ],
    [
      "Robotic",
      "s</w>"
    ],
    [
      "perce",
      "p"
    ],
    [
      "percep",
      "tion"
    ],
    [
      "perception",
      ",</w>"
    ],
    [
      "contro",
      "l"
    ],
    [
      "control",
      ",</w>"
    ],
    [
      "learn",
      "ing.</w>"
    ],
    [
      "A",
      "I"
    ],
    [
      "AI",
      "</w>"
    ],
    [
      "saf",
      "e"
    ],
    [
      "safe",
      "t"
    ],
    [
      "safet",
      "y</w>"
    ],
    [
      "st",
      "u"
    ],
    [
      "stu",
      "d"
    ],
    [
      "stud",
      "ies</w>"
    ],
    [
      "al",
      "ig"
    ],
    [
      "alig",
      "n"
    ],
    [
      "align",
      "ment"
    ],
    [
      "alignment",
      ",</w>"
    ],
    [
      "ro",
      "bu"
    ],
    [
      "robu",
      "st"
    ],
    [
      "robust",
      "ne"
    ],
    [
      "robustne",
      "s"
    ],
    [
      "robustnes",
      "s,</w>"
    ],
    [
      "over",
      "sig"
    ],
    [
      "oversig",
      "h"
    ],
    [
      "oversigh",
      "t.</w>"
    ],
    [
      "E",
      "val"
    ],
    [
      "Eval",
      "u"
    ],
    [
      "Evalu",
      "ation</w>"
    ],
    [
      "b",
      "en"
    ],
    [
      "ben",
      "ch"
    ],
    [
      "bench",
      "m"
    ],
    [
      "benchm",
      "ar"
    ],
    [
      "benchmar",
      "ks</w>"
    ],
    [
      "me",
      "as"
    ],
    [
      "meas",
      "ure</w>"
    ],
    [
      "reason",
      "ing,</w>"
    ],
    [
      "co",
      "d"
    ],
    [
      "cod",
      "ing,</w>"
    ],
    [
      "multi",
      "mod"
    ],
    [
      "multimod",
      "al</w>"
    ],
    [
      "und",
      "er"
    ],
    [
      "under",
      "st"
    ],
    [
      "underst",
      "and"
    ],
    [
      "understand",
      "ing.</w>"
    ],
    [
      "O",
      "per"
    ],
    [
      "Oper",
      "at"
    ],
    [
      "Operat",
      "ing</w>"
    ],
    [
      "sch",
      "ed"
    ],
    [
      "sched",
      "u"
    ],
    [
      "schedu",
      "le</w>"
    ],
    [
      "proces",
      "se"
    ],
    [
      "processe",
      "s,</w>"
    ],
    [
      "m",
      "an"
    ],
    [
      "man",
      "age</w>"
    ],
    [
      "m",
      "em"
    ],
    [
      "mem",
      "or"
    ],
    [
      "memor",
      "y"
    ],
    [
      "memory",
      ",</w>"
    ],
    [
      "f",
      "i"
    ],
    [
      "fi",
      "le</w>"
    ],
    [
      "Cont",
      "ain"
    ],
    [
      "Contain",
      "ers</w>"
    ],
    [
      "pack",
      "age</w>"
    ],
    [
      "re",
      "produc"
    ],
    [
      "reproduc",
      "ib"
    ],
    [
      "reproducib",
      "le</w>"
    ],
    [
      "K",
      "ub"
    ],
    [
      "Kub",
      "er"
    ],
    [
      "Kuber",
      "ne"
    ],
    [
      "Kuberne",
      "t"
    ],
    [
      "Kubernet",
      "es</w>"
    ],
    [
      "or",
      "ch"
    ],
    [
      "orch",
      "e"
    ],
    [
      "orche",
      "str"
    ],
    [
      "orchestr",
      "ates</w>"
    ],
    [
      "po",
      "d"
    ],
    [
      "pod",
      "s,</w>"
    ],
    [
      "serv",
      "ic"
    ],
    [
      "servic",
      "e"
    ],
    [
      "service",
      "s,</w>"
    ],
    [
      "ro",
      "l"
    ],
    [
      "rol",
      "l"
    ],
    [
      "roll",
      "ing</w>"
    ],
    [
      "up",
      "dat"
    ],
    [
      "updat",
      "es</w>"
    ],
    [
      "clust",
      "er"
    ],
    [
      "cluster",
      "s.</w>"
    ],
    [
      "In",
      "f"
    ],
    [
      "Inf",
      "ra"
    ],
    [
      "Infra",
      "structure</w>"
    ],
    [
      "def",
      "ines</w>"
    ],
    [
      "ser",
      "vers</w>"
    ],
    [
      "ver",
      "sion"
    ],
    [
      "version",
      "ed</w>"
    ],
    [
      "t",
      "em"
    ],
    [
      "tem",
      "pl"
    ],
    [
      "templ",
      "at"
    ],
    [
      "templat",
      "es.</w>"
    ],
    [
      "L",
      "o"
    ],
    [
      "Lo",
      "ad</w>"
    ],
    [
      "b",
      "al"
    ],
    [
      "bal",
      "anc"
    ],
    [
      "balanc",
      "ers</w>"
    ],
    [
      "di",
      "str"
    ],
    [
      "distr",
      "ib"
    ],
    [
      "distrib",
      "ut"
    ],
    [
      "distribut",
      "e</w>"
    ],
    [
      "tr",
      "af"
    ],
    [
      "traf",
      "fic"
    ],
    [
      "traffic",
      ";</w>"
    ],
    [
      "c",
      "ach"
    ],
    [
      "cach",
      "es</w>"
    ],
    [
      "lat",
      "enc"
    ],
    [
      "latenc",
      "y</w>"
    ],
    [
      "ho",
      "t</w>"
    ],
    [
      "dat",
      "a.</w>"
    ]
  ],
  "vocab": [
    ",",
    ",</w>",
    "-",
    ".",
    ".</w>",
    ";",
    ";</w>",
    "</w>",
    "A",
    "AC",
    "ACI",
    "ACID",
    "ACID</w>",
    "AI",
    "AI</w>",
    "AP",
    "API",
    "APIs.</w>",
    "APIs</w>",
    "Ad",
    "Adam",
    "AdamW",
    "AdamW.</w>",
    "Ar",
    "Arti",
    "Artific",
    "Artifici",
    "Artificial</w>",
    "At",
    "Atten",
    "Attention</w>",
    "Aut",
    "Auth",
    "Authenti",
    "Authentic",
    "Authentication</w>",
    "B",
    "B-",
    "B-t",
    "B-tre",
    "B-tree</w>",
    "C",
    "Con",
    "Cont",
    "Contain",
    "Containers</w>",
    "Contin",
    "Continu",
    "Continuo",
    "Continuou",
    "Continuous</w>",
    "Conv",
    "Convo",
    "Convolu",
    "Convolution",
    "Convolutional</w>",
    "D",
    "Dat",
    "Databas",
    "Database</w>",
    "De",
    "Dee",
    "Deep",
    "Deep</w>",
    "Docu",
    "Document",
    "Documentation</w>",
    "E",
    "Eval",
    "Evalu",
    "Evaluation</w>",
    "F",
    "Fe",
    "Feat",
    "Feature</w>",
    "Fine",
    "Fine-",
    "Fine-tu",
    "Fine-tun",
    "Fine-tuning</w>",
    "H",
    "HT",
    "HTT",
    "HTTP",
    "HTTP</w>",
    "I",
    "In",
    "Index",
    "Indexes</w>",
    "Inf",
    "Infra",
    "Infrastructure</w>",
    "J",
    "JS",
    "JSO",
    "JSON",
    "JSON</w>",
    "K",
    "Knowledge</w>",
    "Kub",
    "Kuber",
    "Kuberne",
    "Kubernet",
    "Kubernetes</w>",
    "L",
    "Lo",
    "Load</w>",
    "M",
    "Machin",
    "Machine</w>",
    "Mig",
    "Migr",
    "Migrations</w>",
    "N",
    "Ne",
    "Neur",
    "Neural</w>",
    "Normalization</w>",
    "O",
    "OAut",
    "OAuth</w>",
    "OR",
    "ORM",
    "ORMs</w>",
    "Ob",
    "Observ",
    "Observab",
    "Observabil",
    "Observability</w>",
    "Oper",
    "Operat",
    "Operating</w>",
    "P",
    "Pl",
    "Plann",
    "Planning</w>",
    "Pr",
    "Pretrain",
    "Pretraining</w>",
    "Prim",
    "Primar",
    "Primary</w>",
    "Py",
    "Pyth",
    "Python</w>",
    "Q",
    "Qu",
    "Quer",
    "Query</w>",
    "R",
    "RE",
    "RES",
    "REST",
    "REST</w>",
    "Re",
    "Recur",
    "Recurrent</w>",
    "Refactor",
    "Refactoring</w>",
    "Rein",
    "Reinf",
    "Reinfor",
    "Reinforc",
    "Reinforcem",
    "Reinforcement</w>",
    "Relation",
    "Relational</w>",
    "Replic",
    "Replication</w>",
    "Requ",
    "Requi",
    "Require",
    "Requirements</w>",
    "Rob",
    "Robo",
    "Robotic",
    "Robotics</w>",
    "S",
    "SQ",
    "SQL",
    "SQL.</w>",
    "SQL</w>",
    "Se",
    "Search",
    "Search</w>",
    "Sof",
    "Softw",
    "Softwa",
    "Software</w>",
    "Su",
    "Supervised</w>",
    "T",
    "Tr",
    "Trans",
    "Transactions</w>",
    "U",
    "Un",
    "Unsu",
    "Unsupervised</w>",
    "V",
    "Ver",
    "Version</w>",
    "Vi",
    "Vir",
    "Virtu",
    "Virtual</w>",
    "W",
    "a",
    "a.</w>",
    "a</w>",
    "ab",
    "abas",
    "able</w>",
    "ac",
    "acces",
    "access</w>",
    "ach",
    "achin",
    "acros",
    "across</w>",
    "act",
    "act.</w>",
    "acti",
    "action",
    "actions</w>",
    "activ",
    "activation",
    "activations,</w>",
    "ad",
    "ad</w>",
    "adap",
    "adapts</w>",
    "af",
    "ag",
    "age</w>",
    "agg",
    "aggreg",
    "aggregates</w>",
    "ain",
    "al",
    "al</w>",
    "alg",
    "algor",
    "algorit",
    "algorith",
    "algorithms</w>",
    "alig",
    "align",
    "alignment",
    "alignment,</w>",
    "am",
    "an",
    "anal",
    "analy",
    "analytic",
    "analytics.</w>",
    "anc",
    "and",
    "and</w>",
    "ang",
    "ann",
    "ans",
    "ap",
    "appl",
    "applic",
    "applications</w>",
    "applies</w>",
    "ar",
    "arch",
    "archit",
    "architec",
    "architecture</w>",
    "as",
    "as</w>",
    "at",
    "at</w>",
    "ate</w>",
    "ates</w>",
    "ation",
    "ation</w>",
    "ations</w>",
    "ay",
    "b",
    "bal",
    "balanc",
    "balancers</w>",
    "be",
    "bef",
    "before</w>",
    "beh",
    "beha",
    "behavi",
    "behavior",
    "behavior.</w>",
    "ben",
    "bench",
    "benchm",
    "benchmar",
    "benchmarks</w>",
    "bu",
    "buil",
    "build",
    "build</w>",
    "builds</w>",
    "but</w>",
    "c",
    "cach",
    "caches</w>",
    "can",
    "can</w>",
    "cap",
    "capture</w>",
    "ce",
    "ces",
    "ch",
    "chang",
    "change",
    "changes;</w>",
    "changes</w>",
    "changing</w>",
    "cho",
    "choo",
    "choose</w>",
    "cl",
    "clas",
    "classi",
    "classific",
    "classification</w>",
    "clear",
    "clear</w>",
    "clu",
    "clust",
    "cluster",
    "clusters,</w>",
    "clusters.</w>",
    "co",
    "cod",
    "code",
    "code</w>",
    "codes,</w>",
    "coding,</w>",
    "colu",
    "colum",
    "column",
    "columns,</w>",
    "com",
    "comb",
    "combines</w>",
    "comm",
    "commit",
    "commit</w>",
    "comp",
    "comple",
    "complex",
    "complex</w>",
    "comput",
    "computes</w>",
    "con",
    "concur",
    "concurren",
    "concurrenc",
    "concurrency.</w>",
    "cont",
    "context</w>",
    "contro",
    "control",
    "control,</w>",
    "control</w>",
    "cor",
    "corp",
    "corpor",
    "corpora.</w>",
    "cros",
    "cross",
    "cross-",
    "cross-ent",
    "cross-entro",
    "cross-entrop",
    "cross-entropy</w>",
    "cur",
    "d",
    "d</w>",
    "dat",
    "data.</w>",
    "data</w>",
    "databas",
    "databases</w>",
    "de",
    "de</w>",
    "debu",
    "debug",
    "debug</w>",
    "dec",
    "deci",
    "decision",
    "decisions.</w>",
    "def",
    "defin",
    "define</w>",
    "defines</w>",
    "den",
    "denormalization</w>",
    "dep",
    "depend",
    "dependenc",
    "dependencies</w>",
    "depending</w>",
    "depl",
    "deplo",
    "deploy",
    "deployment",
    "deployment.</w>",
    "desig",
    "design</w>",
    "dex",
    "di",
    "dif",
    "diff",
    "diffe",
    "different</w>",
    "dis",
    "disco",
    "discovers</w>",
    "distr",
    "distrib",
    "distribut",
    "distribute</w>",
    "do",
    "docu",
    "documents</w>",
    "dom",
    "domin",
    "dominate</w>",
    "duc",
    "dur",
    "durable</w>",
    "e",
    "e</w>",
    "ec",
    "ed",
    "ed</w>",
    "el",
    "em",
    "en",
    "enc",
    "end",
    "endpo",
    "endpoin",
    "endpoints,</w>",
    "eng",
    "engine",
    "engineer",
    "engineering,</w>",
    "engineering</w>",
    "ent",
    "ent</w>",
    "enti",
    "entiti",
    "entities</w>",
    "envi",
    "envir",
    "environ",
    "environments</w>",
    "er",
    "err",
    "error</w>",
    "ers,</w>",
    "ers</w>",
    "es.</w>",
    "es</w>",
    "ever",
    "every</w>",
    "ex",
    "exam",
    "exampl",
    "example</w>",
    "exce",
    "excel</w>",
    "expl",
    "explain",
    "explains</w>",
    "explore</w>",
    "expo",
    "expose</w>",
    "ext</w>",
    "extern",
    "external</w>",
    "f",
    "fact",
    "factor",
    "factors,</w>",
    "fi",
    "fic",
    "fil",
    "file</w>",
    "filt",
    "filters,</w>",
    "fo",
    "for</w>",
    "fore",
    "foreig",
    "foreign</w>",
    "form",
    "fro",
    "from",
    "from</w>",
    "ful",
    "full</w>",
    "g",
    "ge</w>",
    "gen",
    "gener",
    "generation</w>",
    "go",
    "goal",
    "goals.</w>",
    "gr",
    "grap",
    "graph",
    "graphs</w>",
    "gro",
    "group",
    "groups,</w>",
    "gu",
    "guar",
    "guaran",
    "guarante",
    "guarantees</w>",
    "h",
    "h</w>",
    "hand",
    "hand-",
    "hand-writ",
    "hand-written",
    "hand-written</w>",
    "has",
    "hash</w>",
    "hi",
    "hier",
    "hierarch",
    "hierarchic",
    "hierarchical</w>",
    "ho",
    "hot</w>",
    "i",
    "ib",
    "ic",
    "id",
    "identi",
    "identif",
    "identify</w>",
    "ies</w>",
    "ig",
    "il",
    "im",
    "imag",
    "images.</w>",
    "impro",
    "improv",
    "improve</w>",
    "improves</w>",
    "in",
    "in</w>",
    "index",
    "index</w>",
    "indexes</w>",
    "ine",
    "ines</w>",
    "ing",
    "ing,</w>",
    "ing.</w>",
    "ing</w>",
    "inp",
    "input",
    "inputs</w>",
    "inst",
    "inste",
    "instead</w>",
    "int",
    "inte",
    "integr",
    "integration</w>",
    "intel",
    "intell",
    "intellig",
    "intelligenc",
    "intelligence</w>",
    "is",
    "iso",
    "isol",
    "isolate</w>",
    "issu",
    "issues.</w>",
    "it",
    "ity</w>",
    "iz",
    "j",
    "jec",
    "jo",
    "join",
    "joins,</w>",
    "k",
    "ke",
    "key",
    "keys</w>",
    "knowledge</w>",
    "ks</w>",
    "l",
    "l</w>",
    "lab",
    "label",
    "labels</w>",
    "lang",
    "langu",
    "language</w>",
    "lar",
    "large</w>",
    "lat",
    "latenc",
    "latency</w>",
    "latent</w>",
    "lation",
    "lay",
    "layers,</w>",
    "layers</w>",
    "le",
    "le</w>",
    "lear",
    "learn",
    "learn</w>",
    "learning.</w>",
    "learning</w>",
    "lic",
    "lin",
    "link",
    "link</w>",
    "lo",
    "loc",
    "lock",
    "locking</w>",
    "log",
    "logs,</w>",
    "loo",
    "look",
    "lookup",
    "lookups;</w>",
    "los",
    "loss.</w>",
    "lu",
    "m",
    "machin",
    "machines.</w>",
    "man",
    "manage</w>",
    "map",
    "map</w>",
    "maps</w>",
    "me",
    "meas",
    "measure</w>",
    "mem",
    "memor",
    "memory",
    "memory,</w>",
    "ment",
    "ments</w>",
    "metr",
    "metric",
    "metrics,</w>",
    "mo",
    "mod",
    "mode",
    "model",
    "model</w>",
    "modeling</w>",
    "models.</w>",
    "models</w>",
    "modul",
    "modules</w>",
    "ms</w>",
    "mul",
    "multi",
    "multi-",
    "multi-version</w>",
    "multimod",
    "multimodal</w>",
    "n",
    "n</w>",
    "ne",
    "need",
    "need</w>",
    "needs;</w>",
    "netw",
    "networ",
    "networks</w>",
    "next</w>",
    "no",
    "non",
    "nonl",
    "nonline",
    "nonlinear",
    "nonlinear</w>",
    "now",
    "nowle",
    "nowled",
    "nowledge</w>",
    "o",
    "ob",
    "objec",
    "objects</w>",
    "oc",
    "ocu",
    "of",
    "of</w>",
    "on",
    "on</w>",
    "ont",
    "op",
    "optim",
    "optimiz",
    "optimizers</w>",
    "optimizes</w>",
    "or",
    "or</w>",
    "orch",
    "orche",
    "orchestr",
    "orchestrates</w>",
    "ore</w>",
    "org",
    "organ",
    "organiz",
    "organize</w>",
    "orm",
    "ormal",
    "ormaliz",
    "ormalization</w>",
    "over",
    "over</w>",
    "overf",
    "overfit",
    "overfitt",
    "overfitting.</w>",
    "oversig",
    "oversigh",
    "oversight.</w>",
    "p",
    "pac",
    "pack",
    "packag",
    "package</w>",
    "packages</w>",
    "pat",
    "pattern",
    "patterns.</w>",
    "pay",
    "paylo",
    "payload",
    "payloads.</w>",
    "per",
    "per</w>",
    "perce",
    "percei",
    "perceiv",
    "perceive",
    "perceive,</w>",
    "percep",
    "perception",
    "perception,</w>",
    "perform",
    "performan",
    "performance",
    "performance.</w>",
    "pervi",
    "pervis",
    "pervised</w>",
    "pl",
    "plann",
    "planners</w>",
    "plic",
    "po",
    "pod",
    "pods,</w>",
    "polic",
    "policies</w>",
    "pred",
    "predic",
    "predicts</w>",
    "pretrain",
    "pretrained</w>",
    "pro",
    "proces",
    "process",
    "processe",
    "processes,</w>",
    "processes</w>",
    "produc",
    "production</w>",
    "projec",
    "project.</w>",
    "provi",
    "provide</w>",
    "pub",
    "public",
    "public</w>",
    "q",
    "qu",
    "qual",
    "quality</w>",
    "quer",
    "queri",
    "queries.</w>",
    "r",
    "ra",
    "raw</w>",
    "re",
    "re</w>",
    "read",
    "read</w>",
    "reads</w>",
    "reas",
    "reason",
    "reason,</w>",
    "reasoning,</w>",
    "recor",
    "record",
    "records.</w>",
    "red",
    "reduc",
    "reduce</w>",
    "reduces</w>",
    "redund",
    "redundanc",
    "redundancy",
    "redundancy;</w>",
    "reg",
    "regres",
    "regression</w>",
    "regul",
    "regular",
    "regulariz",
    "regularization",
    "regularization,</w>",
    "rel",
    "relation",
    "relations.</w>",
    "reli",
    "reliable</w>",
    "ren",
    "rent</w>",
    "rep",
    "repor",
    "reports</w>",
    "repres",
    "represent",
    "representation",
    "representations.</w>",
    "reproduc",
    "reproducib",
    "reproducible</w>",
    "requ",
    "reque",
    "request",
    "requests.</w>",
    "res",
    "reso",
    "resour",
    "resourc",
    "resources</w>",
    "retrain",
    "reus",
    "reusable</w>",
    "revi",
    "revie",
    "review</w>",
    "reward</w>",
    "ro",
    "robu",
    "robust",
    "robustne",
    "robustnes",
    "robustness,</w>",
    "rol",
    "roll",
    "rolling</w>",
    "ros",
    "row",
    "rows,</w>",
    "rows;</w>",
    "ru",
    "rule",
    "rules.</w>",
    "run",
    "runs</w>",
    "s",
    "s,</w>",
    "s.</w>",
    "s;</w>",
    "s</w>",
    "saf",
    "safe",
    "safel",
    "safely.</w>",
    "safet",
    "safety</w>",
    "sc",
    "scal",
    "scale</w>",
    "scan",
    "scans.</w>",
    "scans</w>",
    "sch",
    "sched",
    "schedu",
    "schedule</w>",
    "schem",
    "schema</w>",
    "se",
    "se</w>",
    "sele",
    "selec",
    "selects,</w>",
    "selects</w>",
    "sequ",
    "sequenc",
    "sequences</w>",
    "ser",
    "serv",
    "serve</w>",
    "servers</w>",
    "servic",
    "service",
    "services,</w>",
    "ses",
    "session",
    "sessions,</w>",
    "sh",
    "shar",
    "shard",
    "sharding</w>",
    "sharing.</w>",
    "si",
    "sig",
    "sign",
    "signal",
    "signals</w>",
    "sion",
    "sion</w>",
    "sp",
    "spac",
    "spaces.</w>",
    "spe",
    "speed</w>",
    "spl",
    "split",
    "splits</w>",
    "st",
    "stac",
    "stacks</w>",
    "state</w>",
    "sti",
    "stil",
    "still</w>",
    "store</w>",
    "str",
    "struc",
    "structu",
    "structure",
    "structure.</w>",
    "structure</w>",
    "structured</w>",
    "stu",
    "stud",
    "studies</w>",
    "su",
    "such",
    "such</w>",
    "sums</w>",
    "sy",
    "syst",
    "system",
    "systems.</w>",
    "systems</w>",
    "t",
    "t.</w>",
    "t</w>",
    "tab",
    "tabl",
    "table",
    "table</w>",
    "tables,</w>",
    "tables.</w>",
    "tables</w>",
    "tas",
    "task",
    "tasks.</w>",
    "te",
    "tem",
    "templ",
    "templat",
    "templates.</w>",
    "ten",
    "ter",
    "tern",
    "test",
    "tests</w>",
    "th",
    "that</w>",
    "the</w>",
    "thre",
    "threat</w>",
    "ti",
    "tic",
    "tim",
    "time",
    "time.</w>",
    "tion",
    "tion</w>",
    "to",
    "to</w>",
    "tod",
    "today",
    "today.</w>",
    "tok",
    "token",
    "token</w>",
    "tokens,</w>",
    "tokens.</w>",
    "toward</w>",
    "tr",
    "trac",
    "traces</w>",
    "tracks</w>",
    "traf",
    "traffic",
    "traffic;</w>",
    "train",
    "trains</w>",
    "trans",
    "transform",
    "transformers</w>",
    "ts,</w>",
    "ts</w>",
    "tu",
    "ture</w>",
    "tw",
    "u",
    "ub",
    "uc",
    "ul",
    "un",
    "und",
    "under",
    "underst",
    "understand",
    "understanding.</w>",
    "uni",
    "uniqu",
    "uniquel",
    "uniquely</w>",
    "up",
    "updat",
    "updates</w>",
    "ur",
    "ure</w>",
    "us",
    "use</w>",
    "user",
    "user</w>",
    "uses</w>",
    "ut",
    "ut</w>",
    "v",
    "val",
    "valid",
    "validation</w>",
    "ver",
    "vers</w>",
    "version",
    "version</w>",
    "versioned</w>",
    "versu",
    "versus</w>",
    "vi",
    "w",
    "w</w>",
    "war",
    "ward</w>",
    "we",
    "weig",
    "weigh",
    "weight",
    "weighted</w>",
    "wit",
    "with</w>",
    "witho",
    "without</w>",
    "wr",
    "writ",
    "writes</w>",
    "x",
    "y",
    "y.</w>",
    "y</w>",
    "z"
  ],
  "stoi": {
    ",": 0,
    ",</w>": 1,
    "-": 2,
    ".": 3,
    ".</w>": 4,
    ";": 5,
    ";</w>": 6,
    "</w>": 7,
    "A": 8,
    "AC": 9,
    "ACI": 10,
    "ACID": 11,
    "ACID</w>": 12,
    "AI": 13,
    "AI</w>": 14,
    "AP": 15,
    "API": 16,
    "APIs.</w>": 17,
    "APIs</w>": 18,
    "Ad": 19,
    "Adam": 20,
    "AdamW": 21,
    "AdamW.</w>": 22,
    "Ar": 23,
    "Arti": 24,
    "Artific": 25,
    "Artifici": 26,
    "Artificial</w>": 27,
    "At": 28,
    "Atten": 29,
    "Attention</w>": 30,
    "Aut": 31,
    "Auth": 32,
    "Authenti": 33,
    "Authentic": 34,
    "Authentication</w>": 35,
    "B": 36,
    "B-": 37,
    "B-t": 38,
    "B-tre": 39,
    "B-tree</w>": 40,
    "C": 41,
    "Con": 42,
    "Cont": 43,
    "Contain": 44,
    "Containers</w>": 45,
    "Contin": 46,
    "Continu": 47,
    "Continuo": 48,
    "Continuou": 49,
    "Continuous</w>": 50,
    "Conv": 51,
    "Convo": 52,
    "Convolu": 53,
    "Convolution": 54,
    "Convolutional</w>": 55,
    "D": 56,
    "Dat": 57,
    "Databas": 58,
    "Database</w>": 59,
    "De": 60,
    "Dee": 61,
    "Deep": 62,
    "Deep</w>": 63,
    "Docu": 64,
    "Document": 65,
    "Documentation</w>": 66,
    "E": 67,
    "Eval": 68,
    "Evalu": 69,
    "Evaluation</w>": 70,
    "F": 71,
    "Fe": 72,
    "Feat": 73,
    "Feature</w>": 74,
    "Fine": 75,
    "Fine-": 76,
    "Fine-tu": 77,
    "Fine-tun": 78,
    "Fine-tuning</w>": 79,
    "H": 80,
    "HT": 81,
    "HTT": 82,
    "HTTP": 83,
    "HTTP</w>": 84,
    "I": 85,
    "In": 86,
    "Index": 87,
    "Indexes</w>": 88,
    "Inf": 89,
    "Infra": 90,
    "Infrastructure</w>": 91,
    "J": 92,
    "JS": 93,
    "JSO": 94,
    "JSON": 95,
    "JSON</w>": 96,
    "K": 97,
    "Knowledge</w>": 98,
    "Kub": 99,
    "Kuber": 100,
    "Kuberne": 101,
    "Kubernet": 102,
    "Kubernetes</w>": 103,
    "L": 104,
    "Lo": 105,
    "Load</w>": 106,
    "M": 107,
    "Machin": 108,
    "Machine</w>": 109,
    "Mig": 110,
    "Migr": 111,
    "Migrations</w>": 112,
    "N": 113,
    "Ne": 114,
    "Neur": 115,
    "Neural</w>": 116,
    "Normalization</w>": 117,
    "O": 118,
    "OAut": 119,
    "OAuth</w>": 120,
    "OR": 121,
    "ORM": 122,
    "ORMs</w>": 123,
    "Ob": 124,
    "Observ": 125,
    "Observab": 126,
    "Observabil": 127,
    "Observability</w>": 128,
    "Oper": 129,
    "Operat": 130,
    "Operating</w>": 131,
    "P": 132,
    "Pl": 133,
    "Plann": 134,
    "Planning</w>": 135,
    "Pr": 136,
    "Pretrain": 137,
    "Pretraining</w>": 138,
    "Prim": 139,
    "Primar": 140,
    "Primary</w>": 141,
    "Py": 142,
    "Pyth": 143,
    "Python</w>": 144,
    "Q": 145,
    "Qu": 146,
    "Quer": 147,
    "Query</w>": 148,
    "R": 149,
    "RE": 150,
    "RES": 151,
    "REST": 152,
    "REST</w>": 153,
    "Re": 154,
    "Recur": 155,
    "Recurrent</w>": 156,
    "Refactor": 157,
    "Refactoring</w>": 158,
    "Rein": 159,
    "Reinf": 160,
    "Reinfor": 161,
    "Reinforc": 162,
    "Reinforcem": 163,
    "Reinforcement</w>": 164,
    "Relation": 165,
    "Relational</w>": 166,
    "Replic": 167,
    "Replication</w>": 168,
    "Requ": 169,
    "Requi": 170,
    "Require": 171,
    "Requirements</w>": 172,
    "Rob": 173,
    "Robo": 174,
    "Robotic": 175,
    "Robotics</w>": 176,
    "S": 177,
    "SQ": 178,
    "SQL": 179,
    "SQL.</w>": 180,
    "SQL</w>": 181,
    "Se": 182,
    "Search": 183,
    "Search</w>": 184,
    "Sof": 185,
    "Softw": 186,
    "Softwa": 187,
    "Software</w>": 188,
    "Su": 189,
    "Supervised</w>": 190,
    "T": 191,
    "Tr": 192,
    "Trans": 193,
    "Transactions</w>": 194,
    "U": 195,
    "Un": 196,
    "Unsu": 197,
    "Unsupervised</w>": 198,
    "V": 199,
    "Ver": 200,
    "Version</w>": 201,
    "Vi": 202,
    "Vir": 203,
    "Virtu": 204,
    "Virtual</w>": 205,
    "W": 206,
    "a": 207,
    "a.</w>": 208,
    "a</w>": 209,
    "ab": 210,
    "abas": 211,
    "able</w>": 212,
    "ac": 213,
    "acces": 214,
    "access</w>": 215,
    "ach": 216,
    "achin": 217,
    "acros": 218,
    "across</w>": 219,
    "act": 220,
    "act.</w>": 221,
    "acti": 222,
    "action": 223,
    "actions</w>": 224,
    "activ": 225,
    "activation": 226,
    "activations,</w>": 227,
    "ad": 228,
    "ad</w>": 229,
    "adap": 230,
    "adapts</w>": 231,
    "af": 232,
    "ag": 233,
    "age</w>": 234,
    "agg": 235,
    "aggreg": 236,
    "aggregates</w>": 237,
    "ain": 238,
    "al": 239,
    "al</w>": 240,
    "alg": 241,
    "algor": 242,
    "algorit": 243,
    "algorith": 244,
    "algorithms</w>": 245,
    "alig": 246,
    "align": 247,
    "alignment": 248,
    "alignment,</w>": 249,
    "am": 250,
    "an": 251,
    "anal": 252,
    "analy": 253,
    "analytic": 254,
    "analytics.</w>": 255,
    "anc": 256,
    "and": 257,
    "and</w>": 258,
    "ang": 259,
    "ann": 260,
    "ans": 261,
    "ap": 262,
    "appl": 263,
    "applic": 264,
    "applications</w>": 265,
    "applies</w>": 266,
    "ar": 267,
    "arch": 268,
    "archit": 269,
    "architec": 270,
    "architecture</w>": 271,
    "as": 272,
    "as</w>": 273,
    "at": 274,
    "at</w>": 275,
    "ate</w>": 276,
    "ates</w>": 277,
    "ation": 278,
    "ation</w>": 279,
    "ations</w>": 280,
    "ay": 281,
    "b": 282,
    "bal": 283,
    "balanc": 284,
    "balancers</w>": 285,
    "be": 286,
    "bef": 287,
    "before</w>": 288,
    "beh": 289,
    "beha": 290,
    "behavi": 291,
    "behavior": 292,
    "behavior.</w>": 293,
    "ben": 294,
    "bench": 295,
    "benchm": 296,
    "benchmar": 297,
    "benchmarks</w>": 298,
    "bu": 299,
    "buil": 300,
    "build": 301,
    "build</w>": 302,
    "builds</w>": 303,
    "but</w>": 304,
    "c": 305,
    "cach": 306,
    "caches</w>": 307,
    "can": 308,
    "can</w>": 309,
    "cap": 310,
    "capture</w>": 311,
    "ce": 312,
    "ces": 313,
    "ch": 314,
    "chang": 315,
    "change": 316,
    "changes;</w>": 317,
    "changes</w>": 318,
    "changing</w>": 319,
    "cho": 320,
    "choo": 321,
    "choose</w>": 322,
    "cl": 323,
    "clas": 324,
    "classi": 325,
    "classific": 326,
    "classification</w>": 327,
    "clear": 328,
    "clear</w>": 329,
    "clu": 330,
    "clust": 331,
    "cluster": 332,
    "clusters,</w>": 333,
    "clusters.</w>": 334,
    "co": 335,
    "cod": 336,
    "code": 337,
    "code</w>": 338,
    "codes,</w>": 339,
    "coding,</w>": 340,
    "colu": 341,
    "colum": 342,
    "column": 343,
    "columns,</w>": 344,
    "com": 345,
    "comb": 346,
    "combines</w>": 347,
    "comm": 348,
    "commit": 349,
    "commit</w>": 350,
    "comp": 351,
    "comple": 352,
    "complex": 353,
    "complex</w>": 354,
    "comput": 355,
    "computes</w>": 356,
    "con": 357,
    "concur": 358,
    "concurren": 359,
    "concurrenc": 360,
    "concurrency.</w>": 361,
    "cont": 362,
    "context</w>": 363,
    "contro": 364,
    "control": 365,
    "control,</w>": 366,
    "control</w>": 367,
    "cor": 368,
    "corp": 369,
    "corpor": 370,
    "corpora.</w>": 371,
    "cros": 372,
    "cross": 373,
    "cross-": 374,
    "cross-ent": 375,
    "cross-entro": 376,
    "cross-entrop": 377,
    "cross-entropy</w>": 378,
    "cur": 379,
    "d": 380,
    "d</w>": 381,
    "dat": 382,
    "data.</w>": 383,
    "data</w>": 384,
    "databas": 385,
    "databases</w>": 386,
    "de": 387,
    "de</w>": 388,
    "debu": 389,
    "debug": 390,
    "debug</w>": 391,
    "dec": 392,
    "deci": 393,
    "decision": 394,
    "decisions.</w>": 395,
    "def": 396,
    "defin": 397,
    "define</w>": 398,
    "defines</w>": 399,
    "den": 400,
    "denormalization</w>": 401,
    "dep": 402,
    "depend": 403,
    "dependenc": 404,
    "dependencies</w>": 405,
    "depending</w>": 406,
    "depl": 407,
    "deplo": 408,
    "deploy": 409,
    "deployment": 410,
    "deployment.</w>": 411,
    "desig": 412,
    "design</w>": 413,
    "dex": 414,
    "di": 415,
    "dif": 416,
    "diff": 417,
    "diffe": 418,
    "different</w>": 419,
    "dis": 420,
    "disco": 421,
    "discovers</w>": 422,
    "distr": 423,
    "distrib": 424,
    "distribut": 425,
    "distribute</w>": 426,
    "do": 427,
    "docu": 428,
    "documents</w>": 429,
    "dom": 430,
    "domin": 431,
    "dominate</w>": 432,
    "duc": 433,
    "dur": 434,
    "durable</w>": 435,
    "e": 436,
    "e</w>": 437,
    "ec": 438,
    "ed": 439,
    "ed</w>": 440,
    "el": 441,
    "em": 442,
    "en": 443,
    "enc": 444,
    "end": 445,
    "endpo": 446,
    "endpoin": 447,
    "endpoints,</w>": 448,
    "eng": 449,
    "engine": 450,
    "engineer": 451,
    "engineering,</w>": 452,
    "engineering</w>": 453,
    "ent": 454,
    "ent</w>": 455,
    "enti": 456,
    "entiti": 457,
    "entities</w>": 458,
    "envi": 459,
    "envir": 460,
    "environ": 461,
    "environments</w>": 462,
    "er": 463,
    "err": 464,
    "error</w>": 465,
    "ers,</w>": 466,
    "ers</w>": 467,
    "es.</w>": 468,
    "es</w>": 469,
    "ever": 470,
    "every</w>": 471,
    "ex": 472,
    "exam": 473,
    "exampl": 474,
    "example</w>": 475,
    "exce": 476,
    "excel</w>": 477,
    "expl": 478,
    "explain": 479,
    "explains</w>": 480,
    "explore</w>": 481,
    "expo": 482,
    "expose</w>": 483,
    "ext</w>": 484,
    "extern": 485,
    "external</w>": 486,
    "f": 487,
    "fact": 488,
    "factor": 489,
    "factors,</w>": 490,
    "fi": 491,
    "fic": 492,
    "fil": 493,
    "file</w>": 494,
    "filt": 495,
    "filters,</w>": 496,
    "fo": 497,
    "for</w>": 498,
    "fore": 499,
    "foreig": 500,
    "foreign</w>": 501,
    "form": 502,
    "fro": 503,
    "from": 504,
    "from</w>": 505,
    "ful": 506,
    "full</w>": 507,
    "g": 508,
    "ge</w>": 509,
    "gen": 510,
    "gener": 511,
    "generation</w>": 512,
    "go": 513,
    "goal": 514,
    "goals.</w>": 515,
    "gr": 516,
    "grap": 517,
    "graph": 518,
    "graphs</w>": 519,
    "gro": 520,
    "group": 521,
    "groups,</w>": 522,
    "gu": 523,
    "guar": 524,
    "guaran": 525,
    "guarante": 526,
    "guarantees</w>": 527,
    "h": 528,
    "h</w>": 529,
    "hand": 530,
    "hand-": 531,
    "hand-writ": 532,
    "hand-written": 533,
    "hand-written</w>": 534,
    "has": 535,
    "hash</w>": 536,
    "hi": 537,
    "hier": 538,
    "hierarch": 539,
    "hierarchic": 540,
    "hierarchical</w>": 541,
    "ho": 542,
    "hot</w>": 543,
    "i": 544,
    "ib": 545,
    "ic": 546,
    "id": 547,
    "identi": 548,
    "identif": 549,
    "identify</w>": 550,
    "ies</w>": 551,
    "ig": 552,
    "il": 553,
    "im": 554,
    "imag": 555,
    "images.</w>": 556,
    "impro": 557,
    "improv": 558,
    "improve</w>": 559,
    "improves</w>": 560,
    "in": 561,
    "in</w>": 562,
    "index": 563,
    "index</w>": 564,
    "indexes</w>": 565,
    "ine": 566,
    "ines</w>": 567,
    "ing": 568,
    "ing,</w>": 569,
    "ing.</w>": 570,
    "ing</w>": 571,
    "inp": 572,
    "input": 573,
    "inputs</w>": 574,
    "inst": 575,
    "inste": 576,
    "instead</w>": 577,
    "int": 578,
    "inte": 579,
    "integr": 580,
    "integration</w>": 581,
    "intel": 582,
    "intell": 583,
    "intellig": 584,
    "intelligenc": 585,
    "intelligence</w>": 586,
    "is": 587,
    "iso": 588,
    "isol": 589,
    "isolate</w>": 590,
    "issu": 591,
    "issues.</w>": 592,
    "it": 593,
    "ity</w>": 594,
    "iz": 595,
    "j": 596,
    "jec": 597,
    "jo": 598,
    "join": 599,
    "joins,</w>": 600,
    "k": 601,
    "ke": 602,
    "key": 603,
    "keys</w>": 604,
    "knowledge</w>": 605,
    "ks</w>": 606,
    "l": 607,
    "l</w>": 608,
    "lab": 609,
    "label": 610,
    "labels</w>": 611,
    "lang": 612,
    "langu": 613,
    "language</w>": 614,
    "lar": 615,
    "large</w>": 616,
    "lat": 617,
    "latenc": 618,
    "latency</w>": 619,
    "latent</w>": 620,
    "lation": 621,
    "lay": 622,
    "layers,</w>": 623,
    "layers</w>": 624,
    "le": 625,
    "le</w>": 626,
    "lear": 627,
    "learn": 628,
    "learn</w>": 629,
    "learning.</w>": 630,
    "learning</w>": 631,
    "lic": 632,
    "lin": 633,
    "link": 634,
    "link</w>": 635,
    "lo": 636,
    "loc": 637,
    "lock": 638,
    "locking</w>": 639,
    "log": 640,
    "logs,</w>": 641,
    "loo": 642,
    "look": 643,
    "lookup": 644,
    "lookups;</w>": 645,
    "los": 646,
    "loss.</w>": 647,
    "lu": 648,
    "m": 649,
    "machin": 650,
    "machines.</w>": 651,
    "man": 652,
    "manage</w>": 653,
    "map": 654,
    "map</w>": 655,
    "maps</w>": 656,
    "me": 657,
    "meas": 658,
    "measure</w>": 659,
    "mem": 660,
    "memor": 661,
    "memory": 662,
    "memory,</w>": 663,
    "ment": 664,
    "ments</w>": 665,
    "metr": 666,
    "metric": 667,
    "metrics,</w>": 668,
    "mo": 669,
    "mod": 670,
    "mode": 671,
    "model": 672,
    "model</w>": 673,
    "modeling</w>": 674,
    "models.</w>": 675,
    "models</w>": 676,
    "modul": 677,
    "modules</w>": 678,
    "ms</w>": 679,
    "mul": 680,
    "multi": 681,
    "multi-": 682,
    "multi-version</w>": 683,
    "multimod": 684,
    "multimodal</w>": 685,
    "n": 686,
    "n</w>": 687,
    "ne": 688,
    "need": 689,
    "need</w>": 690,
    "needs;</w>": 691,
    "netw": 692,
    "networ": 693,
    "networks</w>": 694,
    "next</w>": 695,
    "no": 696,
    "non": 697,
    "nonl": 698,
    "nonline": 699,
    "nonlinear": 700,
    "nonlinear</w>": 701,
    "now": 702,
    "nowle": 703,
    "nowled": 704,
    "nowledge</w>": 705,
    "o": 706,
    "ob": 707,
    "objec": 708,
    "objects</w>": 709,
    "oc": 710,
    "ocu": 711,
    "of": 712,
    "of</w>": 713,
    "on": 714,
    "on</w>": 715,
    "ont": 716,
    "op": 717,
    "optim": 718,
    "optimiz": 719,
    "optimizers</w>": 720,
    "optimizes</w>": 721,
    "or": 722,
    "or</w>": 723,
    "orch": 724,
    "orche": 725,
    "orchestr": 726,
    "orchestrates</w>": 727,
    "ore</w>": 728,
    "org": 729,
    "organ": 730,
    "organiz": 731,
    "organize</w>": 732,
    "orm": 733,
    "ormal": 734,
    "ormaliz": 735,
    "ormalization</w>": 736,
    "over": 737,
    "over</w>": 738,
    "overf": 739,
    "overfit": 740,
    "overfitt": 741,
    "overfitting.</w>": 742,
    "oversig": 743,
    "oversigh": 744,
    "oversight.</w>": 745,
    "p": 746,
    "pac": 747,
    "pack": 748,
    "packag": 749,
    "package</w>": 750,
    "packages</w>": 751,
    "pat": 752,
    "pattern": 753,
    "patterns.</w>": 754,
    "pay": 755,
    "paylo": 756,
    "payload": 757,
    "payloads.</w>": 758,
    "per": 759,
    "per</w>": 760,
    "perce": 761,
    "percei": 762,
    "perceiv": 763,
    "perceive": 764,
    "perceive,</w>": 765,
    "percep": 766,
    "perception": 767,
    "perception,</w>": 768,
    "perform": 769,
    "performan": 770,
    "performance": 771,
    "performance.</w>": 772,
    "pervi": 773,
    "pervis": 774,
    "pervised</w>": 775,
    "pl": 776,
    "plann": 777,
    "planners</w>": 778,
    "plic": 779,
    "po": 780,
    "pod": 781,
    "pods,</w>": 782,
    "polic": 783,
    "policies</w>": 784,
    "pred": 785,
    "predic": 786,
    "predicts</w>": 787,
    "pretrain": 788,
    "pretrained</w>": 789,
    "pro": 790,
    "proces": 791,
    "process": 792,
    "processe": 793,
    "processes,</w>": 794,
    "processes</w>": 795,
    "produc": 796,
    "production</w>": 797,
    "projec": 798,
    "project.</w>": 799,
    "provi": 800,
    "provide</w>": 801,
    "pub": 802,
    "public": 803,
    "public</w>": 804,
    "q": 805,
    "qu": 806,
    "qual": 807,
    "quality</w>": 808,
    "quer": 809,
    "queri": 810,
    "queries.</w>": 811,
    "r": 812,
    "ra": 813,
    "raw</w>": 814,
    "re": 815,
    "re</w>": 816,
    "read": 817,
    "read</w>": 818,
    "reads</w>": 819,
    "reas": 820,
    "reason": 821,
    "reason,</w>": 822,
    "reasoning,</w>": 823,
    "recor": 824,
    "record": 825,
    "records.</w>": 826,
    "red": 827,
    "reduc": 828,
    "reduce</w>": 829,
    "reduces</w>": 830,
    "redund": 831,
    "redundanc": 832,
    "redundancy": 833,
    "redundancy;</w>": 834,
    "reg": 835,
    "regres": 836,
    "regression</w>": 837,
    "regul": 838,
    "regular": 839,
    "regulariz": 840,
    "regularization": 841,
    "regularization,</w>": 842,
    "rel": 843,
    "relation": 844,
    "relations.</w>": 845,
    "reli": 846,
    "reliable</w>": 847,
    "ren": 848,
    "rent</w>": 849,
    "rep": 850,
    "repor": 851,
    "reports</w>": 852,
    "repres": 853,
    "represent": 854,
    "representation": 855,
    "representations.</w>": 856,
    "reproduc": 857,
    "reproducib": 858,
    "reproducible</w>": 859,
    "requ": 860,
    "reque": 861,
    "request": 862,
    "requests.</w>": 863,
    "res": 864,
    "reso": 865,
    "resour": 866,
    "resourc": 867,
    "resources</w>": 868,
    "retrain": 869,
    "reus": 870,
    "reusable</w>": 871,
    "revi": 872,
    "revie": 873,
    "review</w>": 874,
    "reward</w>": 875,
    "ro": 876,
    "robu": 877,
    "robust": 878,
    "robustne": 879,
    "robustnes": 880,
    "robustness,</w>": 881,
    "rol": 882,
    "roll": 883,
    "rolling</w>": 884,
    "ros": 885,
    "row": 886,
    "rows,</w>": 887,
    "rows;</w>": 888,
    "ru": 889,
    "rule": 890,
    "rules.</w>": 891,
    "run": 892,
    "runs</w>": 893,
    "s": 894,
    "s,</w>": 895,
    "s.</w>": 896,
    "s;</w>": 897,
    "s</w>": 898,
    "saf": 899,
    "safe": 900,
    "safel": 901,
    "safely.</w>": 902,
    "safet": 903,
    "safety</w>": 904,
    "sc": 905,
    "scal": 906,
    "scale</w>": 907,
    "scan": 908,
    "scans.</w>": 909,
    "scans</w>": 910,
    "sch": 911,
    "sched": 912,
    "schedu": 913,
    "schedule</w>": 914,
    "schem": 915,
    "schema</w>": 916,
    "se": 917,
    "se</w>": 918,
    "sele": 919,
    "selec": 920,
    "selects,</w>": 921,
    "selects</w>": 922,
    "sequ": 923,
    "sequenc": 924,
    "sequences</w>": 925,
    "ser": 926,
    "serv": 927,
    "serve</w>": 928,
    "servers</w>": 929,
    "servic": 930,
    "service": 931,
    "services,</w>": 932,
    "ses": 933,
    "session": 934,
    "sessions,</w>": 935,
    "sh": 936,
    "shar": 937,
    "shard": 938,
    "sharding</w>": 939,
    "sharing.</w>": 940,
    "si": 941,
    "sig": 942,
    "sign": 943,
    "signal": 944,
    "signals</w>": 945,
    "sion": 946,
    "sion</w>": 947,
    "sp": 948,
    "spac": 949,
    "spaces.</w>": 950,
    "spe": 951,
    "speed</w>": 952,
    "spl": 953,
    "split": 954,
    "splits</w>": 955,
    "st": 956,
    "stac": 957,
    "stacks</w>": 958,
    "state</w>": 959,
    "sti": 960,
    "stil": 961,
    "still</w>": 962,
    "store</w>": 963,
    "str": 964,
    "struc": 965,
    "structu": 966,
    "structure": 967,
    "structure.</w>": 968,
    "structure</w>": 969,
    "structured</w>": 970,
    "stu": 971,
    "stud": 972,
    "studies</w>": 973,
    "su": 974,
    "such": 975,
    "such</w>": 976,
    "sums</w>": 977,
    "sy": 978,
    "syst": 979,
    "system": 980,
    "systems.</w>": 981,
    "systems</w>": 982,
    "t": 983,
    "t.</w>": 984,
    "t</w>": 985,
    "tab": 986,
    "tabl": 987,
    "table": 988,
    "table</w>": 989,
    "tables,</w>": 990,
    "tables.</w>": 991,
    "tables</w>": 992,
    "tas": 993,
    "task": 994,
    "tasks.</w>": 995,
    "te": 996,
    "tem": 997,
    "templ": 998,
    "templat": 999,
    "templates.</w>": 1000,
    "ten": 1001,
    "ter": 1002,
    "tern": 1003,
    "test": 1004,
    "tests</w>": 1005,
    "th": 1006,
    "that</w>": 1007,
    "the</w>": 1008,
    "thre": 1009,
    "threat</w>": 1010,
    "ti": 1011,
    "tic": 1012,
    "tim": 1013,
    "time": 1014,
    "time.</w>": 1015,
    "tion": 1016,
    "tion</w>": 1017,
    "to": 1018,
    "to</w>": 1019,
    "tod": 1020,
    "today": 1021,
    "today.</w>": 1022,
    "tok": 1023,
    "token": 1024,
    "token</w>": 1025,
    "tokens,</w>": 1026,
    "tokens.</w>": 1027,
    "toward</w>": 1028,
    "tr": 1029,
    "trac": 1030,
    "traces</w>": 1031,
    "tracks</w>": 1032,
    "traf": 1033,
    "traffic": 1034,
    "traffic;</w>": 1035,
    "train": 1036,
    "trains</w>": 1037,
    "trans": 1038,
    "transform": 1039,
    "transformers</w>": 1040,
    "ts,</w>": 1041,
    "ts</w>": 1042,
    "tu": 1043,
    "ture</w>": 1044,
    "tw": 1045,
    "u": 1046,
    "ub": 1047,
    "uc": 1048,
    "ul": 1049,
    "un": 1050,
    "und": 1051,
    "under": 1052,
    "underst": 1053,
    "understand": 1054,
    "understanding.</w>": 1055,
    "uni": 1056,
    "uniqu": 1057,
    "uniquel": 1058,
    "uniquely</w>": 1059,
    "up": 1060,
    "updat": 1061,
    "updates</w>": 1062,
    "ur": 1063,
    "ure</w>": 1064,
    "us": 1065,
    "use</w>": 1066,
    "user": 1067,
    "user</w>": 1068,
    "uses</w>": 1069,
    "ut": 1070,
    "ut</w>": 1071,
    "v": 1072,
    "val": 1073,
    "valid": 1074,
    "validation</w>": 1075,
    "ver": 1076,
    "vers</w>": 1077,
    "version": 1078,
    "version</w>": 1079,
    "versioned</w>": 1080,
    "versu": 1081,
    "versus</w>": 1082,
    "vi": 1083,
    "w": 1084,
    "w</w>": 1085,
    "war": 1086,
    "ward</w>": 1087,
    "we": 1088,
    "weig": 1089,
    "weigh": 1090,
    "weight": 1091,
    "weighted</w>": 1092,
    "wit": 1093,
    "with</w>": 1094,
    "witho": 1095,
    "without</w>": 1096,
    "wr": 1097,
    "writ": 1098,
    "writes</w>": 1099,
    "x": 1100,
    "y": 1101,
    "y.</w>": 1102,
    "y</w>": 1103,
    "z": 1104
  }
}